[CLS]
[UNK]
[SEP]
[PAD]
[MASK]
##의
##,
##에
##이
##을
##은
있다.
이
##과
수
##한
##는
##로
##으로
##가
##인
##도
##에서
##를
그
##와
##하는
##했다.
##하였다.
##하고
##하여
##이다.
있는
##할
##지
"
한
##기
##된
##되었다.
##고
'
##해
중
《
##자
##스
##·
##적
그는
전
##리
한다.
##나
##하게
##시
되었다.
##사
후
##.
사
##만
대한
##수
두
##어
##되어
##까지
유
시
##적인
이후
대
##서
가
같은
등
고
정
##라
##게
##대
주
신
및
##한다.
##성
비
지
함께
##부
다른
기
위해
##다
##트
또한
그의
부
오
성
##부터
아
도
조
##들이
##하기
##드
##화
##장
소
##들은
때
서
상
2
##-
자
세
하
##적으로
원
##원
것을
가장
그러나
##다.
공
1
일
##상
미
##주
해
동
##산
더
##진
4
##아
했다.
마
구
##비
##타
장
##정
된다.
##하지
##소
때문에
##들을
있었다.
무
내
##니
3
##치
##일
##선
그리고
##전
##우
따라
##노
##미
것으로
##세
##마
##구
다
많은
불
모
##당
‘
당시
##동
의해
##되는
5
것이다.
##야
경
다시
##군
우
인
것이
##"
안
제
##오
통해
파
남
##조
##에게
양
또는
재
##레
##히
강
##면
반
하는
##제
약
보
의
선
총
문
##들의
##회
##르
김
일본
##하
##신
리
데
여러
##명
하였다.
여
진
첫
로
6
바
큰
에
##토
미국
산
##호
피
나
##크
호
##여
##하며
카
##된다.
모든
모두
각
할
##던
##며
##보
단
##프
스
포
##형
연
##하면서
알
당
##국
말
세계
##무
본
##였다.
##티
등의
##바
##들
##계
것은
##되고
##관
##포
자신의
10
위
##위
##간
배
##문
##e
##s
##천
타
위한
##모
초
노
##용
##키
##코
8
한국
##경
이러한
##단
##'
##라는
교
##루
##식
##파
있으며,
##에는
어
뒤
차
##체
이는
##즈
매
코
##차
군
7
현재
##디
A
국
##네
대해
북
##에서는
##하고,
간
박
##양
입
##학
##2
##중
이를
발
열
명
##분
영
##카
등을
예
치
##안
##러
C
관
12월
7월
10월
##하였고,
〈
M
##보다
##3
##린
거
8월
볼
##고,
##m
외
경우
되어
3월
실
현
##쿠
6월
등이
5월
4월
9월
##유
“
##1
##란
##터
된
왕
화
하지만
##라고
중국
요
개
-
##/
청
이에
종
##연
토
만
라
다음과
1월
##공
것
##권
적
##다는
##피
##교
광
##영
방
B
##브
같이
9
동안
번
##a
##질
11월
##데
새로운
##현
과
##창
##두
조선
금
##이나
최
역
##다고
##A
학
##거
##방
프랑스
S
##병
특히
##했고,
사용
또
저
시작
심
##행
##y
##더
##재
천
삼
##t
영화
있던
##S
키
영국
##했던
매우
##석
분
패
##실
하고
잘
인해
##종
##금
##L
##강
일부
시즌
##법
용
법
##류
레
##:
##지는
이어
받았다.
##운
##태
변
번째
##급
G
##테
##민
##E
##승
직
##주의
##려
결국
##온
2월
##O
##될
##o
##저
대한민국
##자가
##기를
##D
백
태
##R
##M
##왕
##츠
##었다.
##개
T
##4
##으며,
연구
##면서
판
루
감
독일
생
가지고
##역
##직
##물
##이며,
##발
##T
국가
서울
##광
주로
물
##남
##후
지역
##》
##메
베
황
없는
계속
계
##되지
##성을
<
네
##그
D
##하며,
##청
##점
정치
않았다.
많이
로마
##들과
##하기도
국제
##각
속
평
20
##요
##버
##생
2010년
목
##림
##복
##봉
##평
온
페
##령
증
함
추
##반
수도
##n
고려
##백
날
개발
##I
리그
##년
축구
##장을
방송
##되었고,
중앙
##투
형
대한민국의
교육
##스는
##량
달
줄
유럽
##초
허
##난
##B
은
2008년
사회
다음
프로
F
버
P
민
##워
##베
##명의
R
임
통
있으며
공격
손
##7
아니라
새
E
##~
##C
송
##퍼
##내
회
있어
음악
##으며
못
##군의
##래
##언
드
주요
2009년
##져
##암
##자를
살
##절
거의
진행
##약
##G
다양한
##9
2011년
없다.
##곡
##하던
복
##색
##자의
절
##배
별
##p
##F
##탄
체
제작
##P
##하면
애
##했고
##판
음
##권을
채
##엔
##>
높은
출
않고
##했으며,
그가
봉
이상
행
악
##심
영향을
##예
18
##하였으며,
활동
##불
러시아
L
##집
##자는
##임
##등
점
야
승
경제
##론
2007년
##케
결
병
2012년
##지만
##작
게임
순
##l
##h
##6
가지
##들에게
##하다.
표
홍
##번
팔
친
독립
##항
합
들어
##졌다.
되는
##락
메
후에
않은
##랑
생산
미국의
면
2014년
이름을
않는
##스의
K
##덕
##이라는
환
극
##속
처음
크게
##준
##업
##명이
가운데
따라서
16
역시
##날
##감
N
히
존
조직
,
##목
즉
보고
취
##였던
2013년
몇
운영
편
##음
15
##총
##링
중요한
쓰
지원
##건
##매
난
##다가
서로
##자로
##처
윤
글
존재
##순
작은
하여
받아
##리는
대학
전쟁
##족
##살
##지를
집
##군은
디
열린
알려져
W
만들어
##처럼
##기도
기록
##거나
2006년
이용
##달
##r
##력
##록
국민
##”
##하자
농
테
##상을
같다.
일본의
표현
##8
기술
죽
대표
##희
선수
와
항
막
동시에
한편
각각
밀
##i
##명을
##너
##N
##설
거쳐
투
0
어떤
##되었으며,
##송
##출
일반
시작했다.
##축
도시
직접
창
##며,
##이며
2015년
##사를
충
I
돌
폭
##통
##기는
앨범
아닌
자유
질
##씨
##으나
사이에
##악
않는다.
##c
사망
관한
##과의
##점을
가진
발견
식
참
##스트
의한
처음으로
있고,
##페
역할을
이탈리아
처
##망
우승
지방
있을
##증
##합
경기
##길
##궁
결정
##릴
석
문화
마지막
누
##친
팀
최초의
##지만,
근
생각
##블
##담
권
있다고
##커
들
2016년
##해야
##이었다.
말한다.
섬
관련
「
여성
##박
##철
##함
##u
귀
##격
발표
바로
##품
준
##좌
설치
판매
후,
##본
보통
##되면서
##%
급
##g
##」
##외
곡
스타
그를
##슈
##북
이것은
##근
아들
향
독
##K
H
##V
최고
걸
##이라고
##성이
갈
될
대신
정의
개의
이미
교황
##립
##d
대통령
##k
##]
격
경기에서
##충
접
자연
##극
##억
##말
커
##별
##’
##됐다.
2005년
##인의
설
100
##장이
##해서
헤
##ar
발생
V
벌
건설
니
##편
##이자
암
##쓰
슈
풍
있다는
##km
##변
위치한
딸
30
칼
##손
건
받은
설립
게
##와의
##하였고
##례
##른
일반적으로
데뷔
철
##군을
때문이다.
##열
##향
##표
##았다.
길
##U
##렌
##들에
##결
##〉
##숙
중심으로
##녀
골
구성
없이
##범
##환
이동
가능
혹은
해당
O
##슨
##추
~
##갈
##an
##지고
소속
는
##회의
##기가
##빈
그리스
이런
2017년
##울
##군이
필
자신이
##er
##f
어느
##5
퍼
때,
전투
##머
쿠
아이
긴
##월
위하여
50
##든
##에도
축
17
성공
지휘
공식
##H
##있는
U
참여
##b
##X
##지에
만든
##션
감독
##수를
##황
2004년
앞
올
결과
견
컴퓨터
군사
특
정도
뉴
달리
##골
##》,
분류
퇴
##독
현대
시간
맥
반대
지배
##했다고
몸
##하여,
2018년
이때
##전에서
적용
올림픽
##in
자기
핵
##시켰다.
##사가
그녀는
색
##술
##]]
인정
##료
전국
발매
활동을
야구
##기에
##사의
J
있는데,
##헌
##》의
대부분의
##력을
겸
이상의
협
2년
선거
##훈
아니
##했으며
시대
곧
필요
받고
수행
##서를
##필
제공
산업
##!
##기의
##삼
내려
월
##3년
FC
태어났다.
##층
효
추가
공개
작
주장
배우
통합
관리
묘
##으로,
변경
남아
않
원래
##ic
궁
맞
##al
육
이와
티
관계
##인이
기업
있고
##탈
소련
싱글
형성
##흥
최초로
걸쳐
탈
등에
##1년
##입
##는데
좌
따르면
##대로
중심
참가
##턴
##는데,
구조
##쳐
##옥
책
##전을
평가
사업
##수가
임명
등으로
##으나,
탄
생활
14
결혼
예를
개최
쇼
되
있게
두고
2002년
##벌
##있다.
대회
##되었고
전체
사이
있어서
초기
그들의
이들은
##스를
종교
##로,
문제
개인
##장으로
빈
완
클럽
그룹
더욱
##패
##채
뉴욕
##었고,
:
##원을
##on
1일
건축
좋은
도쿄
##돌
##먼
##정을
없었다.
트
잔
##》에
시민
##2년
##장은
기본
노래
눈
##슬
##도록
대전
##귀
##선을
등장
##지가
연방
##위원회
음반
##부의
##지의
##W
이유로
##찬
##국의
보인다.
##함으로써
##전에
전에
도입
하나
##는다.
때문에,
연결
기독교
2차
것이라고
학생
##이라
폐
##음을
발전
언어
운행
##이고
선택
##막
케
혼
기간
드라마
·
팬
말했다.
##글
##리아
스페인
인도
증가
가족
기원전
이름은
##부는
낙
기타
2003년
##x
40
##존
그들은
기관
정부
보내
캐
명의
터
크
밝혔다.
하나의
아래
##물을
##스가
잡
##으로부터
##)
##수는
200
##람
##취
FIFA
작품
시리즈
만들
##하도록
##했을
##대학교
1년
모습을
있었던
요구
되고
애니메이션
##견
##볼
##치는
##했지만
##풍
보호
하지
##되기
염
##척
##인은
제국
##습
1,
##름
아버지
##규
점령
##센
##착
푸
연합
##주는
##사는
몰
부족
부산
운
표준
경기도
##사로
##대의
출연
검
옥
행정
강화
운동
##상의
또한,
실시
국내
##》는
민족
##시켜
##대를
위에
이전
##위를
수상
교회
##호로
##자와
##윤
##성의
##is
##원의
##하거나
##로부터
태양
##씩
통과
평균
휴
출판
##묘
##화를
것에
학교
2000년
인간
중에
계획
진출
제2차
여자
##엘
##스터
##런
기념
등과
제한
역사
##명은
최대
사용하는
##자,
##제를
범
사랑
##엄
##밀
교통
사이의
을
##만이
울
##문을
선발
유지
##지로
우주
완전히
##긴
대부분
12
제1
따
설계
하다.
TV
비판
##효
계약
대하여
공연
##ing
##드는
지역의
사람이
고대
높
그대로
사실
쌍
##톤
발달
담
##이는
##it
##했으나
비해
포함한
사상
업
##흐
##도는
##애
되었고,
##장의
워
m
자주
##몬
파괴
##개의
##맨
있
둘
이들
즉,
포함
##누
X
압
넘
먹
이름으로
##로서
##w
사건
추진
##세의
월드컵
연속
널리
헌
경우,
##했다는
소설
지정되었다.
##푸
정도로
먼저
알려진
예술
##점이
##골을
나라
분석
갖고
##성은
못했다.
년
##세를
비롯한
비행
지구
##했
##읍
##냐
그녀의
##도가
2001년
##렸다.
##하였으나
##레이
것이었다.
언급
##도를
블
위치
전기
##기로
##야마
있도록
정규
현재의
공동
##관을
##니아
대학교
맡았다.
철도
##가지
3년
##대학
뿐
가르
없
홈
침
##하였으며
경쟁
시절
마르
경우가
##칸
휘
사람들이
해석
##새
##택
##되기도
##간의
##염
변화
##』
유명한
때는
##나라
##홍
브
##뉴
이름
엔
잠
많다.
상대로
숙
어머니
승리
멤버
이적
##법을
##혈
선정
풀
##책
##겨
##트는
확장
##팅
##스와
##선의
프로그램
##샤
때까지
출전
##로는
단체
##완
##re
과정에서
##사에
이론
파견
세포
##마다
##룡
샤
##플
[[
현재는
콘
##이었
비슷한
씨
##"라고
인터넷
접근
아르
의하여
##》에서
여기서
힘
친구
##ol
영국의
부여
##쇼
요청
##했지만,
조사
##인을
##나무
전문
상대
칸
공화국
결합
##만을
대체
기준으로
북한
##되었으며
이해
불리는
##침
##렸
같
##춘
이렇게
##or
캐릭터
##받았다.
c
##리에
실험
##자인
부분
아시아
##으로서
##킨
a
##겐
법률
논
##원이
##스타
정보
폴란드
선언
않아
##리를
경찰
독일의
##한다는
국립
s
##트로
보다
수많은
##시키는
명령
한편,
##이고,
클
콜
기준
엘
스스로
사람
우승을
배치
##촌
후반
##부에
올라
##명으로
##익
집합
활약
11
##단의
##부가
##젠
##자들은
##콘
것과
행동
성장
정당
##쳤다.
##칭
아직
일을
km
##부를
제2
만에
결승
##원은
##수의
제국의
지역에
않았
마을
##과는
.
##le
조각
방어
그림
인천
과학
언론
##틴
시작하였다.
일제
캐나다
레이
##함을
능
확인
옛
##팔
위해서
최종
끝
대해서는
##곤
방문
낮
##력이
패배
1998년
##지게
##튼
네덜란드
##[
불구하고
끝에
몇몇
후보
##군에
##',
구분
존재한다.
1999년
망
베트남
##련
주의
자료
##초등학교
##하다가
##대는
있기
경영
##되며,
##랜드
##협
##혀
제품
##모토
##시간
##율
##소를
##시에
##벨
복귀
졸업
과거
사용할
대표적인
##되고,
##없이
통치
괴
하나이다.
##리그
##교육
수용
##텐
체결
프리
연주
실제
왜
##체를
##위원
##자들이
않다.
##,000
##'을
##줄
##맥
분리
##수로
따르면,
##하는데
하며,
자동차
놓
프랑스의
더불어
##하려
사용한다.
시도
시행
##벤
아프리카
the
##계의
헌법
귀족
칭
##선이
처리
##에서도
##칠
쓴
형태로
가져
특별
엄
비교
##닝
##'의
것도
1차
##위에
완성
##팀
##번째
프
##으로는
오늘날
##v
제시
##대가
주민
##허
옮겨
따른
##형을
##하기로
##장,
문제가
##됐
어린
맡
##'라는
생성
##폐
탐
##엽
##폭
시험
##도의
기록했다.
못한
지냈다.
정부는
관측
##나는
##감을
##at
찾아
##mm
헬
##세기
기능
머
『
1.
발행
##왔다.
##당의
강한
유명
환경
##참
있지
##딩
말을
##싱
##운동
##에서의
육군
지지
익
스포츠
##》를
사라
##임을
외교
##장에
##시는
설명
##았
반응
출시
항공
계승
##혜
##했는데,
출신
뇌
빠
##액
##되
부른다.
위의
지난
빌
##움
시스템
##셀
특정
이름이
가능하다.
##리의
응
중에서
등록
노동
##냈다.
##럼
주변
팀의
##측
##능
센
##이기도
가능한
목적으로
나머지
지정
를
전해
주도
##식을
##멘
##들도
문제를
##시의
피해
##들로
of
경우에는
##틀
##대에
지도
해결
활용
전통
공작
##관이
차량
소유
덕
##구의
##'를
대륙
앙
상태
흥
##균
붙
데이터
종료
제거
품
한국의
관련된
녹
하루
만약
안정
벽
경기를
구성되어
1997년
제안
나무
안에
징
대구
낮은
##",
60
읽
지역에서
받
##스,
투표
주는
작용
하이
대중
##라이
##돈
##릉
##렬
사실을
##시키
##량이
관계를
받았
신라
공간
UEFA
실패
##"는
##신을
형식
##하지만
황제
##적이
이용하여
간의
전자
선출
인구
에서
그린
런던
희
뒤에
컨
##릿
찬
##en
너무
##때
##혼
무렵
##상은
개혁
믿
##방송
##탁
있지만,
수준
사이에서
불교
##왔
##리가
수는
요시
이듬해
##성과
겪
각종
사진
##지지
밤
전투에서
##체의
흑
결성
하고,
정치적
##세가
마련
필요한
##단을
수가
조약
영토
차례
##앙
조성
보존
소개
##"라는
기존의
물질
벤
적이
##"의
마찬가지로
##"를
재판
가까운
교체
사용된다.
##랜
##제는
일이
일어난
하며
실행
준비
성립
잉글랜드
##회를
카를
사고
##하였으나,
우리
##기,
부르
##도로
묘사
##다면
항상
실제로
이후,
불러
강조
못하고
작업
기록을
##었던
슬
갑
바다
자치
##빌
##찰
제3
70
신문
##쳤
##cm
##틱
떠
이루어
가수
맹
최고의
지나
##선은
남북
##로를
##클
합류
##트의
새로
유일한
체포
정착
##탑
치료
충돌
##셔
평화
##학자
##경기
##얼
##인으로
##시킨
1945년
지하철
없었
공항
전환
라이
##릭
모델
하나로
##화가
##프는
##서는
1995년
##제의
뿐만
##문화
발사
승격
1996년
##0
##량을
만나
##응
##몽
쪽
재직
초대
대응
##걸
드러
##소의
##가는
##학교
유래
앤
촬영
##구는
그해
허용
가는
폴
##세는
떠나
삼성
##금을
b
##진다.
만들어진
영어
꽃
##가의
여전히
있는데
##멸
의하면
굴
선수권
##폰
공격을
##7년
##당은
없어
돈
땅
##롱
##하라
끼
전략
동맹
나중에
수비
##검
승리를
저항
##만에
입학
속하는
제조
아일랜드
훈
p
하기
표시
사람은
내각
그러나,
##-0
기존
인식
주었다.
관찰
밝혀
##갔다.
##직을
##으면
동료
등은
뛰어
##자리
##》은
둔
오르
오스트리아
##뜨
##압
이후에
##as
타이
인한
일반적인
##10
올랐다.
##어,
여겨
정부의
기능을
바탕으로
##제가
##호는
록
##어로
떨어진
민주
귀국
##트를
[
##우스
정책
나온
혜
##학과
##전은
지역을
##롤
하지만,
인민
##성에
##군과
##쉬
웹
생활을
강력한
##었으며,
자리를
탑재
방법
쉽게
3일
##벽
의해서
##?
그래서
붕괴
##솔
##부터는
##부르크
##되며
##까지는
##킹
##했으나,
##구를
188
이다.
동물
훈련
공급
보수
점차
##명,
##왕의
번역
하게
부모
##적을
족
##덴
관심을
남자
베르
밴드
4년
담당
계약을
##보다는
##'는
##9년
1994년
##Y
불린다.
사람들은
주장했다.
상업
확보
상징
##하다고
##농
윌리엄
가입
디지털
지하
왔
##체가
은퇴
컴
그리
했
25
만들었다.
대립
##고등학교
이슬람
받는
일어나
젊은
아니다.
나타나
만드는
멕시코
홀
##드의
##돼
##종의
늘
##득
동생
슈퍼
##형의
하면서
##핵
시대의
##소가
##관으로
##소는
왔다.
15일
많
##한다고
##분을
##되자
인물
떨어
지명
작성
당시의
센터
##안을
중단
겨울
##호를
##주로
##우는
이끄는
##4년
제외한
##했기
외에도
바뀌
이로
##므로
##만의
조지
19
연장
##르는
잃
밖에
##기와
##큐
수립
경우도
##어를
본래
##학적
정식
탑
##베르
##us
##la
채택
경험
즉위
자체
##으므로
폰
넘어
물론
셀
이주
##널
##하였는데,
##자에
##김
집중
##님
알려
라디오
##육
종합
##었고
시기에
때에는
도착
근거
1992년
##인,
판단
##체는
세운
##상이
##캐
브라질
중국의
불과
##센터
전개
##낸
역할
이루어져
야마
##파의
##동안
통일
곳에
##z
오후
##스크
플
디자인
혁명
##화된
##까
##힌
인구는
맨
중요
20일
##몰
사용하여
##주를
이것이
작가
##장에서
방향
한다는
벨
제1차
힘을
##펜
전달
출발
개통
이루어진
1990년
##원으로
##어는
얼
류
감소
의미한다.
회복
죽은
##"을
자신을
##비를
80
주인공
대해서
확대
좀
##구가
##가를
##사,
통하여
##》을
사회주의
##리,
해방
열차
##으면서
월드
다섯
##+
해체
활
##스에
##조의
##올
여름
##되었던
##원에
/
##의를
##슨은
##하려는
시작되었다.
서비스
##점으로
##리스
얼마
들어가
교수
##풀
##거리
종류
그에게
가톨릭
흐
##겠
돌아
문학
발표했다.
##전이
형태
비교적
##홀
##관에
##전의
##으로써
##하에
않을
##단체
다만
##스키
한다고
맺
부정
정보를
인간의
건물
책임
남부
참석
1991년
뒤를
주어
규
종종
##잡
인기를
뛰어난
해군
다카
혈
오사카
유로
언
##량은
그런
500
되었
##킬
연기
소재
유리
유사
왕국
##시아
출생
##비는
##델
항복
##텔
러
지적
떨어져
등에서
##륜
매년
##국은
##석을
##켓
스웨덴
10일
함수
좋아
##오는
녹음
중간
##면,
##해,
시대에
시에
최근
곳
이야기
득점
도움을
formula1
2.
##지면서
가문
1993년
사용되는
미국에서
측
놀
##잔
##딘
##컵
균
##하다는
##랄
본관은
지속
전혀
미술
##'로
21일
위치해
기반
그에
사람의
##도에
분포
있지만
어떻게
##빙
암살
장착
홍콩
##계를
이루
##당을
##사와
지역은
출신의
지상
달성
증명
해외
또,
넓
알고
정도의
##시마
##욕
##도,
주교
아키
편집
전차
즐
노력
##졌
5일
봄
##하지만,
대회에서
우선
임명되었다.
##TV
##ou
뛰
회의
아주
높이
이래
##단은
1988년
때에
위험
##하다
##관은
내용을
##쥐
##정에
##인과
##정이
##학을
나오는
묻
##자들의
사실상
사무
오스트레일리아
##국이
##기관
속에
13
5년
##물이
답
##갔
생물
광주
30일
##J
되지
##밍
포르투갈
아내
전반
전시
##량의
##탕
e
##씨는
제정
의미
되면서
기초
숫
##졌고,
기억
깨
만화
너
살해
계산
태어난
##었다고
죽음
현실
내에서
근무
세웠다.
되고,
보이는
##미터
윈도우
시청
4일
인수
##동에
미래
있었고,
원칙
##"로
자는
폭발
##부로
##차를
방식으로
##쪽
습
속에서
2,
2일
핀란드
오히려
##ch
25일
적은
소비
그러
중의
탄생
지진
##세포
이전에
##ac
계열
설치되어
##갑
팀은
11일
##지,
##과학
나가
##지와
##받은
거절
##권의
부터
신앙
대형
##세에
천황
##첩
죄
도로
창설
과정을
1989년
의원
사례
칠
##비가
시설
투입
##젤
##적이고
침공
1위를
##로의
추정
24
가격
찾
##헤
##났
넣
파이
##겼다.
수록
##장과
동일
측정
##스티
오랜
방영
정상
여행
##단이
만큼
##학의
엔진
300
당선
기획
##치고
특징
##리고
자신
규정
##함에
짧은
술
기계
보급
구성된
내용
뒷
##위로
입단
개정
취임
28일
##스로
##징
##법은
느
##놀
반란
보면
비밀
흔히
장애
사회적
##크는
##알
합병
16일
사는
역임
정리
이끌고
맡았
마음
뽑
##하려고
건너
보도
획득
##구에
외에
##점은
사람을
전쟁이
동일한
##《
시각
##럴
몽골
가정
분야
##죄
다양
##으
##객
시기
직후
##즈의
수정
터키
생겨
비디오
태평양
나오
이스라엘
##버스
17일
핵심
표기
7일
##하고자
타고
통한
##카와
내부
역사상
잠시
이후에는
##였고,
협력
형태의
##%를
##관의
역은
장악
##였
자리
보였다.
선고
해안
전사
##ow
##철도
##났다.
##시키고
그래
##드를
##관,
##니는
##납
만족
인하여
27일
남편
라이브
##권이
전쟁을
달러
선수로
수학
던
아랍
위해서는
구단
##당한
상호
약간
넓은
시간이
농업
##시대
##십
##어의
솔
##중학교
대상으로
##콜
수여
계획을
세워
뜻
설정
뒤,
##음에도
18일
##연합
##인데,
##정의
지원을
KBS
사용되었다.
##녕
8일
여객
26일
##인지
하늘
##넷
정부가
개념
민간
멸망
바꾸
연극
훨씬
꾸
길이
되었으며,
10년
##되었으나
채널
사용한
예상
보는
##호가
메이저
은행
오브
개선
비록
델
제출
필리핀
다이
##학생
자동
9일
거부
##법에
신경
얼굴
그것은
얻었다.
##째
방출
##고를
착
##신의
제기
22일
차이가
12일
됐다.
##인들이
가로
반복
시의
좋
결과를
쌓
##스턴
낳
##렉
평양
금지
교토
##물의
##형은
##위의
발표한
##〉,
그것을
29일
이란
조건
##지기
바이
##이기
##일을
19세기
##까지의
##제로
이것을
흔
6일
Y
##기술
팀이
점을
##되어,
##이었던
##이의
##am
통해서
저장
이유는
외국
##하자,
##성,
##단에
시작한
잭
##'이라는
##트가
낭
텔레비전
14일
고구려
##컨
유엔
숨
시즌을
i
##써
인사
구별
정신
##씨의
##려고
처음에는
북부
##st
위협
23일
객
보냈다.
후에는
##닌
살고
것으로,
위치하고
##ir
경기에
목록
청년
3.
##조를
##끼
세계에서
받게
2개의
회사
요리
요한
##굴
등장하는
##당이
유도
##서에
##레스
내에
가능성이
관료
##퇴
위원
오래
##이를
투수
부활
##진을
의사
##맹
거두
임시
논쟁
정복
추정된다.
절대
펼
이용해
학문
개편
연맹
유명하다.
서울특별시
편성
알게
척
욕
##경을
##칼
있었
상당히
공산주의
몽
##족의
빠른
받지
##비아
각각의
팀을
예정
냉
##om
180
특수
채용
##심을
##um
공을
수입
90
13일
있다
개시
도망
찍
##시를
붉은
고정
##류의
기여
##이란
그러한
파리
##소에
##핑
국가의
때부터
얻어
회원
무장
끊
##ay
빠져
승진
하였
방법을
상륙
19일
##자에게
##뢰
검은
f
이용한
작곡
##령을
##권은
##률
##실을
후손
계급
앞서
##신은
##프의
##원,
때의
##펠
##인들은
##수,
##국을
##'라고
보여
그런데
관할
없다고
있으나
##역을
서식
수출
2개
##논
종목
기반으로
##스카
##시,
제임스
먼
##경기에
24일
시간을
##=
발생한
숲
증거
갖
말았다.
##ad
히데
지닌
##서,
소년
n
##이가
##틸
거대한
창립
점에서
마리아
다르
넘는
##였으며,
다니
고양
##습니다.
촉
운용
고등학교
파일
##-1
브랜드
관광
성격
나서
무엇
기후
##사업
확정
건국
지붕
##받고
물리
금융
합격
역대
발표하였다.
해서
##즘
이제
##계에
##보는
##나라의
##화는
1920년
##같은
##조선
##경제
성을
1987년
되었고
##자들을
##은행
동부
##스러운
##20
머리
높아
##론을
오전
하계
##되었는데,
율
l
병사
오래된
부임
해당하는
에너지
##짐
경성
##산업
##핀
아니라,
오픈
집단
이들의
울산
##둥
취급
세이
##가,
범죄
##il
노예
##ro
포함되어
영입
싶
##즈는
##로가
군대를
##옹
##신이
##시로
##'에
남쪽
대항
업무
모여
알아
##et
##리와
히로
기록하였다.
부문
##시킬
MBC
뜻을
산맥
경우는
강의
##과에
190
끝난
1986년
것처럼
조선민주주의인민공화국
지키
건립
##주가
화학
인공
북쪽
행사
공식적으로
31일
되면
신설
사건을
부인
출마
반드시
##명이다.
대규모
종류의
h
소프트웨어
일본에서
했던
##ion
진압
사망하였다.
##치를
확
개봉
##쟁
##왕이
##|
가서
##단으로
프로세
움직
##ur
논란이
나와
한번
##혁
##종이
오토
밑
검찰
액
1980년
##위는
##식이
이르는
지낸
운동을
이번
오른
갖는
지어
총독
하나는
##나가
대사
이전의
납
##동을
0.
모스크바
##형이
지식
##자이다.
나는
##면에
조합
해에
서부
사건이
달라
##프로
반영
##식은
폐지
명이
얻
듀
안전
##털
앞에
아마
그와
이뤄
탈출
##성으로
늦
규칙
##정은
린
##동,
제대로
CD
프란
여기에
알렉산
##트리
워싱턴
w
빼앗
##라운드
튀
응용
블루
변환
거주
있으나,
수송
주고
벌어
##사에서
##학,
##공업
생긴
싸
##드가
피해를
소수
때문
시티
마이
##밖에
##그룹
광고
값
구축
규모
##스에서
II
빛
##일은
##와는
번째로
자살
제도
##ig
##되었으나,
2019년
나치
사망했다.
살아
셰
둘째
사후
##테르
##혹
##스코
대략
##조는
기록한
##해졌다.
버스
formula2
##지에서
##30
##미는
포위
##산을
태풍
방향으로
150
##뱅
##늘
옮
마침내
주둔
##닉
플랫폼
구속
##소에서
사용하고
두었다.
앨
경계
공통
층
##석은
취득
##다"고
이사
d
명예
##지도
파악
단일
덴
##정부
역을
효과
이민
형제
##접
1984년
보아
법칙
올려
3개
흡수
지급
기술을
만주
식민지
##했는데
어떠한
이야기를
베를린
##받아
남은
통신
내의
##시가
글을
르
특별한
비난
맡고
정책을
##닐
능력을
##겼
##석이
##느
분쟁
맡아
러시아의
##간다.
##회에
LG
무기
고전
##라의
##상,
발매되었다.
곳에서
남성
##폴
마리
##교회
##없는
작품을
웨
##도르
고등
잎
경상남도
발견된
존재하는
##위가
거래
스코틀랜드
지금의
도서
##회는
##법이
The
않고,
##권에
##졌으며,
##찌
##시켰
펜
##ut
효율
콩
##욱
생명
좌우
##가가
##부와
상승
##서가
##등이
동쪽
나카
##혔다.
솔로
사태
대수
배출
##주,
목표로
빠르게
통제
최다
##꽃
보장
##보를
##르고
PC
장식
반발
근대
##os
점점
##서의
전용
아버지는
제4
대학교에서
무덤
이유
##판을
깊은
1985년
##었
노선
동원
라는
강제
시장
투자
함락
루이
흉
그들이
##섭
박사
원정
##시즌
다수의
반대로
나타내는
맛
심리
마사
챔피언
##승을
##<br>
##미를
정확한
우려
계기로
힐
대부분은
아무
아침
조금
도달
의존
생존
것이라
##아의
전파
틀
##롭
박물
농민
처형
짓
밝
##류를
의료
3개의
공유
문자
공포
장기
2세
장치
평가를
신성
##%가
베이징
##섬
오스만
차지했다.
자신들의
##켈
없다는
##나,
##렐
##교의
##모를
청소년
대상
진입
갔
##주에
받을
양성
역임했다.
덮
쓸
##되었다고
이탈리아의
##%,
##화의
라고
##관리
##중앙
다르다.
##국에
옆
분할
의회
##당했다.
=
알려졌다.
쓰는
##뿐만
등판
간주
가을
##컴
교환
지냈
서버
##에서,
호텔
번의
##"이라는
##ㆍ
상당
##&
1982년
기록이
등급
##만은
예측
##분의
in
묶
##경에
건조
고향
태어나
쳐
대개
##패를
군의
백작
컵
것이라는
이르러
프레
##도와
신뢰
##id
한때
##선에
##셜
##베르크
##영화
명확
진보
주장하였다.
제주
중화인민공화국
골을
##등의
##촉
##군으로
##룩
국무
고용
가담
썼다.
##휴
빅
목표
조선의
##ot
##둔
동작
이후로
에도
음력
편입
선수가
##적이다.
##es
스테
관계가
28
##예술
##나의
연재
도중
t
##라고도
##법의
##분이
시즌에
자녀
##시오
##낼
블랙
재정
경상북도
모리
띠
곤
탁
옷
오랫동안
갔다.
양자
대통령이
##산의
구조를
##생활
사법
대성
향해
아들로
제어
##체에
##m,
##구,
아메리카
바람
렌
플라
출간
배경
태어났
하면
##선거
문헌
##터는
문제로
1개
반면
이룬다.
플레이어
탈락
##하였다고
나이로
일치
스트
미군
##용으로
##대와
중반
감염
형태를
1세
전철
이르
겐
##협회
##가와
명을
추천
편찬
소비에트
##OS
##"에
명명
분열
##되었
느끼
##가이다.
불렀다.
저작
갈라
187
뮤직
올랐
띄
사용되고
있었지만,
##되었을
186
위반
합의
꼽
롤
들어,
##인에
이중
##니의
마지막으로
조작
근본
대비
성우
##넬
가지는
단독
##회에서
연산
현재까지
##프를
##크의
플레이오프
약속
스피
##어가
베이
##드로
발발
혐
침략
##준다.
전통적인
##선으로
창조
지방의
##상으로
##조가
일본에
일부는
이후의
마치
##뇌
##프가
금속
기울
##활
했고,
보낸
크리스
1979년
##종은
왕국의
제5
진화
나폴레옹
말에
시작으로
중에는
훗날
프로그램을
연구를
완료
벨기에
신청
##'으로
지은
##되면
모양의
세종
고속
소녀
길이는
1948년
##피아
타이틀
향상
수집
##략
불리
듣
방법으로
구현
잇
모아
출장
거듭
##역이다.
혼란
로켓
많아
당시에는
있음을
##거나,
삼각
롯데
택
##'가
그렇게
교육을
쓰인다.
유사한
상황
내용은
의미를
189
추측
펼쳐
##세계
받아들여
##라도
개막
##상과
부상을
##자로서
##하면서,
##%의
뜻한다.
and
네트워크
##부,
최초
##왕은
호는
꿈
붙여
1972년
인디언
1946년
1983년
작업을
실현
주식
무너
서쪽
##수와
앞두고
&
공업
지켜
##유럽
##죽
전설
##바르
완전
은하
중세
Z
##만큼
혐의로
##롬
서비스를
보이
나타난다.
작품은
기둥
프로이센
듯
##"가
늘어
헨리
도와
활약을
바깥
육상
섭
이들을
차별
시작한다.
있어,
St
##과,
길을
##차가
##회가
지금
##회사
##싸
등장한다.
출범
1973년
시내
##부에서
짧
흘러
세력을
지내
##음이
경기는
멜
시작된
입장을
온라인
망명
##린다.
가졌다.
##호의
##un
있었으며,
##세이
K리그
##어져
어려운
체계
제6
##주었다.
동의
선정되었다.
무게
부근
##톨
왼쪽
어깨
부르는
않게
방식
요소
들어서
##삭
처벌
나이
##상에
##인데
##트와
했으나
간행
학위를
앞에서
예수
##분에
확률
임진왜란
원자
학습
어려
##교를
공헌
거리
중이다.
최소
완공
무시
##물은
##지자
삼국
털
변경되었다.
##국으로
대공
##전으로
하자.
임금
라인
##차는
##Q
1980년대
예정이다.
##해진
##함이
##었는데,
##함과
거두었다.
얻은
무역
##대한
##"이라고
선수이다.
##려는
시리아
인기
##진은
##개발
기회를
##문학
오른쪽
상당한
안에서
##뿐
나왔다.
에어
확립
20세기
설득
1963년
다스
SK
사람들의
##령이
프랑
끌
승강장
보컬
수사
상품
1950년
##가에
4개의
스튜디오
다르게
전후
트로
가문의
주목
##씨가
변화를
주지
합쳐
사임
##리게
갖추
슬로
잘못
##힐
요새
이로써
##컬
못하였다.
##답
타이완
랜
박정희
r
##명에
##선과
놓고
하나인
##음악
##셈
벡터
있었는데,
##요일
희생
직업
##미가
기대
##시와
##칙
성적을
1981년
쉬
조정
인터
##동이
일정
음악을
승인
하였고,
##프트
##값
히틀러
##일의
바라
활동했다.
링
감독의
정비
##룬
게이
섞
어렵
4개
이루어졌다.
부분을
##문이
##연맹
이름의
반란을
##웠
있었기
레드
##숭
예비
수상했다.
한정
##미의
핀
이끌
##차례
행성
##500
국경
해야
##겠다고
횡
##냈
##대표
테러
트리
저술
경주
어디
##하였던
조절
윌
공연을
후계
전라남도
장교
1일에
세력
초반
##문의
소장
##데,
평안
새롭게
했지만
보병
충청남도
강원도
##중에
##일본
마이크로소프트
##터를
##우의
서양
후속
##’을
후보로
##j
##메이
35
들고
##베이
임의의
필요가
##웅
##잉
취소
킬
##수에
유일하게
규모의
##시험
선의
상대적으로
##랐다.
일으키
연관
모양
플레이
다소
준다.
독특한
성향
승객
##인들의
##점에
##리기
26
[[분류:
##동의
##국민
##이지
##되었다가
38
영향
합성
후지
켄
##물로
보안
엄청난
발탁
1974년
감독이
묵
##프리
1000
상황에서
##당에
트랙
##’,
미디어
곡을
집행
##’라는
##어서
상을
국가대표팀
##론의
내렸다.
##경의
경우에
##들에서
올렸다.
##첨
##연구
행렬
대한민국에서는
죽었다.
속한다.
왕이
##식의
##낙
1990년대
##문은
받는다.
개발한
브리
영업
##ce
모습
##”라고
##op
##지원
특정한
프로젝트
##타는
바이에른
##슈타
페르시아
편이다.
##카이
나누어
##체로
##대,
출입
쓰고
1970년
##둘
##어와
사실이
일어났다.
부진
##형으로
승려
대부분이
샤를
얻을
##다이
##ed
##원에서
발굴
따로
지시
출시되었다.
##크를
정차
##하면,
상태로
##화에
되자
캘리포니아
##조에
오리
동계
우크라이나
##하의
##교통
##해를
잡아
신인
자극
의무
절반
철수
복합
유니
사냥
##마의
공공
##램
돕
지위를
병합
formula4
4.
1944년
쓰이는
심각한
##정보
##원과
##판이
행동을
##시티
160
2세는
짐
##바이
##광역시
초기의
27
기원
1940년
깊
##보살
정기
##리지
멀리
식물
##영은
노벨
이혼
##구와
베스트
##일이
##관계
차지
아테네
메인
점이
##내는
세계의
가치
##랐
사람들을
##론은
동안에
유럽의
청나라
##보고
뜻하는
돈을
제공한다.
과정
통산
로버트
타임
##색을
그리하여
화물
v
웨스트
개조
##여자
불법
가게
총리
전공
자본
1968년
##역은
그래픽
##가로
##니가
주택
##무라
존재하지
마이클
상위
##콤
잉
벌어진
끝내
##시킨다.
소련의
터미널
WWE
##안에
삶
##질을
외부
##ie
자리에
부담
1919년
##사회
누구
##"으로
##업을
쇠
발견되었다.
탈퇴
이르렀다.
이루고
효과를
선거에서
책임을
3,
DNA
피아노
내용이
니콜
홈런
##서로
##이,
##졌고
마쓰
1941년
단지
끝나
이후에도
논리
오직
혼합
쥐
1960년
십
면적은
중인
##현의
##항공
지지를
##・
##"은
굳
##트라
전까지
##파는
##진의
##동은
격파
캠
대체로
장남
1949년
##조판
인종
부분이
카르
##류가
##'이
시스템을
##치의
사퇴
지금까지
나누
##경찰
있었다고
명칭은
##스토
##텍
하에
접촉
부하
시작하여
맡은
비슷
영화는
##비의
분노
못하는
세웠
바닥
릴
##점의
따르
##트,
성적
##하지는
##하나
아들이
킹
##ation
학술
개칭
연출
첨
제일
##산은
인쇄
##괴
##적은
##BS
다루
헤이
부상
지리
가진다.
##품을
펠
사용된
##되었지만,
포함한다.
다수
유한
국회
듣고
트랜
나타나는
징역
##았고,
##정치
레오
포함하여
전쟁에
##켄
##겔
대리
사건은
바뀌었다.
k
##디아
##륨
##움을
노래를
개설
명령을
##문에
일정한
##윈
##리어
돼
##방을
##종으로
##티브
##웰
억
##하였
위로
##-2
갑자기
수원
대통령은
투쟁
아카데미
불가능
완전한
따라,
##;
해산
미국과
조별
나뉜다.
##라스
어머니는
겹
1971년
그녀
돌려
##계에서
일어나는
감독으로
미나
전주
##역으로
눈에
##ak
인구가
##터가
##치가
성공을
논의
formula3
##수록
위치를
1976년
##고등
일부를
그렇
꼭
1978년
빚
쉽
위치한다.
##신문
덴마크
국방
##민족
일부가
갖춘
##타르
열렸다.
없을
1만
##화,
민주당
이른바
아우
문제는
선임
메이
곽
1975년
아들인
##무늬
국왕
##했다가
##경은
들어갔다.
##ent
대통령의
##아는
##>,
##꾸
추구
헤르
전쟁에서
십자
1962년
##부인
##〉는
보조
썼
즉시
보았다.
##책을
##타를
지금은
남겼다.
##ter
##나이
1969년
##왕을
##시키기
##포를
자격
##m의
##쌍
##크로
##받는
##우가
당초
영웅
미국은
밀려
구간
##리로
본선
나왔
##적으로는
여러가지
해도
유행
잇는
##룰
##전쟁
##되게
세상을
발언
의심
스탠
주장을
메이지
하여금
##사이
만들어졌다.
##슨의
페르
연습
노르
##었으며
공군
##등을
##소로
##기업
##》가
하기도
하는데,
##선,
그로
##드와
말하는
개입
참여하였다.
##마르
창단
##복을
사업을
갖추고
권력을
성인
역사적
싸움
##들로부터
챔피언스리그
##획
폐쇄
인용
전쟁의
의견
팝
대표하는
반면,
##ap
##럽
##6년
열대
대기
##기고
기록은
1호
켈
##행을
도시의
멀
떠났다.
##대회
왕의
기병
##계는
윈
유형문화재
##군,
연구에
제7
구입
##개혁
##Z
브라
##관에서
##잎
45
샌
##력은
양의
관여
했으며,
작전
부분은
##병을
##박물
소멸
##되어야
학살
흡
톰
참여했다.
##렸고,
없게
잡지
유효
지니고
제작된
계통
32
##시대의
##였고
##당과
##넘
##지방
##ia
전투를
##화로
##전과
##’를
##요.
애플
##파를
이들이
개찰
호소
##니스
경제적
조건을
##이닝
소식을
달려
상태에서
##특
파라
1939년
마무리
래
만한
##이어
##별로
g
##감이
##15
상황을
광복
주전
##16
##간에
그것이
춤
##묵
말이
단순
리더
##류는
물을
문을
세계적으로
##구로
##멜
흰
1964년
보유하고
벗어나
제공하는
##츠는
보관
선박
초기에
##톱
감독을
빼
나타내
##쇠
무한
여겨진다.
문제에
전부
다음날
속한
주장한다.
##화와
##으니
##아시아
차이
작품이다.
일으켜
알고리즘
선생
설립된
가리키는
##'s
재학
나온다.
발매된
##관과
개신교
제작한
열차가
유치
비롯하여
그들을
미니
만다.
타격
후기
윗
빙
하위
SBS
주최
##화한
유배
아시안
있었지만
##탱
발생하는
##면을
제8
##븐
반도
##국가
복잡한
##명과
활동하였다.
탄핵
전송
선출되었다.
##공화국
##랭
숭
##정으로
불렸다.
유전
##"에서
나타낸다.
사망한
단순한
##-3
궤도
일어났
Q
##로스
곡은
##조참
역사를
방법은
강력
29
추방
맞아
판결
다룬
formula5
##라며
바르
이집트
쿠데
녹색
그곳에서
시위
##만한
##"와
2000
In
##kg
22
전면
후쿠
##베르트
##었다는
방식을
##곡을
##산에
교회의
##목을
##들,
##었을
##점,
좋지
##방의
##’의
나뉘
브루
탄압
여섯
로봇
1961년
##짓
성의
곱
크기
가치가
몬
##오카
홈런을
5.
##혁명
적극
##활동을
순간
없고
##레이션
독립을
##증을
근처에
이상이
##적의
##ra
않으면
전동
##...
##네스
깃
해상
계속해서
추가로
책을
21
빨
관련이
일은
캔
##석의
보유
1970년대
필요하다.
##진이
##룸
가슴
게임을
400
##만으로
대상이
초에
섬의
주관
것이며,
##히는
높이는
성직
이끌었다.
차트
기자
으로
5개
부친
##판은
인권
장비
윤치
한국어
싸우
탐사
##25
##파가
아버지의
##르트
웅
기록되어
##짝
선포
비용
##'은
그녀가
몸을
임무
1967년
졸업하고
지역으로
후인
발견된다.
남쪽으로
##꾼
플래
성능
기본적으로
##빛
도덕
게다가
1977년
손을
세르비아
걸친
검토
##세로
##러스
집권
사건으로
##적,
개념을
##이지만
뮌헨
주연
충분히
##즐
수십
고종
치러
보여준다.
##듯
데에
##크가
##시설
본격적으로
##ul
##》와
역에서
로마의
황금
문서
비롯
노출
사람들에게
##우리
구매
지속적으로
##웨이
앞으로
##자들에게
수상하였다.
1965년
않았고,
돌아와
원작
##저우
이루는
##렛
최대의
카드
고문
특별히
침입
대량
천주교
쫓
스위스
이적하였다.
##루스
##겸
프린
금메달을
변형
##면의
##누스
드래프트
##주와
##게임
다리
##하기를
##인도
방해
한일
##법으로
있었으나
##종을
밝혀졌다.
23
영상
입고
##어진
김종
##뤼
그려
스미
원인이
진주
##고는
짜
높다.
해당한다.
##안이
##리오
엠
프리드리히
##소,
##산으로
아름다운
##다"
##드,
##율을
##BC
##코는
나라의
권리를
마음을
천문
전력
formula6
##터리
수요
공사
아라
1942년
##니,
방사
기소
미리
임대
가깝
김성
##브리
아래와
대회에
저녁
수석
인근
##넌
##들이다.
임무를
논란
희망
10월에
매일
강을
에이
다음의
##었으나
##계약
당시에
##도시
되기
이른다.
1960년대
국제공항
특징을
가스
갖게
사령
특징이다.
챔피언십
7년
##로도
잠수
##되었지만
단위
일으켰다.
이외에도
##킴
상실
차지하고
##"고
복잡
지구의
1966년
##동으로
##학은
##브라
올스타
권한
##재를
연료
인도네시아
1947년
만든다.
##곽
##호,
암컷
국회의원
자이언
나타났다.
##낭
주력
##니다.
프리미어
서술
통계
##타이
##축구
재건
알파
예선
첼
상속
##같이
DVD
연결하는
스페인의
##안은
참여한
제도를
##혔
운전
엘리
##'에서
있었고
죽음을
개체
단순히
보물
##조직
찰스
뉴스
서울대학교
후에도
홍보
1943년
정부에
독립운동
시리즈의
##리노
조선시대
곳으로
##루는
보냈
불구하고,
보이지
화장
틈
##라가
돌아온
12월에
제외
##회,
크다.
집에
장군
뉴질랜드
아버지가
최근에는
##역이
가리
융
테스트
항성
일단
주장하는
개척
사용하였다.
##그라
##IA
활동하고
##th
만들고
쓰러
##해가
미사일
발간
맞서
##전에서는
6년
복원
##잠
##배우
브라운
배포
이성
##마는
사운드
##조차
교류
3차
영토를
목적
이전에는
##망을
위에서
36
곳이다.
커다란
해양
골든
써
개별
단편
##퍼드
위상
명칭
입력
거짓
극장
##계가
##약을
##자동차
포함하고
1910년
##주고
되기도
##족이
##양을
3월에
권력
김정
수술
포함되었다.
초기에는
1세는
##들어
##팬
타율
##art
##터의
1위
##주의를
이외의
뮤지컬
허락
대부분을
##씨를
이상을
속해
건강
기록하며
통상
하나가
행위
이기
##력으로
분야에서
유력
신호
크로
캠퍼
즈
수의
##년에
비판을
연예
천연
개방
역이다.
데이비드
##×
##물에
미국으로
본질
환승
##'이라고
주기
데이
언덕
따라서,
발휘
##ER
조카
대하여,
진행되었다.
진학
크고
말이다.
과학자
원소
진격
##되었다는
도모
케이
레알
##지인
국민의
발음
있었으나,
고급
개량
확산
##미술
##국에서
##발을
##겠다는
##넨
아래에
비율
##인이다.
대한민국에서
명칭을
##사인
##체와
표면
##신으로
왕조
##이드
명나라
적극적으로
##판에
##일로
##AR
##경이
군사를
정지
일종의
신체
조선시대의
출신으로
##og
맨체스터
동방
독자
혼자
##력과
이용할
안티
하였으며,
##인에게
##투표
##지역
##은,
##세한
##첸
끌어
오는
북쪽으로
##사랑
감독은
머물
프라
120
##이와
입은
연간
동양
코드
##쿠라
대학의
##차의
##함은
나타난
역으로
제목
밝은
##전,
##로마
타이거
사회의
9월에
물려
반대하는
##듯이
포지션은
소속으로
##질이
낸
형식으로
분해
##모가
후퇴
됐
종사
강등
촌
왕조의
픽
##단과
##이던
강요
자금
가상
일본은
##’는
##휘
##의회
것,
운영하고
소집
##12
도쿠가와
##실이
미드필더
자랑
##11
##역의
상태를
1956년
질량
파워
반응을
개인의
유학
철거
한글
정식으로
사용자
다다
##ab
##군에게
따서
받았고,
##영의
정확히
##였으며
##〉를
연결되어
가까이
상관
토벌
무사
구멍
##이지만,
이웃
발표된
보여주는
주된
##왕후
##NA
##하여야
##루가
사찰
프로그래밍
세계대전
##입니다.
##운동을
##해져
SS
철저
##츠의
그러므로
비례
정체
포함하는
##령의
바탕
수를
##당,
군주
강하게
경향이
수컷
##경기에서
##쪽에
마이크로
이라크
중성
재배
##표를
2008
하던
##로그
나아가
수리
고객
사건의
세력이
세월
새끼
미쓰
##’이라는
사용했다.
##자들
역임하였다.
터널
이하
나뉘어
##강의
##el
부대
##키는
질병
감옥
##18
1번
##했다
여기
붙어
겉
##역에서
##꺼
##주에서
주변의
의견을
맺었다.
그만
속의
암호
상태가
지불
Ch
의미하는
투어
했지만,
##이에
이론을
헝가리
등,
창작
##공을
가리킨다.
##먹
늑
실천
##일러
라이트
##ip
별도의
##「
관객
##론이
##설을
##트릭
일련의
1958년
영향으로
##께
IS
돌아가
착용
178
게임의
대칭
올리
##-1로
갖는다.
멀티
1918년
부상으로
비트
1세의
더블
##비트
영향력을
KBO
8월에
기사
1954년
##았던
##셨
설립되었다.
필수
저서
코르
##로운
##정,
위성
넣어
패션
4월에
이어지는
집을
올림픽에서
##트에
참전
##했었다.
성공했다.
이어서
디스크
노부
차단
하는데
경기가
덜
##"이
히로시마
##석,
아무런
부탁
##학에
##린은
쌀
##즈가
막기
3대
사양
2층
큐
재개
+
에너지를
##타의
아이돌
초청
위치에
##탐
삭
##제에
관계는
마크
to
##∼
백성
##였으나
##웠다.
##서와
사건에
마감
손에
formula8
##하였는데
동성애
업무를
시를
작동
##식에
불렀
formula7
11월에
외국인
노선을
퀸
자라
codice
##파와
##청년
##if
구글
##》에서는
##레는
이온
##스테
확실
놓여
유대
##3년에
##The
##〉의
이끌어
단계
민중
##하를
사랑을
첫째
스카
저지
스토
무릎
##느냐
서쪽으로
##산이
까지
##타운
대학교의
미국에
1952년
##각을
##생을
대결
짝
덩
##머니
##장인
컬
##주년
##다운
츠
그리스의
하였으나
둥
춘
땅을
웃
##보다도
##령으로
##다,
장수
##소와
또다른
6월에
자신은
디스
##생물
2세의
##하기에
와서
극복
이익
##럿
골키퍼
개최된
##렀
6.
직원
고위
##놓
당나라
대해서도
가끔
##까지도
##개를
안내
##²
설치된
편의
않기
##였다고
##지며
파르
데이터를
활발
랭
주어진
원래는
세계를
석유
멘
##조로
##2,
##》로
상황에
##본을
o
##라노
끈
##나와
##아가
압도
순환
##하시
비틀
##관계를
집필
##력의
##식으로
박근혜
복무
롱
##지고,
텐
모습이
달하는
##ine
##우를
전형적인
보험
니시
##마를
여성의
삶을
든
일종이다.
보스턴
빌보드
앨범을
선전
핑
그것
물고
히트
##산,
##중을
AFC
##조사
##슨이
##》이
##백만
##러는
남녀
심지어
스키
원하는
남겨
기도
운영하는
5월에
세우
한자
토지
##다면,
에드워드
수밖에
공중
1억
18세기
회사의
선호
복음
##하라는
처음에
##푼
동쪽으로
남아프리카
7월에
흑인
##하므로
그녀를
정권
##티아
전체를
전작
자체가
타이틀을
단행
옹
##에게는
고속도로
열었다.
##하에서
있어야
##론에
증언
리그에서
겨우
##아이
해발
꺼
1인
이념
##이게
##체육
##햄
모토
발표되었다.
1937년
방송을
결과,
##ne
영구
개국
사항
##릇
영화이다.
기용
##색의
최우수
부르기도
##동맹
##노동
나이에
얻게
##ver
기본적인
약탈
##는지
##야구
현상을
김대중
전투는
특성
중에서도
화합
능력
거둔
캄
##="
주목을
밥
실제로는
600
일으킨
본다.
클래
성격을
마주
석방
넘겨
##되던
##'와
##다며
되어,
##되거나
##데르
영화의
##하였지만
##1년에
##거래
내가
별로
혹
텍사스
득표
전술
영혼
##’라고
##em
쏘
##프와
사도
##ight
등도
##ive
도중에
이행
신의
대원
많았다.
##공사
로드
##파로
##주의의
병력을
주요한
검색
잡고
##물이다.
건물은
작품으로
불가리아
개명
##통을
데려
쇠퇴
##교는
적도
대변
수호
말레이시아
##모는
##심이
작품의
특히,
시조
##형에
##카는
정권을
속도
이날
그들
1914년
수감
##연을
시카고
카운
회전
1953년
##위,
##일에
원주민
역사가
사마
##에게서
##뼈
토론
##었지만
않으며,
##빠
되며,
반면에
전직
검사
##nd
##℃
프랭
꾸준히
수준의
##q
선조
란
##됨에
##번의
공부
##므로,
##등에
##아르
곧바로
아카
현역
##플레이
##드리아
##마스
##토의
##뷰
##닥
혈액
##1,
##실은
##호와
아래의
일상
유기
유통
##셰
생애
관계에
황제의
인디
기능이
일찍
담고
못하게
싱가포르
##48
##im
맺고
1938년
화이트
오페라
없었던
##다의
상태에
성과
수백
보이고
포함된
대표로
##색으로
자원
구원
##질의
부속
북미
##중인
가치를
코미디
##킷
37
##침을
800
수소
수직
망원
##’로
생각을
다이묘
이은
##지이다.
변화가
닮
##도에서
##제국
##졸
열리는
##보호
##층의
##면은
우리는
##픽
시상
AT
##위원회가
1959년
##중국
##마을
약간의
살펴
JR
주간
##동물
지나지
서명
전해진다.
##편의
우리가
계기가
위대한
인터뷰
39
정도이다.
감시
##드에
##실로
AP
셋째
##야의
##동과
없고,
##첼
명시
##기에는
둘러싸
3세
차지하였다.
##독립
놀라
##늄
보편
##무부
공간을
맞춰
##었지만,
미야
방법이
넷
전라북도
동반
행위를
그레이
##목으로
4대
##코의
##역에
##렴
백제
##구에서
##대에서
##진,
체육
점성
##중이다.
적어도
##청은
포스트
해설
2번
1955년
##우스는
##즈를
인구의
않았던
입법
유용
비상
1936년
##노는
주변에
생태
##-0으로
영국에서
크기가
##열을
발전을
장르
필리
##르의
##료를
170
##의가
다음은
덕분에
돌아왔다.
배경으로
##법과
삼았다.
##있던
##인민
만들기
이용하는
##ue
##궐
##춤
세인트
기하
올린
운동에
적응
##cm,
##제,
옮겼다.
프랑스는
이명박
전문가
승부
인터뷰에서
##통신
##대부
출연했다.
하사
꺾
장례
정통
##2년에
블록
##제와
##더라도
공화국의
물러
체험
##니와
##유가
없으며,
##마저
##등급
실수
삽입
##해도
밖으로
버전
양산
사단
오버
##률을
##포로
차지하는
##로와
소화
필요로
두려워
해리
앵
##비로
명성을
예외
1/
##권과
##안의
##미니
지칭
책은
폭력
정부를
##툰
시호는
순서
사전
##인들을
선두
작전을
곳은
랩
##신인
2010
무산
새벽
돌파
힙합
톱
걷
##실의
영국과
나타
1933년
국가가
동맹을
명으로
장관
이탈
되었으며
위해,
##믹
재임
올해의
##한국
역사는
재료
고안
##디는
글로벌
##40
계층
사람이다.
##면이
##일보
오다
튜
##졌을
##세대
##한다
부르고
신도
HD
지원하는
방정식
배열
##국과
근처
##친다.
##투스
폴리
이시
##자들과
중학교
##쿠스
##오의
소리를
포르
##라,
세리에
사촌
전체적으로
수영
후쿠오카
중부
의식
인상
##상에서
초등학교
도움이
##하는데,
179
힘들
스크린
차지한다.
##'고
되었다고
##지면
철학
가와
원시
##200
소방
강릉
이어졌다.
##ct
아나
1,000
크기는
의미가
들여
##아프리카
1935년
중화민국
##사키
##중의
##a,
##력에
##속에
성과를
권한을
퍼져
웨일
자매
거친
제9
##었으나,
내는
사용하지
상황이
현지
##라와
##즌
1월에
이하의
입단하였다.
##졌던
항의
포항
x
##화되어
##공신
로렌
공기
소송
왼
때문이었다.
##지기도
이르기까지
스케
끝으로
##보험
지역이
졸업한
화산
리처드
유전자
4,
뼈
##ist
##본은
##강을
방언
##코스
때마다
불가
48
1957년
##다니
##쾌
##꼴
떨
##사무
##고가
바람에
도시를
아직도
분명
시가
FA
매각
폭탄
##점과
인기가
부분에
시는
55
##페르
##격을
##모리
들어간
20년
##가인
밴
북아메리카
##운드
집에서
##념
역의
##계와
정수
부처
천체
영원
##라를
등장한
담은
현대의
밀라노
말은
삼아
메시
파울
운송
자가
먹는
루이스
##하면서도
##소설
##율이
시대에는
전화
폭격
formula10
시간에
##큰
보기
중립
##마가
##퀴
이재
##소수
비롯해
간섭
심한
소요
첩
##재판
세워진
포트
##-4
거리를
걸려
추대
##현,
보인
##시에서
##졌으며
##힌다.
##집합
뜻이다.
본선에
6개
##너는
까
##모의
존재를
찬성
코너
콤
##생의
수반
게르
있으므로
의정부
명단에
##ard
오늘날의
##현은
의학
의하면,
##이트
에스
OS
성은
섬에
모터
1930년
##고의
방향을
문화재
잠재
설치되었다.
##족은
측은
##메달
내용의
축소
무대
넥
##되었기
##로지
알레
##생활을
##아웃
이곳에
##나라를
##1.
다루는
달리,
주장이
##붙
근육
레벨
닉
양쪽
습격
포함된다.
##킥
무리
##바라
##치지
관심이
옛날
대대
##드라
사람들
정의할
중,
적을
아르헨티나
쿼
##인인
일본인
토론토
고유
패러
관심
연락
지었다.
물이
만난
그때
##루를
스트리
뚫
친일반민족행위
##고속도로
##이므로
##따
소득
죽자
2면
셔
##건의
독일어
영화를
뒤로
권리
비잔티움
계획은
장갑
##화되었다.
눈을
디비
다만,
제이
크레
풍부한
엔진을
곳을
##으므로,
##해의
용어는
2만
##지며,
1932년
##뇨
유발
##현을
##법인
##보로
세계에
##다가,
##타로
##노의
##야는
##팽
어릴
17세기
##크와
빨리
재산
일곱
##으려
대한제국
##럭
사진을
입증
베어
공개되었다.
받았으며,
대학에서
그럼에도
조약을
독재
##면에서
##프,
##인가
##키가
##로로
기반을
##스럽게
##20년
##밥
에르
##행정
알렉산더
##구조
당해
뿐이다.
시절에
설이
추가되었다.
색깔
빌딩
실업
옵
나라를
대선
##받았
활동에
##콥
연고
##후에
전의
농촌
식품
빵
##판의
했다고
대동
원년
##〈
황태
감각
압박
게시
##데스
외계
알렉
##이라고도
##미르
##률이
##과를
후원
##어도
지도자
우익
##ity
##았으며,
벌였다.
결의
번뇌
흘
가능성을
##크,
##앵
간단한
2위를
소형
##쪽으로
계획이
아들을
동치
호환
##구치
앨범은
초래
빗
출신이다.
##었기
##내에
##차에
법정
의도
받아들
가속
과거에
##툼
이루어진다.
1934년
모습으로
대단
오늘
출현
이야기가
##바다
##래의
##세와
마치고
남긴
##문과
##쯤
말로
리그의
예산
삭제
##자였던
유입
구사
좁
##건은
MVP
##권,
##토는
##ON
2월에
formula9
##%로
##영을
경향
##단,
##나카
우수한
2세가
가해
굽
자리에서
##당에서
##청의
##he
2012
가지게
열차는
압축
장소
아메리칸
결과로
군은
커버
##호선
##앤
목숨을
##으로도
##형,
##션을
##콩
규모가
청구
##자키
##듬
결승전에서
유럽에서
조지아
6개월
1군
##다"라고
5개의
개발을
##팡
##무를
##티는
가야
##기에서
형사
##-10
##정과
##시스
그려져
사립
세부
중시
천안
해협
모듈
매니
자유를
이즈
요구하는
자료를
활동이
지목
공식적인
다음으로
하다가
교수로
성벽
중국에서
독자적인
##피스
BBC
시,
브레
##환경
그리스도
라틴
##트에서
대답
에드
카라
천황의
데리고
편지를
시게
사람으로
##》과
##변을
된다는
분자
##기간
##루의
흩
참가했다.
##부문
효과가
예로
34
세계적인
##령에
테이
##스케
냈다.
140
상의
탑승
번주
없애
이곳에서
10만
하자
성남
성경
흙
매장
피터
카이
값을
결과적으로
##건을
있다가
없기
공룡
갱
발생한다.
##하였을
##ag
미국,
사막
##었는데
##km,
##리카
차이를
적절한
군대는
##든지
##EC
15일에
못한다.
시스템은
##분은
75
입었다.
##하이
##교가
출전하여
힘이
과도
1951년
##살이
요코하마
마드리드
말라
지원한다.
##카의
현상
##석으로
독점
칙
##문관
원래의
사우스
토너먼
조종
경남
정치인이다.
명칭이
전망
몰아
마그
정벌
행복
##"이라
##병으로
##라에
KT
핫
지향
특허
점은
발명
스티븐
빛을
찾을
마틴
받으며
불만을
말할
유닛
얼마나
평론
호흡
##하자.
##령은
마법
##대문
언제
있는,
159
보살
미국이
결과는
수천
기상
가득
영양
##연한
납치
##나를
##중이
##방에
##경,
서서히
모바일
##하였지만,
##에만
특성을
##셋
선형
##말을
##AT
성공적으로
1924년
##19
##희는
좁은
신학
##수이다.
##섰다.
구성된다.
전승
1921년
김영삼
주파
딴
아티스트
##od
참모
일행
##데이
##공의
##사기
##벳
원자력
훈련을
뒤인
##정도
당했다.
합리
공략
졸
##활동
밝히
낱
했으나,
모양으로
전체의
1928년
명칭으로
초상
##덩
뒤에는
생기
서구
##에이
클리
고립
메탈
##비,
쓴다.
30분
덧붙여
일본에서는
##아를
조선총독부
##류,
졸업했다.
가질
요금
1일부터
촉진
##롭게
위기에
앤드
노동자
좌익
화폐
책봉
##달러
학교를
라이벌
##어버
##아,
##졌다고
스펙트럼
예루살렘
문화의
##아니
소리
문화를
##이로
일으켰
일본이
간에
##차로
지배를
들어갔
제10
살인
64
탱
레이블
내륙
필립
##였으나,
##플로
##보기
코치
##른다.
구성하는
공동으로
크기의
별도로
때도
곤충
파생
예언
서방
노스
추증
##정책
##타임
충분한
도시는
##비에
지연
측면
카페
특급
익스
꾀
You
쪽으로
소위
##보가
화성
##3,
##팀이
##SA
의미로
이익을
날개
##하루
찾는
법적
체제
##하겠다고
##실,
전투가
경험을
서독
잊
아니었다.
##리에서
이미지
맞는
유키
자란
닫
종교적
공산당
전북
참조
향년
1층
##마루
모양을
노란
공화
추락
##액을
##치기
##줬
강남
심사
##OR
구성원
##함으로
들었다.
말해
1923년
보여주
감사
플로
!
1925년
먹는다.
충청북도
전쟁은
후의
코파
##밭
주재
##밀한
##겁
조선민주주의인민공화국의
##되었는데
유지하고
이것
전임
오염
##민주당
당한
멸종
사제
휩
##계로
##우,
##실록
결정을
접속
스타크래프트
##비와
##땅
인간이
##지구
##슬링
훌륭한
총선에서
##간을
범주
레지
##로미터
1931년
최근에
고통
죽고
내지
퇴각
목적은
우수
소스
##ill
##색이
##방이
2009
##덤
내부의
오디션
긴급
했고
주거
도시이다.
메모리
막을
겸임
살았다.
##작용
업데이트
확인할
1일,
약한
##동생
옆에
포도
람
##물질
모래
아프가니스탄
##ran
태양의
안토니
대장
맞게
탐험
겨
##and
##였기
또다시
못해
##즈와
단백질
스톤
했으며
혼인
생각했다.
한국에서
콘텐츠
##켜
능력이
홀로
화가
##실에서
##로에
가설
섹
##유를
##교도
이처럼
핸
제외하고
##'과
아미
##였지만
##보의
막대한
깊이
딱
##받
일로
파크
앉
##ain
##불교
성질을
승차
##형과
##집을
##파,
운동의
이승만
30년
모노
1917년
##이면
##나르
1세가
발효
고교
IC
##낸다.
##our
##2.
##윙
사이에는
##기지
차트에서
대회를
말한
크루
##%에
연루
이순
열어
보건
직접적인
작품이
결혼을
졸업하였다.
데뷔하였다.
받기도
정확
교섭
랭킹
##테이
##계열
파티
##스탄
##국제
##셉
휴대
순수
본격적인
베네치아
정도가
하노
중이던
보좌
3번
1900년
되는데,
대화
##았다고
전남
얇
최종적으로
관련하여
##보이
시사
당의
동북
방위
운반
풀려
본토
떠난
##상이다.
1922년
##피를
##드르
##용의
돌아오
등이다.
##AM
본명은
디젤
체제를
종이
청와
친일
선거에
지방에
##죠
5,
옹호
셋
##하라고
##선언
##제도
사과
##타가
군대가
중력
총선
##현이
##프레
머무
크라
맡게
MS
##어야
않는다는
##하거나,
##리우
기록하고
클라이
상하이
8강
제갈
##터와
않도록
모임
몰락
들은
실험을
소속의
대주교
하드
버리고
교과
##주의적
##받지
##드리
머리를
한반도
##전문
##그는
동안,
승리로
깔
하였으나,
잉글랜드의
자유롭게
##처를
개념은
하나를
참고
메달
적의
뜨
##3.
현상이
결과가
진술
심장
거대
##에,
크리스티
##례를
과학적
쓰여
반환
갤
곁
##식에서
설립한
특수한
방식의
신칸센
얻는
##권으로
남한
남아있다.
##오르
이라는
보잉
군을
끝이
##위원회는
좋아하는
이세
아웃
##과대학
##발의
##민의
##하러
##요시
##측의
있으면
사직
산화
사가
##당으로
플로리다
운동이
대신에
8년
타워
토착
##류와
##행성
##꿈
경계를
역이
타입
##족,
흐르는
전투에
내셔널
극단
포맷
##작으로
한국에서는
1905년
상호작용
형성된
두드러
##오가
##ik
##슬라
있었는데
##란드
데뷔전을
참가한
##춰
세우고
US
##도서
아마추어
##해는
##리코
구체적인
##물과
있었으며
##냥
사상을
뱀
##돌프
일본으로
일찍이
관하여
Me
##호에
가능하게
읍
##된다는
##300
사람에게
##초의
거기에
그러자
33
Al
벗
##미,
죽을
사형
##드에서
귀환
수업
이복
체코
이어져
발생했다.
##all
##렸던
아울러
동굴
개업
이름이다.
불리기도
테크
억제
1907년
군대
##사령
속도를
이외에
주에
##발전
형태가
불안
측근
이종
조용
가쓰
툴
##렸으며,
##식과
끝났다.
##iv
이론은
연계
한신
문화재자료
##바는
##뒤
잃고
똑
결정했다.
##터,
근거로
700
라이온
콜로
근로
내장
##회와
치렀다.
재생
서기
##리우스
##자유
사용자가
##본이
##짜
시인
전향
다녀
산악
##수도
##여래
친척
추적
꼬
##마에
적색
##하였다는
1929년
##우스의
##버그
##영이
왕위를
스승
##비행
아이템
따르는
##웨
유일
벗어
램
##머리
##들인
자격을
3D
##족을
##체인
분야의
방식은
##옌
##속의
발렌
CPU
숙종
##일,
기재
펑
락
관광객
해군의
##토를
##선에서
애플리케이션
6개의
마친
u
칩
호남
제네
##타마
수익
제후
전통적으로
##가타
후반에
부른
순위
##끼리
사실은
여동생
얘
지정되어
##자나
게임이다.
##ub
##치며
##성도
상태이다.
돌아갔다.
달러를
낳았다.
##미와
모델로
2번째
그라
그렇다면,
무늬
##성에서
##시민
##건이
달아
윈도
##바키아
성립한다.
##이자,
##네는
노선이
무료
땅에
모르
꼬리
##다”
특유의
돔
##재로
##니까
##소한
파트너
원로
규슈
이른
##민은
왕위
##투쟁
##ED
제국이
신라의
항공모
떼
##하르트
##천의
##…
##문,
##총리
##기념
엑스
무력
인텔
##되는데,
##율은
##린의
모순
속도로
중앙에
페이스
구체적으로
나고야
##융
골드
프로그램의
##편에
국가를
착수
완벽
선을
##브로
##석에
잘못된
화려한
컸
##스톤
스파르타
##작은
##주의는
털이
샘
##내의
미치는
연평균
목적을
맞이
운항
##으로서의
##률은
##조,
인물로
마스터
##가족
후기의
영국,
16강
무효
충청
최신
젠
##개가
##oc
동독
분산
싫어
##음에
회의에서
번호는
원자로
미분
항일
##경기를
##노미야
##고한
##온의
차례로
초창
크리
곳이
##카드
발생하였다.
##조와
##랍
구상
해병
아동
펄
바꾸었다.
##식,
북한의
일본군
교차
가라
생각된다.
루트비히
의견이
분기
후일
##연대
##슴
##류에
##리나
##마자
##‘
변호사
통칭
1950년대
##학년
국가에서
요소를
사용해
1500
스웨덴의
연구는
지금도
병원
##였는데,
##스부르크
##턴은
매출
##였지만,
했는데,
독일은
브레이
내내
공장
펴
전부터
도시로
##콕
##륙
간접
비스
1927년
동아시아
2016
시기의
근처의
찰
##분으로
지역에서는
지지하는
##명한
언어를
##100
한양
##파에
아우구
해임
험
일환으로
연구가
##밤
강수
##로써
루마니아
##기인
면에서
길이가
경력을
목포
당선되었다.
샌프란시스코
획득하였다.
##’에
##IN
##편이
##se
게재
이었다.
"The
##세기에
그동안
금강
젖
파키스탄
중심의
주제로
가요
기갑
##등으로
수록되어
정교회
여덟
말하였다.
##의에
고고
1912년
조사를
살던
궤
##우에
하나로,
보여주고
스타디움
영국은
왕으로
현의
2011
##쇄
몰려
적대
얻기
멸
유고슬라비아
##조합
그림을
아이를
연설
부흥
왕립
실용
배를
가톨릭교회
조직의
프랑크
##점에서
##색은
제공하고
##슘
아틀
갑작
##아일랜드
##마리
##생산
##쿼
케이블
기록에
테오
폼
##키의
제국은
게임은
##눈
##대신
##너스
기술이
1926년
##궤
위키
반박
정찰
자바
##락을
##이다
##탄을
##견을
인도의
거슬러
그랜드
애국
포기
호칭
가이
콘서트
토마스
된다고
형식을
허가
정류
리듬
참가하였다.
##우와
《삼국
도심
영광
침몰
의거
##병이
##팩
전성
공정
제휴
쟁
##ast
##히고
의원은
언제나
D.
섬을
밸
실패했다.
##당하고
주에서
패턴
애니
가면
##%는
##분,
시대를
사이트
평생
공주
크로아티아
##산과
##:1
부통령
##DP
##나게
오리지널
출력
구름
항구
##지마
##〉을
##메르
개장
정교
정확하게
##OM
노력을
##못
##》에는
##신과
1회
박영
##면서,
##학에서
##’으로
##중에서
나갔다.
##-8
말하고
계열의
##건설
한국인
액션
##14
##그리
##ew
몬테
상주
##코가
##터에
창간
근접
뤼
시스템의
##았고
2013
빛의
일에
죄를
사헌
임명되어
##말로
중심이
운행을
##룽
리버풀
단어
착륙
##난다.
이듬해인
##토리
송시
##안으로
##클럽
##일리
두번째
130
블라디
들면
##학교를
##역과
메트로
민족문제연구
##론과
밝혔
활약하였다.
##평가
점이다.
##온이
프랑스와
한동안
않았기
2014
촉구
모로
NA
##ML
빅토리아
진출하였다.
자신에게
##연이
##해에
산하
오카
|
랑
조직을
프로듀서
보내는
##흘
급제
##문으로
연속으로
의사를
올림
일도
차남
##나라에
##ly
##시고
창당
부품
코스
##편을
##렬한
라이프
클래식
사다
국토
##목이
##트랙
센트럴
김영
목격
양도
2007
운행하는
##브를
##토가
인물이다.
##준은
##노스
거리가
##°
시에서
어두운
밖의
둘은
전원
알리
##임이
##ET
유대인
첫번째
발레
##즈,
##실에
##아서
형식의
중화
급행
비슷하다.
되었는데,
속도가
드래곤
안동
##-5
##국인
##IT
##수한
##ID
준결승
대승
##규칙
지어진
않았고
##림을
대표팀
채로
아사
버전은
연안
태조
제수
##함의
##17
담당하는
##아와
##네의
##헬
북쪽에
대로
##색,
전자기
2위
연대
##치면서
##자.
##AN
##절을
##앨범
##지붕
회장
잃은
안의
##자이자
토대로
팽창
융합
황제가
포함해
종결
쉬운
##피는
거리에
영역을
##직한
##리티
##치에
구조는
##ith
##ry
유니폼
2선의
풀어
법을
레닌
적합
나섰다.
##교,
전에는
##단계
성공한
걱
여기에서
##보면
커뮤니티
특징은
언어로
우연히
신고
끌려
성공적인
##열이
7.
음식
전쟁으로
##치와
캐나다의
고리
사용하기
들어온
##<
제약
때로는
써서
트윈
2007년에
역사적으로
##석과
회사는
제조업
고가
양키
획득했다.
##훈련
아니면
기구
각기
##신,
250
달린
팀에
일했다.
##는,
구간은
##판으로
##얀
##초에
무슬림
입사
다케
트위
모험
선언했다.
프로그램은
##ore
##양이
전한다.
##콧
둘러싼
무대에
인접
낮아
##술을
##숙한
바꿔
레인
정부로부터
있어서는
미국인
##천군
공간의
##딜
닿
##란의
2015
개발된
공개된
협상
DJ
##전에는
##자이
학생들이
스테이지
정책에
외의
##심한
시간은
##청이
##공이
##됨
않으며
199
##어졌다.
20일에
활동한
성질
탄소
중순
##코프
##50
##음은
들어가는
##대상
##테쓰
건물을
테마
마찰
빨간
##해지고
했다는
교사
88
항해
##시스트
##팀은
1개의
유형
경유
1908년
이미지를
##랩
명백
경기에서는
##풍을
##슐
스페셜
EP
잦
##슨과
##60
배제
느낌
역과
세워졌다.
##위와
##렸고
형태는
10대
##증이
길게
플레
아들이다.
도움으로
##나마
##관찰
##자였다.
발견했다.
연구하는
##작을
##영,
행성의
되며
국도
##된다고
##주년을
##대사
알려지지
##니다
조건으로
명예의
해적
굵
##장이다.
##제에서
##우고
군사적
경우를
건물이
사용이
후지와
악화
페이
2004년에
100만
25일에
우리의
##륵
직무
흥행
쫓겨
##:00
화제가
접하고
과정은
결심
##해방
##법,
개혁을
종로
주축
며칠
고베
##30년
재산을
무려
도요
##-2로
나타낼
페이지
주제
##보도
##직에
##포는
히어로
전례
용인
충격
보충
가시
시작했고,
올림픽에
##..
특이한
달러의
대조
##FC
동시
인정받아
이틀
쿠바
출연하였다.
##스러
##손은
##니를
석탄
안타
응답
클로
별의
료
때때로
무거운
기부
상영
성모
2005년에
##키아
##하가
노르웨이
착공
꼴
##천을
##설이
##자연
초점을
맞추어
일어날
배급
병력
쌓아
##인들에게
강이
충족
판결을
사용을
자전거
비극
65
농구
한국에
진정한
크림
자발
향한
##씨와
발견한
도전
약화
조기
의병
##되자,
##등한
지역과
##브레
부문에
구간이
비가
대우
닌텐
##책임
현존하는
지내고
마산
어려움을
##란이
##목은
부대를
싶어
윤리
2008년에
##리스트
제외하고는
##스에게
독일에서
##베리
##렘
티베트
"B
##츠와
##프라
집으로
컨트롤
느낀
Be
4번
관중
##국,
엘리베이
##렁
모델은
유출
사적
왕은
##스와의
##차별
정부와
득점을
유소년
피렌
##제품
되었을
대회는
2대
상무
##학위를
##곡이
과거의
이르렀
내놓
친일인명사전
관점에서
시즌에는
영감을
예방
훼손
실내
##오를
생기는
비서
창건
슐
활발한
시즌의
인증
통행
격퇴
##환을
##계,
##바의
않지만,
어울
상임
2루
나들
##문화재
##치게
남쪽에
별다른
##열의
##한을
스크
스틸
발라
친정
바그
2006년에
##격으로
##먼은
##고에
음반은
시켜
##감독
홋카이도
스토리
##괄
여론
제목으로
앨런
반사
3만
##차원
##길이
##공은
미시
##부대
발전에
노선은
발매한
편리
Th
##있었다.
##때문에
##리히
##받을
##르가
식으로
적절
##경으로
프랑스,
획
##후보
##두는
내린
##m이다.
##sp
대학원
다가
이루었다.
##"과
##쩌
아래로
최저
배정
UN
모집
둥근
##그래
##오고
##연의
교수는
for
하버드
실려
해제
##터로
스마트폰
##다:
민주화
문화적
만나게
들어오
강경
신분
일시
라운드
인류
침해
불을
##론적
##의로
30일에
지명을
기업의
##향을
작곡가
그룹의
##다”고
2017
모두가
끝까지
49
우승하였다.
##긴다.
##조정
사용될
추모
유격
##레의
##원숭
##뿔
주문
심각
났
론
민주주의
움직이는
##르바
조금씩
진영
준공
댄스
낼
##산에서
시작된다.
##백을
##번호
사고로
그렇지
창시
성씨
##군에서
남부의
듯한
##대전
관계로
레이다
꺾고
바뀐
아리
옷을
그랑
뷰
꽤
##목에
않지만
조선인
일관
##두고
##일과
##라면
분광
포괄
바둑
##치,
##힘
건물의
외곽
기생
결정적인
##딕
대학에
지표
조항
바가
학사
전압
##학적으로
##유는
의회는
##맛
아스
MP
코믹
##형이다.
##-20
11일에
강점기
가난한
맞지
야스
주립
##하였기
##선수
마르크스
교수가
일본,
출시된
##뮤
소환
부정적인
##연은
들어와
물에
##더스
받기
##정상
##디어
부과
기록하여
후보가
받았고
##랴
##퉁
피고
어렵다.
메르
네덜란드의
트레이드
사이가
세로
무선
눈이
조반
딜
##길을
넣었다.
##보에
이광
부를
##주일
참가하여
##결정
나이가
다리를
시와
부착
태국
##초를
##〉은
##종합
3번째
구에
##시대에
##금융
##정당
##싼
급격히
감정
##져서
##ok
부대는
사격
난이
팽
서울에서
##마이
##프에
다루고
클라우
생각해
따뜻
술탄
나선
껍
쾌
팩
싱
##우주
분야에
조치를
목표를
체계를
다항
벼슬
##원이다.
##패로
활동은
공사가
좌표
가까
클린
메디
##어에서
시절부터
##리며
##바닥
충격을
하여,
대서양
거행
구로
객관
성리
출토
곰
##환은
##이상
관습
5000
강제로
소수의
3세는
웨이
봐
##들과의
##적이었
##뤄
10여
병행
안장
개화
탕
마케도니아
##사각
47
De
거주하고
뜻의
탓에
에우
##PS
##화하는
있었다는
나라에서
지나치게
이승
통근
합동
안산
리드
##조각
콜롬비아
사이를
복사
전념
##금은
의원이
지질
복구
추격
##성이다.
발매했다.
##커는
후보에
치료를
이리
삶의
##타카
##레오
우라늄
시기는
스프링
용산
마카
58
꿈을
법학
이곳은
쓰인
손상
뮤
수치
##산화
스트라이
소규모
빌헬름
중추원
후임
스핀
남아메리카
##았을
##경영
##라리
110
못할
유인
하우스
죽이고
재능
1~
J.
프로토콜
수도권
도호쿠
정원
점유
런
뱅
보여주었다.
##ong
##번뇌
작품에
수렴
요구했다.
철학자
모델을
실시된
고발
구릉
8.
##자들에
##-15
홈페이지
##족과
##척의
8개
안양
##’이라고
##겠다.
남아있는
##장애
##더는
시즌이
##되지만,
##릭스
##황후
##크라
고려의
영의
화살
##내고
##명인
##미야
관현악
극히
트럭
오이
##ss
화면
지각
이글
##다"며
비판했다.
에피소드
바꾸어
##심의
##사단
구조가
어려움
흐름
장의
"A
종전
명문
엉
##”이라고
2000년대
##서에서
##과로
##작가
규정하고
수록된
대학을
뿔
##달라고
##내에서
아폴
허리케
글로
##에선
디자이너
태도를
밴드의
발생할
경고
선교
별칭
이토
##면서도
##무원
비슷하게
이르고
지바
기요
##ock
##26
마쳤다.
##펀
모니
##불교의
있으면서
개봉한
기념물
찾기
혁신
보상
주를
##신이다.
공사를
해를
AC
대외
딸을
##여서
깨달
46
막부
##해진다.
지적했다.
##외의
##통일
##AC
뿌리
입장
##되었다가,
##잘
제도의
교향곡
생겼
단,
참여하여
##IC
항공기
여행을
캐스팅
코치로
동년
캠페
지방에서
##러가
##파이
##일체
##쓸
좌파
의뢰
이긴
파란
설립하였다.
##》라는
논문
지고
##자리를
##미로
##5년
##최
숨겨
밟
천문학자
대회의
나눌
섭취
1부
트라
사육
모으
증기
바이올린
##너의
##회로
중심기압
3학년
3개월
승리한
관람
석사
로스앤젤레스
합계
힌두
복수
##범죄
학교에서
선수들이
받침
매주
잎은
##오,
##대장
프레임
발족
다운
에릭
##적이었다.
##디의
##역,
프라이
우승에
수평
일어난다.
유나이티드
예정이었
##란은
요소가
백인
오스
##티의
인정하지
측면에서
##레나
##폴리
기록된
다큐멘
갇
끝나고
자신도
##쿄
누군
포유
고도
관직
일으키는
거주하는
중계
교도
야생
데뷔했다.
생각하는
##양의
##우치
##포스
은퇴를
서울시
##、
날짜
군에
믹
미국에서는
##가에서
##르기
##음의
##마쓰
찾아가
국가에
갈색
헐
##당하였다.
이상으로
생각할
드러나
건의
비오
기습
몰래
##환의
멤버로
곡의
경북
16일에
##s,
##."
##현에
칭호를
자신과
동서
시마
봤
##받는다.
##ian
##류로
위기를
대처
평행
닛
##처리
##해군
준비를
##캔
교황의
5천
억압
열매
##르게
##쥐는
##고쿠
승강장은
계획에
출연한
단종
붓
둘러싸고
##중심
##짜리
##르크
##가시
왕위에
놓은
기록하는
선진
ST
성공하였다.
##하나,
22일에
개발에
고쳐
분배
##졌는데,
##톤의
10일에
실패로
신호를
투옥
마라
진군
##인다.
후한
친선
##하겠다는
##채를
얻는다.
3000
##전차
##투를
하였고
검증
급진
가공
사르
엑
##금이
조건이
소재로
작센
##기이다.
트레이
솟
셈
##전도
실질적인
##진과
##어에
퓨
거느리고
투르크
새겨져
캡
##주의에
일시적으로
여기에는
##열차
##캠퍼
지혜
1911년
봉해졌다.
100m
##미아
NHK
유신
앉아
y
제작되었다.
##라인
액체
실종
칠레
18일에
##끔
##뤘
브로
앓
1906년
일본을
인근에
"이
1천
역설
##'이라
##랑이
##28
##ST
##포가
26일에
기간에
어긋
##후의
##우라
##양은
##랙
출전해
좌절
2000년에
##츠가
##80
Re
탈환
외야
##시키고,
##per
##님의
시스템이
앨범의
영화에
시작해
느껴
막내
기다
엘리자베스
##둥이
국가대표
노래는
가즈
그리고,
페스티벌
##마와
무기를
박탈
##ib
##․
충분
지폐
##케이
##포의
2학년
두어
로스
웰
수행하는
##왕과
한다
##호선의
문과에
자식
거론
##평을
##ge
<br>
포로
한화
힘든
버튼
##특별자치
있습니다.
에스파냐
##ob
##란을
성균관
IBM
원형
롬
##목의
16세기
장치를
도착한
##13
아버지와
브라이언
##톰
만났
타운
대통령을
##’이
##달아
중에서는
좋다.
로빈
계속되었다.
##금의
17일에
##께서
##학이
##왕에
##놈
카메라
회사를
미하
장편
이슈
현저
##금으로
##질로
##소리
것에서
음반을
차지한
역에
시집
폴란드의
##왜
운동은
부족한
백악
일렉
보지
빠진
##로서의
28일에
일부로
경찰은
크로스
부딪
보르
결코
Sh
3층
폐지되었다.
##디가
##러의
사회에
연방의
커피
회담
고시
제독
##’가
##행위
##풍의
양식을
도구
많았
상반
군인
폐위
3칸
##위원회의
##실한
##주군
리투아니
은퇴한
99
자율
구역
##자도
##네이
##니에
노무현
와중에
다음에
실린
대의
몸에
샬
##전한
뜻으로
전체가
신하
보완
##헨
진출에
차기
kg
관념
##량으로
##지진
##질은
대신하여
3위를
##픔
선보였다.
##쳤고,
배웠다.
수습
깨닫
앱
##꿀
제압
통화
formula1의
호르
네이
##놓은
업그레이
##즈키
##계획
스카이
월간
신흥
21일에
비난을
없으며
제사를
플루
세르
실패하였다.
하인리히
겪었다.
##io
하나님의
텍스트
국경을
어린이
지대
훔
톨
##ind
지식을
건너가
오빠
##음으로
##주간
14일에
##재의
185
분류된다.
##야가
##스런
비로소
그러던
라이선
의식을
작위를
군대의
경험이
푸른
와카
내리
de
신용
자연스럽게
안드로이드
민족주의
않았다고
기능은
마케팅
"P
동지
어드
##화학
시칠리아
과정에
##빗
고민
소총
식량
이내
펼쳤다.
##딸
레코드
온도
민속
MC
월드컵에서
분데스리가
##철은
불리게
감정을
주니어
특징이
포크
인조
##카르
##닉스
##님이
##ud
AM
베타
구체
결혼했다.
대통령에
##방향
우주의
에스토
31
신화
##적에
##OC
영역
삼고
폐기
##되지는
##스럽
##능력
계절
##박한
거리는
이화
전도
후궁
상징하는
27일에
결과에
일컬
2018
거기서
시로
대폭
어휘
3루
##체이다.
개발되었다.
##res
출전했다.
일원으로
##24
##페이
찾아볼
수술을
3월,
기체
서브
바닷
말씀
대한민국은
밑에서
아서
##자리에
1896년
접한다.
생겼다.
##Hz
주장한
소프트
쇼와
이원
##주의와
##미디어
요청을
기온은
선수를
미네
##케이션
##남도
##치로
##돌이
실시간
1.5
음식을
무라
위안
프랜
윙
배우이다.
##오스
토머스
동래
였
##km의
체포되어
평균자책
아파트
아트
양식
도입되었다.
##거리는
영상을
Un
##70
중간에
그날
브래
바위
확인되었다.
2009년에
학교에
이후로는
23일에
##창을
##러리
##-7
크리스토
##네가
7개
짓고
무용
동해
남양
맏
방법이다.
선수로,
이정
주차
##나갔다.
##리그의
되는데
진짜
2003년에
##켰다.
##》으로
##망이
##타케
귀중한
자세한
이룬
강점기의
##희의
활약한
3일에
##롯
평소
측의
섬은
사천
논문을
##콰
노비
휠
##물,
##쁘
유성
나갔
밑에
열고
이지
바오로
##둠
비용을
염색
함으로써
##민이
파리에서
##워드
만났다.
간부
섬식
돋
##까지,
주장하고
##클리
소유하고
##곳에
##센트
##아키
일본어
##『
신규
멜로
시절에는
##월드
쓰이고
새누리
입문
걸어
전인
아베
시그
북극
횟
햄
상태였다.
##유의
##미나
바티칸
##뱀
창업
산타
##바흐
##천이
##재는
##훈은
구출
메리
→
※
##비치
광범위한
최근의
영남
즉각
권위
김동
음성
1904년
##과도
##층이
##업이
158
이유를
우루과
두산
소실
선교사
여름에
콘스탄
직전
관해
##버트
##공간
##항을
지휘하는
질량은
프로토
손해
구할
An
##측은
##–
마을의
사령관
최대한
계몽
활성화
초반에
5일에
황해도
아벨
그냥
##십자
##장군
연결된
중기의
추출
치명
경부
공원
사료
소닉
##판,
대상을
순수한
개발이
##(
빌려
##니아의
##자기
지속적인
##속히
##ep
##둑
5대
##결합
##오와
##욕을
##진에
##야를
구조로
이후부터
29일에
일본과
FA컵
갈릴
곡이
쿨
##재가
아니라고
##온은
##고속
##공원
##옷
간단
댐
1909년
##카스
##자료
##홈런
흔들
진급
퀴
##카를
##리브
##MA
SN
야기
재위
##담을
##동쪽
제안을
밴드는
호평을
전진
자손
동성
이영
붕
##체에서
1915년
왜냐하면
13일에
##모로
##과정
##뚝
##"이다.
1895년
##감에
##보안
##TA
자동으로
##용은
생각하고
자체는
식민
고무
직접적으로
##진흥
사우
않았으며,
경우에도
사회를
중국,
6일에
첨가
냈
##”라는
##돌을
##에다
블랙홀
보니
찌
놓았다.
자체를
중심지
색을
담겨
냉각
##ure
##조약
##1의
배치되어
##민당
이산화
공격에
관직을
면역
IT
순교
내야
##주시
했을
##천,
##민주
##산맥
##모델
버지니아
속도는
중지
임신
커널
SF
##펜하
추상
원내
신한
Sp
방면
##청을
뚜렷
주,
##방에서
12일에
##값을
##년의
불교의
"S
미루
축출
몬트리올
종의
요크
프랑스에서
물질을
의미의
1위에
연기를
줄기
장려
턱
##ood
움직임을
오키나와
##90
힘입어
피어
##적이며
##반을
적극적인
##35
##신에
않는다고
##클린
##성군
12월,
명에
멈추
트럼
이반
##시장
##필드
대법원
딸인
단단
개최되었다.
시점에서
##>의
##SP
부분의
기반의
제품을
시초
##ies
##널드
##21
##업에
요미우리
마을을
있었을
CE
약칭
##통합
##턴의
유언
조치
신임
믿고
"M
복귀하였다.
마쓰다이라
##그로
시설이
모르는
김용
신생
44
위임
##서부
##av
임용
신장
한강
연애
쳤
오스트리아의
##석기
드라이브
최후의
##녹
98
할당
밀어
얹
##애를
##측에
긍정적인
##방은
7일에
8일에
방식이
인물이
##얄
일대
감행
엿
##민주주의
##저는
벨라
무인
라트
명성
풋볼
##바로
아마도
별명을
이론의
비판이
낙선
PD
돌연
갓
방영되었다.
##거는
대학교에
다음해
굉장히
베이스
투구
바실
##곡의
##엣
선이
재혼
##소스
2.0
진출을
나눠
설립했다.
##냐는
아버지를
##블로
##루,
북쪽의
시설을
뒤집
##잇
먹고
대관
원산
일어나자
없었고,
##악한
밀접한
서쪽에
마음이
장군의
톤
##동에서
##차와
##놓고
베이스볼
사고가
해,
존중
총괄
##이면서
##IS
##중은
근처에서
분명히
어려워
부드러
이적했다.
##자금
팔레스타
##료로
##즈에
하야
나의
##인들과
##미에
독일,
직전에
단위로
광역
입대
56
내고
##론,
##부사
회사가
비평가
##퀘
"C
계곡
끓
삿
##한다면
##액은
19일에
##경과
##-6
##에스
테일러
가나
정면
##합니다.
동남아시아
국가는
종류가
먹이를
동쪽에
집안
영주
협주
챌린
##편으로
##림이
선구
바꾼
노태
##으로의
알렸다.
##바야
1월,
북부의
기술의
기록해
2일에
여운
##하였다
관할한다.
##가들은
##실과
##ck
존재가
엔지니
성격이
진단
경비
프로그램이
##름을
잃었다.
자리잡고
##매매
그다지
정한
평면
이자
규모는
테이블
기호
태종
2002년에
##직에서
##te
400m
진행된
여부를
것보다
제곱
아는
플레이스테이션
지역이다.
조선인민
24일에
엄격한
선거를
기자회
지방을
##점이다.
2006
##하,
##법원
급제하여
표현을
발을
부패
링컨
##지방법원
##이나,
##주기
##IP
##/s
##브는
향후
드문
버려
##주식
##인간
라틴어
4일에
##튀
데뷔를
어워드
느낌을
피난
던져
선언하였다.
내부에
오디오
문재인
리그에
NBA
1면
68
뉘
##였다는
부분적으로
##임은
소속되어
##애나
##중한
협상을
독일이
적합한
"T
궁극
컨셉
매사추세츠
진출했다.
##고로
##찍
마이너
움직임
김해
순회
미얀
순천
채무
2회
어머니의
동물의
요구를
드럼
##현으로
##9년에
##있지
4월,
고조
작사
햇
##풍으로
##베트남
##구나
자금을
2군
주행
##」,
##하마
고구려의
##〉가
곡으로
##ber
##군사
어머니가
그들에게
가지가
긍정
댄
##단에서
##타나
##제프
##변에
168
존경
담긴
2부
추측된다.
필라델피아
진행된다.
장면을
##엠
독립된
진동
왕비
그쳤다.
헌법재판
말기에
변화에
3가지
전체에
차량은
아예
바른
##레가
추정되는
포지션
빛이
IP
부천
라우
2010년에
##종,
아니고
밤에
갈아
쿠르
뮤직비디오
##츠를
##곳
공로로
##픈
길고
설탕
##하였다가
##어지는
##와,
##종과
레이저
수록곡
아랫
벼
것이고,
흥선대원
##시타
##CD
신념
취약
말의
옳
##하려면
##방으로
##시에는
아래에서
있다면
유튜브
15년
모델이
벌인
HT
옹립
##본부
하더라도
##관광
##한의
아름다
것임을
모방
개성
출전하였다.
설명했다.
##7년에
비즈니스
역임한
의회의
지정된
만의
봉안
미카
다양하다.
중요하다.
##번째로
##액의
기술은
상대식
등용
은메달을
줄여서
나오지
차량이
베네딕
보일
법원
오라
만족시키는
##시즘
##성한
##타,
물리적
차이는
페널티
성취
메가
레논
등장했다.
##38
자본주의
##:0
환경을
198
위협을
협박
플랑
2~
엄격
밀양
##'이다.
##증으로
하나였다.
발견되는
학자들은
##주쿠
##편성
버전의
프로듀
공민
이수
일조
대한민국에
##병의
##레를
제17
채워
작고
##종이다.
이야기는
##밀리
세상에
회의를
용어를
영향력
늘어나
저택
꽃은
)
##ort
2,000
##부장
##-9
담당하고
브라질의
승인을
기사를
원인은
전력을
10개
규격
되찾
쇼핑
시라
##수로서
##여성
주장은
나이트
장면
##슨,
##면과
##비스
남쪽의
업적을
도시가
##샘
불편
나쁜
요르
김태
도입하였다.
7월,
오프닝
세균
영조
변경하였다.
##버렸다.
이루어지고
##II
스스로를
사람과
템
달성했다.
##등록
##링은
최악의
향하는
우승한
포켓몬
9.
재즈
##철도의
등지에서
##소송
##aw
##마치
선수로서
확실히
##펄
베드로
주어졌다고
##곡으로
##주지
나가사키
지구에서
맵
##프랑스
##hP
시키
정밀
공산
시범
사각
때인
상용
##적·
이유가
마음에
이인
그중
규제
대책
모용
##면으로
##씨로
제1회
가까워
게이지
8월,
나열
나올
전한
95
김규
유지하는
이때부터
##크에
청주
##판과
##외선
##〉에
해상에서
문제의
백제의
둘러
황후
붙은
성에
멋
##세스
##기획
##」의
##37
여성이
살아남
작곡한
쓰지
두루
##베리아
한나라당
##급의
벼슬을
하얀
강과
깎
룩
이용한다.
그리스도의
##습을
##티스
##봉을
지점에
##턱
5월,
2천
표명
헨
##고등학교를
##졌다는
##간이
##’은
##체,
후보를
Ar
까닭
구의
##BA
##모와
돌아왔
책의
일명
경력
한층
##전부터
조약에
한성부
오세
##학적인
##라이더
떨어지는
##트르
총대주교
개념이
재능을
철도가
엔진은
동기
천도
드림
버렸다.
##특별
##년간
뜨거운
넣은
정도였다.
##통이
제국을
176
차량의
역전
손자
두는
##리크
##사태
##ec
주민들은
##야만
##붕
인근의
대두
He
차원에서
##회담
##색과
쓰였다.
전통을
구간을
정해
주류
##파이어
동아일보
중국과
병으로
야당
취재
등재
호출
##ord
##층석탑
##제한
알려지게
##만족
할아버지
##올라
##누엘
패배를
시위를
독일과
없었기
##“
대웅
##서야
##문제
##풍이
##작이
자유로운
##클라
음악의
간다.
윤보
배틀
##iver
국가대표팀의
##불을
7개의
시장에
회고
5만
봉쇄
대거
유저
왕자
formula11
##운동에
##ant
##서도
##층을
피에르
리비아
한미
적혀
용의
왕을
결정되었다.
##전자
##용을
##oy
디자인을
수학자
보면,
목록은
3명의
붙인
SC
1913년
아이스
장군이
##ℓ
숭배
##졌으나
메시지를
##사건
##지휘
##함,
##친구
교육의
술을
초등
##자치
##녀를
문자를
함수의
물질의
파일을
12년
##깨
속으로
하나님
가환
수신
예능
함유
##-11
##종교
##IV
황제로
할머니
식별
처음부터
체코슬로
유래한
##해지는
분리되어
타격을
현재,
십자가
연금
동화
밖에도
도쿄도
##셸
의혹
66
불어
가짜
인지
먹을
물러났다.
##왕후의
일이다.
##하겠
##전인
지중해
일방
한쪽
한계
난징
활약했다.
##말에
줄어들
출전한
나눈
모음
많고
##iz
##감과
견해를
정해진
보호를
구제
피부
뻗어
PS
피에
##해와
##열은
##랑,
##팀인
아나키
이래로
언더
부장
초과
부산광역시
##받게
뒤에도
경기장
적지
날,
미국을
사사
바퀴
설명한다.
##영상
리메이크
##é
코드를
제도가
패키
이끈
3위
재단
##링을
##생이
있다"
로저
무상
엔딩
##기게
##계급
부유한
파이어
인접한
##400
##희가
##빈은
##순위
##서쪽
전라도
이어진
축하
장로
끊임없이
##월한
##력,
##하니
것이며
철도의
안에는
패한
오를
부수
사건이다.
##법칙
##축을
아버지인
공부를
학교의
목을
번식
샹
편입되었다.
##변의
##컷
난민
몸이
##12년
##나라가
##ust
##사상
##텀
리스
주가
##tion
##연속
차량을
피하기
섬에서
군대에
우호
진정
됨
엽
중국에
스탈린
모친
##렀다.
##29
##테스
##인치
간단히
##≫
환경에
조선에
##봐
##지나
##작의
비밀리에
##시피
on
##정한
10월,
##OP
##노가
##감한
##빨
얻지
애틀
##OL
정신을
야간
구동
##올로
가마쿠라
참여하는
##>를
##카미
리스트
시기를
영어로
준우승
별은
##바나
##AP
위원회
본인의
신비
막아
상처
최적
이치
쇼군
닦
##orld
##권에서
프로젝트를
##18년
##변이
유학을
발언을
아무도
사이드
밝힌
미치
입체
명단
박헌
##스포츠
나머지는
##업은
관련한
압력을
##되면서,
벌어졌다.
##리아의
##ide
방식이다.
##ame
##달리
제외하면
프랑스에
##m에
조정에
해밀
캄보
평등
##마,
주민들이
##나우
때에도
시절의
잡혀
인격
둥글
발트
넓게
마찬가지로,
발매하였다.
##파일
퍼시픽
믿는
삼촌
텔
활약하고
##천은
경찰에
드물게
변호
흰색
1916년
##PG
목표는
케네
얻고
관통
회색
타카
캘
지어졌다.
##10년
##전기
##IM
있기도
무료로
올라가
투수가
##적이지
##끄러운
##재,
##교에
Love
갈등을
이름인
##핍
예배
쏟아
직면
쇄
발견하였다.
##으려고
통일신라
##버린
리눅스
9일에
차이로
##앗
7,
앞면
거뒀
##온다.
##세워
##팀의
전체적인
덴마크의
하느님
나가는
리만
쓰기
##나라는
##음과
활동하는
펜실베이
기초를
사람도
기회가
컬러
마천
연꽃
■
이어진다.
##올리
동메달을
소설을
자택
상상
모서
##곡은
기독교의
##환이
##MS
##츠키
안으로
9월,
##회의에서
##공산당
받았으며
이론에
고백
##사우루스
##생으로
##암으로
##수인
시장을
20여
스쿨
선과
이준
냄
않았지만,
##운영
2004
##있고
김재
하락
죽이
서북
닛폰
들어간다.
가져왔다.
##임에도
##다르
리그를
버전이
없다
입각
주소
어른
고등학교를
##고자
3차원
저기압
선수는
임기
아비
도는
대피
중화인민공화국의
중단되었다.
바르셀로나
계획이다.
##원군
##돌은
일컫는
6월,
협회
싸워
김옥
결혼하였다.
##되지만
##량과
진행되고
##보,
하거나
왕실
씨의
미토
##본으로
못했고,
물리학
성능을
뚜렷한
이의
보게
기동
밀집
석가
중종
분포한다.
##등은
##4.
##도어
3세의
높게
잡은
##술의
##속을
##발이
##었다
손으로
우울
와이
석탑
땄
참고로
언어의
방송된
공직
만일
느꼈
화재
구마
스폰
럭
##감으로
플레이어는
##번에
##간은
마음작용
문서를
온도가
177
선발로
성사
실전
##자라고
##600
##교육을
##ate
##버러
온타리오
가벼운
중동
마약
군수
##인한
##현과
8개의
구조의
슬라
법조
이윤
공손
하였는데,
기여했다.
생산하는
##이스
정치를
있다:
짙은
1학년
없지만
국정
설도
쌓은
사절
##하자는
##원들이
##세,
카자흐
사이클
카탈
##화하여
##청에
##타와
인상을
##섰
##끄
아오
아즈
교구
펀
##수수
9년
1집
##15년
##역사
##내가
##품이
세력의
다음이
77
호의
날카
##개로
##디스
평범한
단어는
##촨
##눌
공무원
##윗
기각
장난
디렉
##두를
##다리
행사를
왕국을
손꼽
변수
1루
##이었고,
##종인
##플라
##오리
자신들이
##받침
점,
##모에
##무기
##위해
시장에서
하느님의
대전이
학문을
차례의
부근에
응시
선제
젤
##태평양
##나치
##열에
##용이
##층은
오리콘
곳의
인생
현장
떠났
하드웨어
##분열
##공학
전두환
4번째
나섰
돌고
##one
받아들이
##론》
##왔던
시베리아
##만,
지키는
중일
우즈
조언
처녀
소매
뭉
–
##운동의
15일,
##린이
띤다.
장거리
왕국은
강연
거울
선종
이바
침투
아이슬란드
##철의
##리라
##8년
질량이
얼굴을
즉위한
범위
59
구해
여진
달의
스티
##700
평가된다.
목소리를
##였을
기간을
교역
유년
봉건
##북도
##황을
물러나
위험한
이라고
##껍
장학
포병
≪
옐
##ack
머물렀다.
##13년
##주자
##정원
##AL
보이며
고유의
입자
2001년에
##가들이
##플러
용도로
동경
제트
평가했다.
##택을
##주인
도요토미
오렌지
관리를
가사
군이
##교와
##덱
국회의
보유한
정신적
무대를
매카트
세대
자를
각자
42
데이터베이스
##man
하였으며
##공개
##27
나타났
남기고
국가로
##→
양반
라파
##.com
##가이자
##누스는
주어진다.
기타리스트
##-D
##림의
##부르
음악에
당시,
더이상
Con
알코올
재현
누르
몫
왓
##해석
존재할
서사
창원
전염
콘스탄티노폴리스
선수들을
문화가
10.
섬유
등극
수련
삽
취임하였다.
##주의,
##플렉
의미에서
정권의
주인
직결
해의
카롤
채권
##언을
##르타
알바니아
공간이
확실한
비율이
이벤트
경기의
필름
##〉에서
##평화
##인들
시작되어
시리즈는
위치는
역까지
사기
유적
보헤
않았지만
##박쥐
##곱
스튜어
미주
새겨
설명하는
##바른
유네스코
아테
사살
닭
##리자
승강장이
제16
완벽한
이차
My
승계
매입
리버
뿌
맑
##레인
부분으로
##동부
알루미늄
##2의
##장한
##험
해운
해소
살려
코어
##age
자격으로
##융합
기초로
서재필
실망
동참
어뢰
펌
구분된다.
##렸다고
##바이트
마찬가지
독립적인
##언어
##절도
관리하는
다이아몬
되었다가
##카,
##렵
중도
전년
수동
일체
모드
희귀
##위원회를
##-16
입장에서
##배를
정치적인
54
맞추
입성
##케라톱
##장치
##인조
정도를
휘하의
사면
짐작
결정하였다.
##4년에
조선일보
러시아는
잡았다.
연봉
이오
스톡
바빌
바이러스
페르디난
기점으로
##클레
제국에
새로이
갈수록
게이트
더욱이
호주
호수
##프에서
들어갈
이곳을
구스타
al
위탁
무실
사라졌다.
##런스
타이틀곡
요새를
##а
위기
카메
아가
##진으로
전했다.
##예를
그려진
이사회
옮겼
남극
전,
##리그에서
형태이다.
이집트의
##피의
##모니
##HE
소속된
얀
1999년에
##검찰청
정의한다.
입단했다.
부문에서
##그의
정부에서
##파인
##티에
만나는
뒤이어
표방
목조
이나
수록예정자
시작하는
환경에서
전하는
설치한
##쑤
빌리
##코,
##차,
##로드
##KB
제치고
휴스턴
위와
싶은
전선
《신
시리즈를
##량에
##것을
연합군의
대표적
여왕
##마르크
##는지는
역사적인
인정하고
같은해
나란히
피해가
고통을
##륭
사장
기숙
강원
##병에
##소녀
방문한
당연히
수상한
##옆
6,
민병
##위원으로
프랑크푸르트
정치적으로
부분에서
사회에서
부동산
육성
##통의
역사에
기름
해결하기
##구리
##연방
대가로
선정한
안드레
체류
꼭짓
##전까지
##퍼는
상태의
한국은
관직에
지니
양호
수확
뜻이
호위
돌을
제기되었다.
것"이라고
##</
##후가
##가?
##EN
성장을
비율은
모양이
취하고
결론을
영향이
보다는
도주
세속
프로그램에
아인슈타
되었으나
##다른
자유주의
##반의
##릴라
##포트
점령한
스파이
즐겨
축적
##코와
##리타
##바시
프랑스가
표면에
일하는
방영된
가려
점에
대응하는
##설에
있어서,
##증은
##셰비
준우승을
정권이
소송을
다니는
제도는
##닛
정렬
5·
헤라
넣고
85
왕족
시모
톈
##여명의
##계약을
##따라
##아나
베네수엘
제18
고수
호응
##학자들은
이루어지는
3,000
그렇지만
아이디얼
보여준
##곰
병역
철회
에버
##상으로는
그러다가
나중에는
기존에
사카
헬륨
심판
돌입
고체
SM
전역
아세
2011년에
실질적으로
##분석
##SS
3·1
동생인
조리
성이
##원들은
##채널
사고를
에디
때려
조승
얽
##ire
표현하는
나타낸
제목의
가족은
뮤지션
띠고
57
두께
제사
##어이다.
##해왔다.
서식한다.
포로로
##롤라이나
##왕으로
##아들
실패한
리더십
2명의
시드니
팀으로
실력을
값이
설명할
게임이
이를테
##쉽
강도
공립
엔터테인먼트
##스트로
자료가
낳은
신사
지녔
나아
감안
근무했다.
##골로
##있게
##병은
원작으로
정보가
디즈니
모은
##기구
##토스
3천
춘추
집결
세자
##보통학교
##커니즘
##텝
가지의
저명한
일으킬
팀에서
바르샤
빈번
대만
맞은
번에
선은
발현
##화이다.
##본의
##대원
격렬한
부대가
협약
김상
온갖
복지
학위
결정된다.
##심히
##식물
##약한
##브의
##산군
시대가
정치에
지름
팀인
비판하였다.
대통령으로
##800
##상규명
##ang
시리즈에서
##pp
##토,
유니버
칼리
##자원
되었다는
##령,
##나고
불리고
손가락
아사히
투수로
76
산의
이루어지지
다운로드
민족의
최후
이남
지능
덧
1894년
##면에는
##내셔널
국제적인
##의의
참가하는
아나운
남겼
이식
##다”라고
결정하는
##간,
##혹한
##교로
##시게
2월,
낸다.
언급한
가문은
끝날
생략
오고
클레
대치
1930년대
##았는데,
##지역의
##케이드
##대학원
지방자치
##커의
과정이
변화는
똑같은
##뭇
강에
권고
##한테
공동체
주장에
되었던
없던
연쇄
왕복
formula15
##시켰고,
방송되었다.
##루와
노부나가
##빅
에티오
기지
적고
이진
물의
중독
화려
발각
##하로
##암은
##에르
나라는
궤도를
물론,
넓이는
항소
드물
씌
때문이라고
##기나
##웨어
더해
브란
매개
이노
쾌속
##벽을
##영과
##흠
꽃이
프로그램이다.
##14년
##이한
##제작
##가스
##팀을
전반에
전역에
서일본
충실
화강
조달
때가
말,
CF
드러났다.
##베르토
불가능한
##집이
획득한
공격해
소련은
##​
산출
남게
사유
견제
진흥
신약
Se
##스키는
과거에는
##스틴
도시에
카드를
정조
##연료
##강이
프로리그
했는데
진출한
병을
난을
2012년에
##ien
존재하고
##리안
학생들의
##A는
10일,
공격하여
##뷔
회계
퀘
겁
##기독교
##년이
##상위
세력은
만남
부의
본거
"L
##브리지
대한민국과
##공항
오하이오
최대풍속
원인을
함수는
서울의
Sou
장군은
##，
무슨
시계
괴롭
싸웠
##목적
##벤처
##꼬
영국에
연합군
리얼
최연
저렴
걸린
##소득
최소한
도입된
##돔
년에
위장
환영
다중
동행
알지
응원
발칸
##ell
각지에서
##찬을
##버는
크기를
일대에
회장을
스칼
시골
5,000
##준비
##자본
결혼하여
##지대
주위를
상원
단절
무죄
아르메니아
##47
##머스
##아리
##운이
2.5
중재
2칸
##명에서
11월,
추가적인
##내기
영화가
물어
품고
부가
트루
##km/h
생각한다.
##락이
##카가
몸무게는
교회를
안치
입을
맺은
선배
##졌지만,
##저를
##랑을
##tt
리가
개관
조명
##스테르
연결된다.
##est
공격했다.
##니어
의미는
분화
봉사
방지
전속
##조판서,
그레고리오
##님을
보스니아
##렇
중반에
동명의
당대
##’에서
##두에
7일,
사이버
주니
시종
##구르
가리키
모습은
새겨진
해명
오바
깨끗
원반
##에서만
##한,
##!!
후임으로
함께,
뒷받침
##띠
##왈
이스트
°C
정말
##수사
달한다.
음악은
##툴
김기
31일에
살았던
한나라
아스널
열매는
방패
28일,
3분의
단어를
일대를
페르난
앞장
개가
담배
편에
##che
그로부터
학생들은
장관을
의혹이
고향인
가볍
개종
##에서부터
##ect
2005
##조한
같다:
서민
9시
캘리포니아주
따른다.
##고와
1800
주위에
종속
세례
숙청
백색
배가
이스
##번을
활발히
엔진이
아닐
안테
곤란
초록
이곳
##사이다.
##설은
노동조합
작용을
소문이
건설을
범위를
360
시호를
양국
중요성을
##감은
##함수
예이다.
##운을
서울대
Pro
전투기
졌
딘
##시키지
되어있다.
##21년
##의는
##판매
##다를
국방부
중대한
친일파
말미
기증
이룩
춘천
유식
Su
##36년
내용으로
##것도
##자스
판타지
이산
완화
월드컵에
일제의
하와이
건물로
FC로
감리
##부분
##야에
연구의
노선의
난다.
수수
폭로
간호
연령
3~
노리
대합
프로게이머
##궁의
미사일을
대학교는
##함마
공화당
상황은
증거가
제20
현재도
##웬
따온
누가
96
석조
##대에는
대통령과
##실험
출신인
그룹은
불리며
육군의
영지를
잘라
조상
옥스
신이
평정
##리면서
##판에서
14일,
아니라는
##시절
##서울
컬럼비아
##주얼
물체의
총리가
의결
왜곡
싱어
이북
산란
닥터
##주어
##가요
##미쓰
네이버
##빵
없어서
무신
덮여
##됨으로써
##폭탄
##원인
남부에
칭찬
자문
##자라는
##우스가
##폭력
작업에
수도인
##앉
공간은
열차의
규모로
측에
러브
길에
mm
제노
사토
솜
기간은
콤팩트
추기경
구단의
규범
##품으로
기록으로
##층에
##보르
실시한
##쿨
해마다
타협
78
흔한
##인이었
선출된
마을에
지구에
선택할
용어
김진
##책으로
##그램
참여하고
##GB
##’와
##안타
것들이
무조건
경상도
지구를
생각이
2억
배려
Le
조광
종은
##과정을
##박스
경향을
결성된
외에는
트리플
A.
분출
편곡
공인
##보드
##하늘
두개골
토르
##았으나
##길이는
##커가
##쪽의
당일
존속
구리
셸
##들과는
다녔다.
166
139
소리가
예수의
"G
궁궐
알을
사용하며,
##점인
언어는
통틀어
자세히
김홍
총재
초빙
애덤
암흑
오프
발급
광산
펠리
##22년
시뮬레이션
취임했다.
##려면
대학교를
##ES
공격으로
수행할
동안의
알제
슈팅
들을
소모
일컫는다.
##막을
##적과
개인적인
브라우저
##라우
루이지
몬스터
H.
신탁
공익
모인
##관이다.
플라스틱
20일,
사람들과
##스컵
하나,
밴드를
원을
집계
건담
th
해수
1998년에
형성한다.
##ice
##각의
##의,
사상은
##튜
갤럭시
돌격
시나
건설되었다.
올라간다.
##먼트
임명된
아미타
암시
배상
반격
적용되었다.
##해로
받았다고
##르지
방사성
남쪽은
##넥
##흔
배웠
김경
선물
기슭
퀘벡
##-12
##하기는
##전선
있는지
본래의
##되도록
##즈에서
##더니
##당해
의혹을
비공식
1위로
##팝
주석
김수
오타
샘플
일이었다.
##았다는
없지만,
시스템에
위치하는
누르고
독일에
조직이
어렸을
재미
헤드
26일,
##심은
대회가
4일,
치열한
추종
안보
각본
불태
고려대학교
이름에서
##씨,
##프스
##가루
##유키
기준을
역사의
클레멘
유죄
김씨
##연구소
##졌지만
분위기를
##32
##커스
평화를
밝히고
국왕의
실력
평을
보전
아홉
##부모
설치하여
12개
##덜
올리고
6일,
"W
역,
##군이다.
보도했다.
##기록을
##등과
##속한
##기기
사전에
산소
두려
영지
운행한다.
끌었다.
르네상스
##머는
열차를
투어를
본인이
사자
눌
##명이었다.
##장이었
보호하기
기여를
받고,
포인트
이관
제자
선사
##행이
##두로
##한은
드라이버
조선로동
죽였다.
##패,
적다.
덧붙
천거
라스
정립
넬
formula14
사우디아라비아
##아메리카
##화에서
##행위를
##요,
##라트
행정구역
##쩔
##깃
조립
모른
거느
##cm이다.
##행동
##가고
##거를
##채가
##후는
하에서
혼란을
런던의
지도를
복제
가열
들려
NC
코트
붐
・
##어진다.
##석에서
도착했다.
사업에
인간을
수도를
경제의
수료
진공
부호
군단
##심에서
결정한다.
대회에서는
물건을
공표
애칭
닫힌
노트
밀리
동점
옴
밭
##형인
##튬
선수들
다케다
부각
##문에서
##되었다
##밀하게
##ial
##크스
##-C
우리나라
##순은
토지를
작업이
다이어
현재에
창출
초,
은거
담당했다.
##장에게
##벌을
##디를
##TC
아시카가
싸움을
논란을
표현할
이해할
해군은
마오
##거리가
##스트리
##net
있다"고
임시정부
도왔다.
진행하고
##왕조
경계로
이내에
빈곤
종족
효과적으로
##ime
##카타
4월부터
학생들을
##통치
이전부터
언론에
재판을
북부에
알리는
3일,
맞고
무관
성종
에너지가
##반응
##근은
100여
##아스
##펙
위험을
주목할
성에서
메소
공전
##-21
인정하는
세워져
경찰이
경찰의
비용이
그곳에
음반의
수에
증권
되던
후안
장을
마루
숨어
치렀
formula12
1996년에
##선수권
##감,
스케이팅
아니며,
##여객
##아비
함수를
##횡
마운
점프
중소
부서
간신
##23년
##1은
유지하기
##양,
##금과
위에는
집안의
스티브
아름답
제2대
권유
척추
임상
뜻은
텔레
##차량
##시청
수익을
현상은
##단위
##박사
18일,
힌
27일,
##포르
광범위
동일본
##다"는
##이후
제19
킨
##'이란
##요시의
##19년
##쉽게
##사고
반도의
22일,
5일,
##웃
뻗
젊
25일,
##안전
등에게
9일,
열대폭
##올림픽
12일,
##36
마침
formula16
선수들은
천문학
##찮
대학생
덤
##평론
전역에서
##것
의원을
제11
1997년에
##우주연
11일,
##수아
##고려
##펫
##으니,
##BM
##되어있다.
##테이션
위원회는
높이가
formula13
##되는데
##정에서
##히로
##니시
자체의
서쪽은
변신
자기의
올리는
##계에서는
##나서
##극장
##공격
12.
쾰
득
900
막부의
굿
구간의
이용해서
##굿
##황제
혁명의
##들여
##나타
선생의
동쪽의
##졌으나,
##학교에
일본군의
도시에서
의무를
##가지의
##터에서
##것으로
##추는
##딱
불가능하다.
##분야
##집에
##보병
들면,
주도로
##법에서
##정책을
##45
닐
움
##노스케
마을에서
##외에
장면이
##-17
싸웠다.
128
가마
쉐
##파르
방면으로
16일,
##꿨
통치를
##참모
30일,
헝가리의
##걀
##넣
1년에
2일,
##고도
##티노
북쪽은
장비를
11년
##뛰
가난
23일,
17일,
정책은
싸우는
1898년
##기록
끄
##저지
##이치
일대의
##슬로
##협력
##진보
##비용
##현실
가고
##레일
다녔
샀
##드라마
##정신
부근에서
주제가
미사
##레스는
13일,
것이나
8일,
##*
스위
사용하기도
등장인물
네이션
##리즘
포기하고
##기능
개인이
##템
조정의
##카이도
29일,
브로드
머리에
21일,
19일,
성적으로
되자,
조사에
》
후보는
자유형
가운데,
##방위
동쪽은
##관계가
##병원
가정에서
1600
붙여진
뻔
formula17
##크에서
시도를
버전을
##섹
선수들의
고대의
빔
##속으로
##전철
관해서는
##신경
##시스템
##SC
허가를
##랬
##시리즈
##17년
##구성
불리며,
##치료
고문을
서쪽의
이전까지
##돌아
가사를
##뮬
##전국
미치지
흐름을
##깐
##뻐
대표적으로
##구역
##공동
##말의
양자로
1994년에
##났고,
##인사
##히트
##엉
커뮤니
뾰
##라이어
##교수
한계를
156
킥
##les
##수용
##글로
에스페
얕
##PC
제주도
엮
팜
##리아는
##코르
코치를
프로젝트는
일본군은
위원회의
함경남도
##껏
13년
훌
국가대표팀에
##거리를
##기까지
##제도를
##터미널
##33
곡이다.
국가와
당대의
부대의
4강
림
##현대
##시내
##법이다.
상처를
무대로
##갱
스마트
사로잡
마리오
싣
9월에는
##부에는
##rom
규정에
##대륙
헌법을
##인으로서
1990년에
##속에서
##회사인
##네시아
##고리
시에는
내부에서
##모든
인류의
왕실의
멈
혁명을
오르는
그레
##무역
##4,
##복지
예선에서
중의원
1899년
##관학교
8월에는
##윅
타원
섰
##서쪽으로
##가르
##그레
##낄
##켰
시나리오
1995년에
##우리는
##선생
역사에서
##지에는
거부하고
7월에는
대화를
싱글로
`
연합군은
파리의
수학적
보스
##위에서
하면,
여성을
도움
황제는
##이므로,
##미국
##허가
##펑
출신으로,
##교회의
##지리
##출판
##그가
##섯
따라서는
꿀
##색이다.
병원에서
##소속
##무장
##00
대대로
규정을
권위를
##동쪽으로
인터페이스
경상남도의
##형제
이번에는
가고시마
##쯔
##드레
와이번
##24년
##저기압
##항의
##꼬리
에이스
##후,
##난을
•
formula18
프로젝트의
시기에는
##해양
가나가와
##흙
되었으나,
##교에서
##가락
달라고
시장의
장소로
##주택
무대에서
Com
룰
##뮤직
##헌법
##름이
프로그래
##츰
##보내
##끈
영역에
##퐁
14년
각본을
개념이다.
##39
##ve
##US
시간의
본선의
##32년
##체제
##남부
전국의
보이며,
작전에
##밋
틸
2013년에
렉
##위원을
노르웨이의
##카라
김일성
작가의
전화를
##능력을
##치에서
아라비아
##서기
안전한
##비서
보내고
##손으로
길이의
닥
닌
##강과
##보니
은하의
"H
##뉴스
##노르
##대회에서
##정부의
수도로
내리는
선수의
소프트웨어를
##보이는
##로스는
##당시
##전투
##추어
교수를
순위를
에디션
늙
##MC
##99
##트루
3세가
왈
10월에는
##어나
후기에
체계는
협력을
붙잡
##전문학교
##로에서
##있어
회사인
효과는
연합의
##》이라는
##하우스
으
##ath
24일,
나타내고
주제를
##사이드
##의원
안드로
##기준
##독일
##관련
10개의
##전사
생명을
행성이
흠
##지역에
##러스트
쓰여진
미군의
##。
##31년
167
교회는
##부분에
##CA
##결과
##늦
마리의
##ron
전기의
##수에서
단계에서
거리에서
수사를
##었다가
##조에서
보낸다.
##오로
장소에
가상의
코스타
##운동이
##75
##MP
슛
영향력이
용어로
질량을
바이오
1993년에
영어를
구단은
안타를
부인은
대법
스코
##법률
영화에서
있다”
쓰기도
체제가
##짱
5월에는
##이사
##소년
##리얼
전자의
##）
무리를
동아
##화물
##부상
##강한
지나는
##해서는
##11년
##타고
##배상
##엇
낫
$
##함이다.
##배가
##바퀴
##깔
요코
##추진
##싯
##금지
##가게
제3차
##있으며,
##25년
##35년
##7.
일어나고
교향
오가
12월에는
##자리의
대해,
3월에는
내에서는
이승만은
157
2년에
쿤
##27년
전까지는
##교구
통해,
##-18
##것이
전당에
작전은
##지는데
##39년
6월에는
##강에
강화를
1992년에
##ost
##내려
승리에
정상에
내용이다.
##/h
단체의
대전의
트라이
##단이다.
##공연
목적이
찔
##들었다.
##리즈
##끄러
##그를
않아서
나폴리
대사헌
##자리는
##인터
##22
##토르
콰
명이다.
공간에
148
건물이다.
##천만
##및
벵
##선이다.
##지능
가수로
##음으로써
##광역시의
##청에서
##안에서
담당한다.
##자에서
##유지
한국시리즈
##내지
침공을
청동기
나이는
해안에
formula20
1991년에
##조에게
##회사의
##제곱
##보인
##보수
##나다
##줘
낚
##방법
##말은
##라크
##신도
##초,
주연을
체제의
주한
2007년에는
##세대학교
##인지를
남쪽으로는
##수리
스위스의
##시나
못하고,
##주목
체제로
스포르
2009년에는
##썼다.
##37년
##집행
##상태
의회에
##대학의
##서부터
지시를
컴퓨
##연대는
##단에는
##미리
움직임이
강의를
포르투
##나가는
##미래
최소화
나오고
##（
영업을
##제이다.
이탈리아는
사용자의
##스파
##생명
정리에
장치가
살해당
릭
##ile
##/s,
##가능
##가수
제도에
특이
##관계에
##길에
##위안
184
튼
##르바이
##팀으로
##선형
##부족
본격
뷔
모습이다.
##심리
이승만의
병력이
2014년에
##가로서
##우스와
의회에서
로스쿨
도로를
##거의
나타나고
지역에는
문서는
사형을
세우는
##줌
쥬
##m에서
##집단
자기가
예선에
앗
##제국의
##때,
국내에서
것과는
인해,
성적이
굶
##28년
두개의
엇
경제적으로
나이지리아
##으려는
자원을
사이로
##지하고
##지자,
##로스의
##인지는
##외교
##스포
원소의
구성은
2008년에는
##니스트
신학자
146
2010년에는
##카르트
대규모의
165
155
옌
formula19
##쪽에는
##코드
##나오
단어가
##늑
##34년
##제조
##하느
에서는
성적은
자세
4월에는
양식의
요구에
원정을
149
##손을
유형의
랴
탤
##까지만
##발사
태어
△
1989년에
##파크
##바가
수업을
##당이다.
##곳에서
11월에는
##시간이
##사업을
##기갑
영역에서
자전
동쪽으로는
##확실
##통과
##니즘
##그러
행위는
##정이다.
##클리드
##크리트
##출력
극장에서
각자의
1군에
갚
##적이라고
북쪽으로는
작품에서
만화가
##밴
아르헨티나의
##러시아
##리스는
물리학자
##자라
경상
맘
서쪽으로는
##호선이
##리고,
##사에게
##전략
##레드
온도는
중요시
찢
##권에서는
##분해
##건축
인증을
2006년에는
##때까지
##중,
들어가게
##애틀
밖에서
가지지
시대는
함경
##으로서는
공장에서
회사에
공군의
##라에서
##98
##투자
##슬러
시장이
##원이었
##슈퍼
제12
##작이다.
정보는
뿌리를
##닷
자세를
##서비스
##인이자
이들에게
황제를
국내에
##헝가리
##파일러
##rou
350
한성
##신학
부르게
대중의
만들어진다.
##달라는
##흡
병사를
##ier
광고를
사항을
챙
##있으며
단계에
##사로서
살아남은
장기간
사단은
##다수의
##16년
##메인
혁명이
리그로
2005년에는
콘서트를
##러브
##몸
의원의
##췄
장소를
2015년에
##br>
##쿠르트
심지어는
##방식
거리의
연주를
정책의
항성의
가문을
##프스키
##타입
아니고,
시즌에서
방어를
헛
##하므로,
##리라고
##유사
사상의
##대학교에서
##국이다.
간주된다.
##조작
##댓
서서
실질
##차이나
##바람
##테크
기대를
##지로서
##26년
원소는
11.
신화의
촛
##치아
아이들을
##개월
##레지
교사로
##츄
해에는
중추
##회사가
하나이며,
##수학
검사를
기관이
박사는
소유한
##for
##순위로
##문자
스페인은
측에서
용어가
##봄
##크래프트
##문학과
##해안
##세운
##사라
##쌀
##팟
138
하나로서
연설을
철학을
##쭉
다리가
단계를
포로가
대전차
댓
활동의
달리는
##대학교의
##of
##α
직후에
1970년대에
##검은
시위가
##붓
병원에
##벅
2개월
장치는
CP
##조리
##의도
전기를
##듐
오키
##신한
남성의
##괘
##키스탄
##BO
1일에는
##위한
##PD
머리카
이사를
깜
에너지의
##사도
##기둥
목소리가
##호텔
##당한다.
##집으로
##년에는
버전으로
중심지로
카르타고
##버스터미널
##-50
##기계
방정식을
##순환
##플루
모르고
탓
##주의적인
##’이라
에너지는
손상을
출전을
앰
##-14
남자가
장관이
##}
그만큼
##쉐
무역을
몹
##전이다.
받아들이지
현장에서
##스피
사이토
##の
식물의
자라는
일으킨다.
들어오는
##터키
신화에
총리는
쟈
##이즈
##대칭
145
##놓았다.
19세기에
##언론
##곧
정권은
##쁨
정리는
전원이
에피
공산당의
2위로
철학적
##쥬
기록이다.
##현에서
##위기
##조건
여론이
없어진
장르의
의회가
##샨
띤
##웨이트
##사진
집합의
구성을
50년
아무리
z
샐
##도어가
바이어
##짖
괄
##들이었다.
##리기도
##름은
논의가
회장은
##-19
##임금
##체계
방지하기
##밴드
##랏
쉴
줄어들었다.
##아버지
##이론
##정규
##넓은
##성인
회장이
지내는
##귀족
기원은
##훤
입자의
16년
허리
##가능한
사이에서는
##클로
##은하
##신성
것이기
정도는
협회의
##＞
##과정에서
##론에서
##회사로
##모노
j
##디오
##렝
단계로
##톡
2004년에는
##만으로는
##적이며,
##가장
##달라
1.0
3.0
##프린
##23
##배치
##34
##장로
시기가
##다수
##세르
불안정
이기고
##멀
##세계의
동안에는
급격한
단체는
##하다"
##공작
##히데
##때는
인정을
김정은
##만주의
13세기
설계를
지역,
##댄
##사단은
##유로
철학과
##뚱
일부의
##혐
##In
고유한
상대를
아들은
전역을
1980년대에
2012년에는
##예비
##명이었
##줄기
화학적
서양의
##젝
##학교의
##리비아
##법적
##정권
머리가
클리어
##그룹의
##서부에
##지어
##그림
외부의
철도는
장면은
스파
##리라는
##고에서
##복음
의해,
공장을
사후에
##동이다.
여름에는
예로는
##냅
엄청
##국제공항
##33년
##하와
##변화
##먹는
승강장을
아들의
왕조가
도로가
자리잡
경기로
떡
##마크
##대책
##크레
##쁜
싼
##der
##29년
##마스터
장소에서
주변에는
##대학을
##그랑
한국방송
기지를
씻
꽂
진출한다.
##유도
##회장
스테이션
인해서
단체가
##딧
##큘
베네
##학교에서
##협회의
집안에서
##청구
##성능
현대에
인물을
147
쪼
널
예정이었다.
대한제국의
국회에서
##사항
##명령
독일을
##쫓
##받았고,
##컴퓨터
##폴리스
아파
알바
중국에서는
길이를
경력이
##캠
유지하였다.
돌아가는
##동원
##텔레
##타워
보이기
##냉
연대는
##공주의
1848년
##누스의
##전환
1988년에
##쿠르
##양성
과학의
통일을
##떼
괌
내놓았다.
내리고
왕조는
##듀
##넛
섀
2011년에는
##번호는
도시인
##기부터
##브리아
##팀에
##7,
나무를
formula21
##스크리트
##사카
이것에
노선에
전자는
측면을
문자는
3.5
##떡
헥
##학자이다.
##한다면,
##오르크
국가대표로
만들고,
##가운
##시기
##재산
대사를
비해서
##릅
형제는
##룻
##대승
말에서
규정이
사카이
연고로
##38년
##익을
기사가
국왕이
##흉
아이치
군대와
웬
##했다"고
##왕에게
##대기
원소를
레코
캉
##마리의
지점에서
대기업
합의를
넘어서
3년에
꿰
##공립
##스팅
##설계
이스탄
거부하였다.
##대결
능력은
40년
##부사로
##결혼
연구에서
##대구
목소리
안전을
여기는
서부의
용어이다.
등에서는
##형식
##ht
##SM
병력은
##쪽은
##9.
##이하게
##에너지
##투스는
사용자는
##토미
칼리지
도쿠
×
가톨릭교회의
##대학교는
공간이다.
##900
내린다.
주변에서
##작전
인물의
고종의
##댐
##게이트
##전쟁이
##her
##사전
집단의
##흑
자리는
9시에
%
##있고,
##스칼
##to
31일,
일대에서
문학의
연대를
##경부터
##rac
##tor
12개의
##상업
차지하며
아내가
유학생
동서로
##윽
«
##말이
국내의
##펌
##여행
세례를
##프로세
##세력
##하위
##달의
보고,
##»
블루스
##버스는
##대화
떠난다.
##레비
##주민
###
OST
스위치
##문제를
##단체의
노선이다.
##광고
이해를
총리로
구역은
프레드
제14
##터널
##모르
##플레
법원은
보기도
비스타
장관은
##학에서,
아이디어를
##회원
##눔
##㎝
제15
25년
죠
1890년
##마가와
##자체
1월에는
향상을
2위에
부사
1960년대에
서울특별시의
서비스가
군이다.
##빌딩
인사를
##덮
##아시
일어
##데스는
##수준
##보지
연락을
중화민국의
세력으로
자유한국
전달하는
##궈
시가지
##뚜
＜
##대학교를
##체제를
##방송을
##테스는
##명에게
##성장
##효율
##St
##파울
##루스는
##농업
##메가
1개월
버스를
##회사는
회장으로
##렸을
##46
##31
11개
제13
##선택
일본군이
표현의
##뇽
의사가
현존
q
##조사를
청나라의
##돌려
##이동
##개정
형제가
4개월
룸
뱃
프로그램에서
1885년
##경쟁
동부의
##판에서는
2월에는
만난다.
버스가
딕
현재까지도
##공사가
##리그에
영국에서는
##왕국
총리를
행사가
교류를
구단이
##방향으로
##하더라도
##지역에서
##헤이
##예수
정리를
머물러
범위는
##장으로서
그것이다.
##-13
##쓰고
크기와
이제는
그것에
##잭
남편의
뒤에서
명예를
전형
##수소
##선교
단체를
사상이
팰
##미사
조지아의
받아서
처리를
하인
##적이라는
##정지
스페이스
위원으로
##아라
철도를
선조의
훌륭
뚜
##요일에
##전시
##업무
그때까지
##철학
식민지를
##쿤
행위가
행성은
급격
웹사이트
조사에서
##수원
한계가
마이어
이주한
##о
닷
##하지도
##제도의
##br
영역은
대중에게
##그와
질량의
주의를
홉
formula24
##지역을
##농민
##검사
연합군이
하기로
많고,
미드
있으므로,
##치고,
##담당
##기자
감독이다.
##군인
게이오
설명을
반격을
카이로
머리는
##나라에서
구분할
인터페이스를
경기장에서
##위성
##몽골
##라마
##죽을
반대를
자유로
가격을
##회사를
네트워크를
##코스는
##말라
##브란
정해져
대승을
쿡
##았으나,
모델이다.
문자로
의식이
투자를
청동
핼
##효과
말에는
175
담당한
##홈
##금속
끝난다.
서비스는
##--
##기사
여성은
€
##버스가
행위에
권유로
수도는
끝나는
요소로
##보았다.
##루스의
회사이다.
함경북도
##유적
##와서
##de
16개
데에는
현실을
체제는
며
1200
##식품
전차를
시장은
비해,
성공한다.
##어머니
##로마치
##표준
##맞
##껑
늪
##보건
##리트
국정원
이들과
FI
##ner
종교적인
##투어
왕조를
과정의
이곳의
실수로
##행렬
법적으로
노선으로
거두어
1985년에
##우스를
##외국
##복합
아시
시드
##1년에는
##요시가
반대하여
확장을
유지를
##욘
밖
##레스를
있었기에
##•
철학의
0.0
1987년에
분위기가
돌아오는
정권에
직업을
##랫
##확인
가운데에
되지만,
##피언
연관이
명단의
수비를
신학적
##아내
##강화
##64
##제이
개인용
이외
퐁
12세기
##봤
상품을
13개
##뭄
겔
쿄
발전했다.
의원으로
##신청
주전으로
썩
##환으로
##멕시코
##대성
##사실
##분류
##아트
무리가
##팍
의회를
루트
①
##테스트
회사에서
##통제
##76
##숲
##낮
##자로,
##부분이
##오르는
##책은
인식을
대량의
1990년대에
##정부는
##득점
##투수
정당한
조선을
희망을
##드래곤
##합의
##춘추
측에서는
반발을
성질이
기원을
②
##아래
127
신임을
입장에
구간에
해군이
죽이는
2016년에
##상태가
##기타
##담은
450
3위로
다리는
##유럽의
##레스의
##레스트
코드는
##무덤
##민주당의
##지하는
##했다"
##ton
모른다.
##소재
##A.
##장관
이외에는
##사유
교수의
오르게
사상에
괘
2013년에는
##차이다.
##운동은
경상북도의
##베스트
##연히
##있을
##세자
##공주
승강장의
재료를
미군은
뢰
낡
싹
formula22
##공화국의
##다니는
러시아가
##토니
##이온
##만화
범위가
세력에
전자가
뭐
##중이던
##빨리
지도자로
가공의
이명
formula23
##집에서
20세기에
##구조를
##는지에
##부사를
##부대를
##대서양
##맞은
##동성
##후기
단어의
주기로
댈
##서에는
##승부를
##둘러
경제적인
프리미
##"이란
가설을
##핸
타이어
안정을
높이기
지하에
##е
前
##피에
원소가
미군이
신분으로
##재단
디자인이
동의를
요소는
##굽
##부에서는
##해에서
##시간에
##빛을
##모양
##호르
기관을
2세를
아이의
##요시는
UEFA컵
##화폐
플레이를
##의식
개선을
썬
##버린다.
##활용
라틴어로
##44
순서로
생명의
##프레스
대전에서
##플래
경기장은
하자,
크기에
##부분은
국가정보
##값이
##빛이
온도를
제3대
4000
##아마
##텐츠
##이익
##별의
국왕으로
승강
멍
##인들에
##옷을
##등,
##파리
##샹
상황이었다.
##보냈다.
##자로부터
시스템에서
##투스의
##나무를
##박쥐는
##CP
##집권
##왕복
##숨
초에는
손해를
아들과
부인이
##3년에는
##활동에
##칼리
##직원
건물에
예선을
화재로
꾸준
뮐
##두었다.
##학에서는
노력이
전면에
단계의
주제에
경계에
##므
박사가
프로젝트에
##층에서
##인권
##회복
##상품
가사는
구원을
##표현
##국립
지적이
재료로
앞에는
프톨레마이오스
1983년에
국가에서는
##인지,
초반에는
이때의
시대로
정당의
가이드
졸업하고,
##강점기
##작품
이야기의
##경비
##사르
##녜
폭탄을
##겹
##웍
혁
##대회를
##기동
##곳의
양식으로
##и
성경의
##연구원
##기하
한다"고
능력과
이후인
미시간
##年
비로
##ala
1868년
빅토르
조언을
몸무게
0.5
##겟
##속도로
##동부에
이것으로
아이들이
##기병
직후,
125
형제의
턴
유래한다.
##ces
##이에서
##ave
만들기도
행사에
관리가
##튠
어두
##장교
후원을
해안을
##량이다.
1986년에
4,000
##제에게
##리에게
##시즌을
##계통
당나라의
##나갔
기도를
영역의
땅에서
화재가
사회적으로
##시설을
특성이
충돌을
두고,
정체를
전설이
##자이며
##비치는
##편성이
연안에
예산을
##봇
이적을
##협회는
##러스터
승강장으로
##위치
##시카
##귄
복수를
대한민국에는
거주한다.
민주당의
체계가
위상을
녹음을
대중화
현장에
외국의
##선거에서
##분할
##다양
##뜸
바라는
줬
##변수
##세이다.
1980년에
##인으로,
##6년에
공간에서
##신앙
##디지
작곡을
집단이
지구로
1위,
짙
formula25
공부하였다.
1984년에
##지역으로
##ven
##Re
식민지의
회원으로
##팎
17년
권리가
220
쏟
##신하였다.
##받았으며,
##문화의
##78
차지하게
##사람
##조치
##분명
사람들도
##태양
아래에는
작가로
다수를
파리로
##세기의
국회의원을
##성공
##작업
여자가
도시와
##둡
α
##자문
##EP
##클래
##듯이,
##ww
##비히
행성을
##원군에
##삼각
##오버
##6.
투수로서
이듬해에
##질량
초기부터
##빌리
##대비
체제에
Rec
권력의
무기로
콕
##정부가
##또는
##단지
직후인
수입을
건설이
##몄
스포
##문이다.
##트에게
##평등
올라가는
시도가
제목을
복수의
차트에
##日
##멧
져
##기고,
논문에서
##창조
달린다.
회원이
육군사
복무를
맬
formula26
1940년대
##프로그램
##기본
##틈
우크라이나의
##까지나
##고양
##받기
폐지하고
##구사
##자동
##가야
##셴
말레이
대통령에게
위치에서
크기로
##인이었다.
##시간을
##문과에
고등학교에
1866년
##세에게
기록한다.
정보통신
조정에서
주인공인
태국의
기관은
되지만
베이시
산하의
쯤
##쓰는
건강이
##솜
##벡
대항해
formula27
2003년에는
##달려
포인트를
##극히
##지배
임기를
실수를
*
##미아의
아카이
천체의
공장이
참가해
마지
전당
깁
##민주연합
##전히
##처벌
##갈색
아이들
보면서
##소리를
걸린다.
##수송
있다면,
대표팀의
197
문자가
##대한민국
##진에서
##구간
##95
##가면
세력과
궤도에
그들과
##성적인
##수에게
##즈와의
##했기에
한반도의
##49
##북한
기호는
제2회
만화를
자이
##기술을
##프레드
감독이었던
##사용
제도와
##시키는데
##가지가
##데이터
##소프트
##드로스
##엔진
##UN
살아가는
다수가
##긍
주제는
싱글을
포도주
##캄
무죄를
8강에
아티
탔
##법에서는
##ula
사망한다.
##연금
##삼국
##차트
시도는
떠나는
승부를
붙잡혀
##자리가
전라남도의
##교환
아들이자
동부에
##솟
18년
끔
##밖에도
##대회에
발전해
1972년에
들어서는
##세우
##버려
조정을
신분을
##듭
밀접
##대학에서
##전에서도
##악의
반도에
4년에
높이의
>
##올해의
##인에서
##시스코
항공기를
##의학
##훼
지지하였다.
##ren
##는지를
##자들도
구간에서
##차기
한다면
입자가
화면에
1974년에
##적이었던
##니아는
##동물의
##참여
##발생
대표팀에
전공을
##月
##둬
침입을
NH
##하기에는
##호선과
##구멍
법학과
편성이
136
꼬리는
1982년에
2번째로
##삼촌
전선에서
##원칙
전자를
집단을
고도의
육군은
바이트
13.
전라
##카드를
##역까지
##파르트
##안보
##수행
##인해
##보장
3위에
고종은
크레이
규정한
궐
혁명으로
임시로
북부와
성우는
##○
쾨
##트가르트
남성이
남자는
맴
챔
##원이었다.
1949년에
##세에서
##한다"
##교수로
##목에서
##장에는
##미사일
##보존
전선을
표면의
인식이
공용
〉
홋
##세자의
##또한
##가리
준비가
연료를
2000년에는
##전용
240
15일부터
##좋은
명나라의
##것은
영역이
남자의
전력이
강에서
선제후
{
사람이었다.
1970년에
유럽에서는
##ram
##공사의
##의회는
중심지가
이후로도
없다"고
주식을
슬라이
2002년에는
맞이하였다.
##궤도
고종이
발전한
통제를
레이스
##남은
##이시
##수호
제4대
성인이
장소가
##산이다.
1979년에
드라마이다.
##홈런을
##IST
##죄를
예로부터
##냄
##옴
여성과
#
뜬
시작하여,
##네이루
사실상의
불안정한
항공사
김일
룬
##종으로,
##분이다.
##틀랜드
##정리
##96
장관으로
장치의
##캣
위원을
formula28
##회에서는
##미드
##소유
영상이
건강한
##뮌
##’이다.
##그라운드
##인이나
충청남도의
21세기
##6,
##틀러
함수가
직원이
에이전
찾아내
쑨
##》이다.
실시한다.
##들고
##셔널
동물을
대상은
1세를
##번호를
##프랑크
최소한의
크리에이
금지하는
내에는
관해서
부대로
날개를
##大
1864년
##디아의
##호에서
##선수로
##속도
부인의
##앞
보이기도
##채로
가면서
##젯
거두고
##츨
화면을
혀
중심지이다.
##작용을
##리스의
##라스는
모양이다.
##차례의
##77
##브루
##피해
##계승
모임을
##깝
버스는
##론에서,
##자이며,
##뿐이다.
##물에서
1876년
##도덕
##요리
현재에도
에어로
파리에
조정은
##숍
##경이다.
부분이다.
##구에는
##리아가
믿는다.
사회적인
##전설
인정한
아스카
##법적인
현역에서
도구를
감정이
일체의
##☆
2017년에
##만으로도
##새로운
##테러
##개인
여기서는
##강도
제도,
당시는
진단을
​
##데스의
상하이에서
##리그로
##저항
##주도
1700
##66
자리잡았다.
1973년에
##사회주의
시작으로,
##프로스
##형사
90년대
전선에
양쪽에
킴
##장치를
곳이었다.
1860년
##대부로
##반대
##완전
##학습
중에도
되면,
교수,
괜
텍
##2년에는
##적이고,
##버스를
##교육의
##디션
양자가
작전이
임진
소프트웨어는
##방식을
##격한
##넓게
유전자를
생산하고
논의를
영어,
범죄를
맷
오케스트라
##팀에서
노동자의
##아노
##문서
##시인
준우승에
대상에
꼬리를
파트
formula29
1975년에
##것이다.
##르고,
##서쪽에
##`
카자
##의회의
소설이다.
##부산
##분리
사람들에
##메리
5년에
모리스
1세기
법원의
대의원
대전에
도입을
에이즈
아이디
조종사
의병을
멱
##지대에
오른쪽에
순위에서
##검토
오른다.
##군단
3일부터
가리지
##맵
대수의
리그는
협회는
기하여
의심을
##계획을
##니에서
##최고
##마사
##전력
14개
##역으로,
30일까지
기술이다.
##반도
16강에
당한다.
##모아
##끝
다시는
##굉
세인트루이스
##형에서
##다카
배경을
하이드
공군은
임금을
##@
선조는
##팜
엡
발표한다.
##영상을
##봉사
##가서
밴드가
##메이트
##제도가
##크리
##기소
영역으로
11개의
대상의
집안은
신학을
기다리
15개
타율을
비잔
##관으로서
##잉글랜드
##사라는
##인지에
받아들이는
1870년
##티브로
##붉은
대법원은
등에도
경고를
144
쏜
##인가를
##이어서
##외에서
##성향
##윤리
예수가
밝히는
인생을
정당은
원년에
##%에서
1888년
##거리에
지도자가
##대리
클레이
세대의
##닿
과정이다.
1865년
##라면,
##터리를
##되면,
지나가는
조선이
##주기도
##-35
##철도가
##측에서
편의를
공사는
##식이다.
##능력이
##그리고
##조선의
받아들인
##카운
##다시
주소를
부진을
히트를
##레스가
사실이다.
승강장에
내부에는
남부에서
생물의
가정을
기체의
폭력을
철수를
여자를
쑤
##부로부터
##거리에서
##디자인
##카르타
##동지
##게르
분위기
135
##들로는
##65
아이들은
##구동
이미지가
##학술
##쏘
##석이다.
##라디오
##잡지
##의한
##D.
초대칭
회담을
1세대
뿜
##기관이다.
국가대표팀에서
##대학교에
##노동조합
##아메리칸
참가한다.
서비스의
##가치
영어의
문서에
##샵
보상을
##같
오가는
교차로
퉁
##물이나
##쨌
판단을
있지는
시리즈에서는
##우에게
##하고도
##되기에
않으면서
##68
구역으로
아이들의
##종목
115
##뜬
##н
첸
2014년에는
대표적이다.
지방에서는
사령관으로
민주당은
우리에게
##파괴
##영국
##HD
저서로는
넘어가
14.
##떠
공작은
당사자
뭔
##브리드
##드에게
##전달
Your
현상에
기구를
주기도
##기관이
10일부터
##안타,
악화되어
사용해서
##싸움
##풀어
총리의
치열
##널리
기다리고
##헤드
##인트
마리아는
##비오
##대공
##엌
나가지
달아나
명성이
낯
1978년에
할아버지는
##체스터
##원소
##증권
인간에게
조선에서
##마라
분명한
올리버
문자의
대우를
##뭉
전술을
우라
컷
므
formula30
군인이다.
작품으로,
##이은
순서를
산하에
부문을
…
##들에서는
크로아티아의
조선시대에
##시코
특성에
##샬
##믈
놈
##시대에는
##시설이
##》에도
##고문
##상속
지식의
연안의
뺏
2015년에는
##세계에서
노동자들의
##파리그
오스트로
##적도
명단에도
공기를
인류가
일대는
표기는
##앨
능력에
##빼
나뉜
엎
시스템이다.
##부대가
스탈린은
스케이트
공기가
국회에
##잖
부대에
르네
1971년에
##버스의
이듬해에는
##가슴
##감사
##또
단위의
196
서명을
나와서
행동의
미카와
1969년에
##자이기도
##체계를
3번째로
##소비
미사일은
##공정
민중의
권력이
##캉
지상에
딥
퀄
1968년에
##성이나
이론에서
북쪽에서
경기장을
##코치
내지는
##헐
장소는
##썬
방면의
직무를
손자인
띈
1963년에
##사회의
선거에서는
##신하고
##시아는
사건에서
카메라를
나가시마
협상이
4.0
제30
소프트웨어의
1981년에
18세기에
##과에서
세계대전이
##신에게
##열대
출전하는
단위는
머리와
잡지에
결정한
체계의
멤
1935년에
##마에서
##사령관
##-30
##민족의
##제어
내에서도
##심사
해군에
않기로
오스카
##옵
2001년에는
6,000
마드리드의
##호선은
##코치로
##가나
##합리
##삼아
들어가서
없다며
서부에
대책을
도구로
확대를
##р
USS
텅
##에이고
##원에게
##훈련을
제13대
##의사
위해서,
가수,
엑스포
지식이
외부에
##포켓몬스터
1950년에
##ode
사용자에게
##인구
##가라
5개월
##즙
##공학과
병원으로
##시모
##연극
##사우
이주민
태조의
활성
팡
사용자들이
##누스가
지구로부터
아이디어
거부하는
6000
##토지
8000
##세종
##아파
독일로
지나가
그곳의
##ا
##다수가
##협회가
##시간은
##모양의
곳이기도
##여름
##모인
신체의
연구로
독특
##일치로
##판에는
##섬유
##영웅
##요한
##코어
단계는
##귤
##부사,
##대중
##분자
종이다.
2세에게
성경을
##슝
미야기
인물이었다.
##기기도
##경에는
##차이즈
##야에서
##제2
##1~
##잎은
##지식
##사적
리그가
설정을
##밸
##욤
켜
살해당했다.
##gen
##우리가
##때부터
##그리스
사이트를
김일성은
##88
노력으로
양국의
프레스
통신을
##드라는
##도에는
##레스와
지금까지의
기관이다.
위원회가
##바위
##85
김일성의
##방어
원자가
지정한
관리,
##회장을
##ger
명칭이다.
80년대
##보게
11세기
##스미
강점기에
지명으로
사이는
확인한
알리고
작전의
##핏
1960년에
1976년에
##ech
##경에서
##미에서
작품으로는
##겨울
속에서도
##오세
지시에
신경을
##돋
신분이
틴
##어로는
것이지만,
물리적인
내에서의
##ines
국가대표팀은
##조약을
상황이다.
##네스는
##청소년
##유한
한국어로
지대한
여왕의
창원시
짚
국가이다.
##트라는
##트리에
##부에게
##득점을
##차에서
##EST
이로부터
##변경
디자인의
쏠
##민주당은
##프라이즈
##단체가
그리스는
##실업
##장비
양국은
15만
##닫
##곶
NAT
군주가
상대의
줌
벅
##보인다.
##받기도
유지하면서
##상태에
5일부터
체제에서
##쿰
스트라
출력을
도로는
왕자의
1880년
현상이다.
##제도는
원자의
임기는
참여한다.
##운송
##돈을
##기반
뜯
##으면,
##ove
##치기도
##미로운
##내에는
##올림
대비해
##깅
보도가
한때는
제24
##ー
랄
1946년에
##필요한
##연대를
##iel
##파티
집단으로
##중계
##게이
##대대
식물을
전에서
##슛
##작전을
##’이란
##사단의
##시즌에
얻어진
2세대
129
##칩
##캡
전역의
##가면서
##소총
##서구
도로의
15.
Her
##국가의
##발표
##오늘
##교류
##발매
쐐
엥
콧
1962년에
올림픽에서는
1964년에
##공격을
아시리아
##날개
지니는
21.
표면을
유적이
수상을
##딴
##뇰
캅
썰
조선시대에는
##지었다.
##부분을
##1호로
##탄소
##1번
##공급
##유대
##섬의
분자의
이들에
규정은
마르크
##의회를
##개혁을
##서부의
##행위에
##였기에
##운드를
조정에서는
##재료
변호사로
##1호
카이사르
시위에
##갓
지대에
싫
##화된다.
제기하였다.
1977년에
##스로부터
독립운동을
##지방의
국회의원이
##하니,
##평균
습격을
##이에게
##주인공
##편집
##방지
##人
자식을
정조의
신학교
##라스의
##자료를
의미하며,
##대에게
##통상
2일부터
##주한
자원이
##쩍
시키는
기계를
회장,
126
연구원
나서는
신호가
의사의
시조로
줄기는
중세의
##곡이다.
##ater
준결승전에서
##자금을
작가이다.
공동체의
##책의
##무한
후반에는
##그린
##폭격
지내고,
##야스
끌어들
행위로
##효과를
##체로서
##쪽에서
##도움을
외부에서
##위반
117
왼쪽에
발전의
And
바티
##디스크
##형태
##펙트
제26
이바라
1999년에는
##자리에서
##토스는
##부정
직전까지
##물고
6일부터
##미치
##리드
아내는
사과를
평가는
의도를
혁명에
아이즈
케이스
군주의
154
땀
formula39
##공사를
##3개의
##씬
다이라
행정구역이다.
##요소
##로봇
몰아내고
신화에서
1세에게
측면에
문서의
작가는
자리가
여자의
교사가
formula31
1930년대에
##월간
##도쿄
##결의
상대성
5천만
주기를
윌리
##land
콘스탄티노
##해결
자리잡은
메모리를
##오프
2500
##시도
##스쿨
4.5
##뉘
##코프는
##보에서
##주고,
##노스는
항공기의
##망원
##아우
문학을
수학과
동일시
카드의
수백만
엣
##보면,
경기장으로
##노예
##갈아
말해,
##之
설명이
존경을
지명이
있기에
3세기
아내의
요리를
산업을
연대가
립
formula34
참전했다.
##제공
와이드
137
한번에
건강을
메모
숀
##들이나
##메이션
편성으로
천체가
자라고
화면의
2개를
○
##회담을
20일부터
##소련
##가을
부인과
##찔
1965년에
활동한다.
##웨이는
기구의
##맘
박사의
양식이
사자를
유학자
째
formula35
##다가스카르
##널리스트
총선에서는
##안타를
1878년
##ola
곳에서는
들어가지
불구속
남자와
③
7일부터
##FI
출신이며
논문은
인생의
제도로
국왕은
럼
대부분이다.
##시간의
##문화를
요코스카
당초에는
이성질
남성과
경계가
##뮈
가수가
##지지만,
##의회에서
##작업을
##공무원
원정에서
##제주
1966년에
##편에서
##부사에
단백질을
##지금
##글을
##교섭
##다스
##매일
##가격
절대로
끝내고
챈
1948년에
##더니즘
##구역에
##군과의
##등에서
##손에
부분에는
##보스
보도를
공공연
제5대
164
법원에
곶
노동자들이
##백제
유일의
한자를
주고,
##췌
장군을
formula38
##어에서는
프로젝트가
##열차가
##교회는
제15대
##수정
만드는데
##퀸
formula33
formula32
##문에는
##있다는
##세계에
##충분
##Al
이야기에
##소방
기호를
기업을
우주를
거리로
기자로
내부는
해안의
목숨
1958년에
상호작용을
##사고로
##운드의
9일부터
##독재
7000
##털이
16.
협약을
질병을
말라고
##칫
연대기
##댕
##류에서
##관계는
##장이나
##토리코
##여진
##지향
##곳을
##미카
##날,
##지명
요리는
##뫼
formula36
##집이다.
##대학에
##프에게
##지하여
##인물
##시계
##성적
해외에서
##착륙
##섬은
##롄
운전을
회사로
]
##올렸다.
##분에서
##끼리의
대선에서
최고위원
인물로,
방면에서
##이주
로드리
파일의
##벗
급제자
님
윔
##올랐다.
1967년에
##동쪽에
##강에서
만들어서
##FA
사이트에
##정기
##커버
선수들과
##시드
행정부
대수는
나치의
조선은
한자로
2세기
하였던
식물이
##학자이자
##대부에
김일성이
회전하는
##눈에
##나들
레코드를
##3번
범위의
많았던
브루스
부품을
태종의
##가에게
##회사에
##부대의
##오염
단백질의
늘어나는
##어들
4일부터
##작곡
진화의
궤도는
라인을
발전시켰다.
##민당은
##승부로
##께서는
##정도의
이전에도
##교사
등에서도
##장수
그리스와
연산을
찾아서
12세
입장이
##공원으로
##서에서는
국내에서는
##지역은
천연기념물
##민당의
시인이다.
##노리
##파라
밤에는
8개월
전후에
사장이
정부에서는
##그룹은
##OCA
##두산
##내각
##관한
선물로
알리기
과학과
백성을
가치는
사단의
끊임
멧
볶
1947년에
##시키기도
정해졌다.
일원으로서
자연주의
##고시
아들에게
##꽃이
향한다.
서구의
없이는
사무를
β
##세웠다.
##-200
임시정부의
문제이다.
네트워크의
이탈리아가
##파에서
##물로는
##캐나다
발전시켜
이곳으로
##마트
##제3
성적인
많아서
##一
##ā
코스트
룽
1945년에
지금까지도
##부사가
##Sp
##대항
##소닉
대사가
##л
붉
1956년에
##코스트
입장에서는
##베를린
##니스는
지향하는
##인식
##연장
##진영
사령관이
순위는
시내의
나서서
큼
##사이트
##들에는
##단계로
##전하는
##설에는
##연대가
##해군의
##비에게
##밖의
##뉴욕
다음에는
스탈린의
##인천
13개의
여성에게
##순서
육군에
280
끝에서
지명은
벙
##판이다.
##과학의
결심한다.
카이사르는
관계에서
##노래
저서로
특성은
##캇
제25
제23
촘
##장이었다.
이전까지는
##령에서
##시모토
##nes
##해상
##사사
일제가
되기를
힘들어
제자인
진격을
작사,
##삐
푼
1998년에는
##세계를
##전쟁을
##로스와
계산하는
##현재
##근무
계산을
신라는
스테이
카드는
크고,
철도와
마리가
꼼
##티스는
##장기
##대형
##남쪽
브라우
문학적
설정이
영조의
모스크
삐
1961년에
충청북도의
##지정
##조지
##이야
일부로서
측면이
반대한
남부와
상대가
탬
최종적으로는
##ther
##훼손
##계산
일본군을
소규모의
추기경은
강연을
충실한
회장의
기자가
플라이
##ο
승리는
참전한
##ل
훅
1950년대에
약화되었다.
홈페이지를
##버스와
##rap
##의미
금지하고
##공군
다카라
구역을
집단은
’
형성된다.
사용자들은
사이트에서
아버지에게
주장이다.
##전쟁의
16일부터
##보스토
##만주
##회전
소장으로
1400
승강장과
플라스
읊
##있다고
##기관을
##부대는
##나다.
##나이트
##42
##별은
내놓은
모드를
공사에
##달러를
##하다면
##중에는
##ν
지나고
주기는
갈색을
항구를
##음악의
##문제에
##비에서
##-23
시작해서
1300
##6월
발전시키
##레닌
교류가
정신이
표면은
군에서
1954년에
##목이다.
##인이라는
##버리고
##세력의
발매한다.
1875년
그리스도를
출연한다.
##황후의
도달하는
##미시
##제일
영향력은
##물론
##무용
일정을
##렙
역에는
##티에서
지지하고
##공장
##보상
이곳에는
##쵸
동물이
노예로
##주에게
##포인트
14일부터
##소형
정면으로
##민속
한국에는
##끝에
남쪽에서
기사에
반지름
형성에
구성이
제27
데이트
##피아의
##Sh
##있
재정비
범위에
자리로
장식이
포위를
##사적으로
15일에는
##오사카
##받고,
##이들은
##할머니
##1만
한반도에
##높은
##사마
주인이
노리고
사격을
쯔
팻
짠
##세기부터
악화되었다.
##정보를
##타이어
##부장을
##운용
##블랙
##자격
##촬영
유전자의
##분쟁
항공사로
13세
대사로
가사가
부산광역시의
##의하여
시즌에서는
공공기관
##앞에
##쓰기
##HT
##특급
식민지가
1995
세르게이
노력은
주류를
성종의
부동
##'에서는
##국에서는
##리에는
경우에만
##나온
##메탈
아이오와
식량을
##촐
운항을
돗
##상대
이승만이
과학적인
##군수
크리스탈
토지의
철학,
산소를
닥터는
군수로
랠
formula37
##》에서도
##공간을
##호선,
11일부터
연구에서는
기다리는
도시로,
##8.
중부에
조사가
벡
빽
미국과의
사용해야
공산당에
##퓨
흐름이
태종은
##山
##い
##‧
풋
##부분의
##ole
##러스는
##전공
남쪽에는
##성경
##협약
##수상
총선거
폐지를
가스가
1859년
아이들에게
1877년
##가로,
대학원에서
##잡고
##사냥
8일부터
늘어나고
##De
##진군
입자를
쓰고,
조항을
축구의
1930년에
##무기를
##이들이
##sec
돌아와서
##비밀
##황금
##계층
정신적인
정교회의
##노부
중앙에는
대수를
아이는
650
관리의
노선과
쥘
샴
##인터넷
##적이라
##말에는
##ele
##세력을
##트레이
##미분
##진화
표기하는
##입을
##2번
와서는
여자는
배치를
나이를
기지로
김씨의
탭
1997년에는
##메달리스트
1952년에
##the
##사이클
##보아
##종류
있는지를
##Be
##정복
비디오를
곳에는
문제도
2번의
##쿠스의
##쿠스는
##-29
##제1
##55
레코드와
##일반
뜻으로,
전후의
230
수정을
##멋
허락을
260
##늠
정상을
도중,
임대를
벚
1940년에
##페이지
##워드는
가운데에는
##3만
##창작
##수입
##병합
회장에
군단의
세종의
민주주의를
##지도록
##어드는
##다수는
##무장관
##사회적
##기로서
1776년
##매니아
##라에게
##전투수
##논리
##인수
##합성
##있다
서쪽에는
##－
320
이기지
지름은
위성의
롯
##사이의
것들이다.
일본과의
##안정
목소리는
##5.
##천문
##4월
보이지만
##감각
현상의
목적의
4강에
이러
툰
##공산주의
오른쪽으로
##전에도
##테스탄
##밀리아
이에야스의
##학위
##복무
##내용
상황이었
##노트
수치를
뿌리는
한글로
다리의
아리아
나고
##론적으로
기능이다.
##마루를
##국도
넘어가는
17.
예수를
파일은
실력이
클레오
##조사에서
##2개의
##적절한
##노동자
25일부터
##이인
찾는다.
거기에서
##포도
위원회에
순위가
상대는
유고
량
##."라고
##화한다.
##리우스는
28일에는
##토스의
##카드의
##Th
차이에
전선의
제1호
최적의
스트로
##탭
마사카
1957년에
##법적으로
1955년에
분야에서는
독일에서는
##그러나
##레스테
##연대의
##말,
##중추
19년
Ser
직전인
뜰
옅
##명으로,
##종류의
27일에는
우리나라의
지도자들은
##1개의
23일부터
##공사는
왼쪽으로
불리는데
##마침
화학자
버전인
부대와
왕비가
##하다"고
##바키아의
1938년에
연기하였다.
##모니아
##올려
##[[
떠나고
##확
입장은
고등학교에서
버전이다.
입대하여
##5,
##불과
##맞게
##3개
사운드를
이때,
개정을
11,
재개발
##샷
시작은
동시대
정말로
선조가
예로,
연간에
디지
오케
펩
핏
##시에게
##명이나
##론》에
##보조
차지하여
반도를
여론을
유적은
높이고
##일으켰다.
1995년에는
조선총독부의
##물리학
##단체를
##버그는
##함에서
##오키아
태어나,
##개국
위하여,
##요르
##예산
14개의
2세에
##꼭
날개가
에피소드에서
##iet
##무대신
동아프리카
##살인
##보유
##설립
##그만
세우고,
##여운
해안에서
##보컬
지나서
종족은
승격을
원정에
사기를
뮈
10일에는
##보장을
##브래
##NC
##모음
##모임
##관념
연합군에
마리아가
아들로,
교역을
195
데에서
270
화성의
순간에
조정이
그곳을
##～
개통과
고시라
셜
21일부터
##프레임
##한다:
##아라는
##자살
##취재
##난이
사람이나
##거운
속도와
대학살
12,
##챈
저서를
예선은
아리스토텔레스의
##관에게
##아들로
인근에서
##영어
제도에서
신한국
물의를
사장을
뒤로는
##썼
7년에
formula40
##지대를
##타이트
##ude
우주에서
동쪽에서
토론을
속도의
전기에
달리고
인도와
현장을
생산의
선물을
사무실
##る
도전을
종합격
㈜
##본이다.
26일에는
##40년
##레이는
##vel
##합병
##1개
현상으로
##호쿠
보이스
말해서
장관,
이때는
경계는
정조는
17세기에
동물이다.
##브리어
##머리를
트레이드로
##분기
이벤트를
움직임은
동쪽에는
##오토
버스로
재단의
브라이
스피어
감각을
출신이
투구를
##즉
6년에
훙
##해지고,
##ld
포함해서
넘는다.
##기생
##승인
발음이
모아서
철학은
사단이
순서는
##숫
옆에서
3번의
가리는
남자를
##빽
뛸
##일이다.
##먹는다.
총선거에서
##킨다.
19일부터
##장갑
##혁신
##올린
##미네
##볕
달라는
18개
750
##뀔
군인,
급제한
케이트
##정부를
##ler
##네이션
28일부터
##모리는
##브랜드
##좌파
##일치
##논의
##오렌
공기의
시내에
가정의
118
일부인
순위에
##물로서
25일에는
##모리의
17일부터
최종전에서
##기슭
상하이로
이야기로
없다면
크라우
양식은
제정한
자원의
1959년에
##방정식
##문제가
##MCA
##원하는
##과정에
##가운데
##신이자
##좌표
##지키
무기는
방문을
담배를
회사와
뉴스를
##탬
알아내
순서에
폭격을
자식이
##т
폈
##한다"고
##관학교를
##연합의
##함수의
##ray
##ser
##코스의
##테스의
##식물의
##대표로
##지연의
전라북도의
마드리드는
북쪽에는
손가락을
후손으로
그라운드
있기는
문학과
210
119
벳
1920년에
13일부터
##정책에
작품에서는
##완전한
##활동이
##히로가
18일부터
##동부의
##베리는
##로스가
##철수
이미지는
비디오는
##엘리
설명은
신문을
기간의
음식은
은하는
혼인을
인조반
1914년에
1937년에
2018년에
루마니아의
오프라인
제14대
##전화
군인들이
##조항
단위를
단어로
##$
3세를
야마다
로스앤젤레스에서
아르헨티나는
##론적인
발견한다.
##cer
30일에는
세상에서
##기부
기지에서
##My
##우선
##무대
##테오
인간에
의원에
외에,
버전과
왕비의
##-100
명이었다.
##리며,
##iam
##지에게
##금강
만나고
구단을
오르고
철학에
조치가
기름을
죽자,
##캅
뺀
킵
##문학의
##사상을
##지하게
##즈에게
공동체를
##보여
##발트
현지에서
기구는
##폼
공사로
##인으로는
계획이었다.
##본부는
변호사가
##주교
능력으로
##고교
수소를
등에는
위기가
그해에
이의를
116
혁명은
보도에
330
숙종의
군사가
마법을
##하면서부터
##2000
18일에는
12일부터
##기구의
이집트에서
##닥터
국방부는
이시카와
##子
권력은
원형을
장례를
병사가
인도를
##天
##법원에서
20일에는
##회장,
16개의
##유기
휴대전화
요시아키
개입을
공정한
진술을
##삿
실제의
그것과
18.
남부는
씬
##인이라고
##바이러스
##퍼드는
##활약을
##리스가
##물려
이유로,
##죽음
##무관
두번째로
60년
반대의
기원이
##ι
내리게
승리의
5.5
막부는
##：
1953년에
##장에서는
##지지만
##You
##사라고
##신하는
##없다.
이후부터는
지역에서도
##전선의
리그에서는
##본다.
##테르는
##남북
북부에서
##유리
##리버
##활약
15개의
##Ch
죽고,
주석을
##좀
##ö
편성은
본선과
##퀀
##경기장에서
##신하여
##ten
##도시로
1850년
1858년
##블록
##블루
##헤르
의도가
증가로
지름이
##ン
행위의
장식을
##사에서는
##당하고,
16세기에
30일부터
##과정은
##듯한
##의해
표기를
국정을
124
21년
힉
##지에서는
전투에서는
##변에서
수학적으로
##인가에
##호에게
##양식을
##비에르
##변환
맞이하게
##프랑
않고도
노무라
##쓴
맞추기
협회가
대기의
기체를
지대를
깼
1933년에
지도자이다.
##토리오
##편성은
##무라는
##분배
페이지를
당시로서
연합군을
##콜로
전체에서
문서가
입자는
잡지의
기후에
에스테
재건축
넉
돛
횃
##물질을
##기간을
일본어로
##조절
원소로
##넉
양성을
법적인
##잣
사후,
2위,
증언을
만주로
##중학교를
##병원에서
##시장에서
##10월
등이었다.
에피소드를
##상이나
사용하고,
##벡터
##깊은
2019
스토리를
유전자가
##기서
때까지는
##대해
##구단
유언을
22.
명단을
이사,
뛴
롭
##대한민국의
2016년에는
##차기에서
##다면서
##문제로
##채로운
##개인의
##방법을
##가이며
##대수
선고를
북부를
##á
펭
##파이다.
##전에서의
22일에는
22일부터
##자와의
국왕이다.
##살아
이야기도
##기압
일본군에
신인상을
수학을
변수를
우리를
##뎌
높이를
7개월
리그와
요금을
이기는
가입을
친구를
출입문
뫼
힙
1934년에
1912년에
##명이며,
##세력이
##지대로
##하다”
##함에도
##부진
행사에서
##루이
무력으로
##돌고
##삼성
##추가
##가정
##노선
##{
말로,
보수를
야구의
남부를
친구의
##ä
##이탈리아
##제도에
##대사가
공산당은
식민지로
##수업
왕이다.
##학사
수사에
우주가
시기와
##벼
속에는
16일에는
##기온은
##이상의
##인간의
##버그의
카이사르의
##우스,
##시장을
##니아주
주의해야
면에서는
1999
##붙은
장면에서
##무사
##행사
추기경이
맞이하여
##한정
##튿
것에는
코드가
계층의
몰아내
##퀼
찐
##-300
보이지만,
개최된다.
##인들도
##무원이
##검찰
줄어들고
##광복
##세균
##소화
##제시
##후쿠
##여왕
인수한
궤도가
자세로
나가게
인기는
무역의
23년
인정해
##훙
##보통학교를
##기하고
##자들로
##보이며
에피소드가
발전시킨
##Un
##현상
##실천
대규모로
받으며,
##에어
선수로는
작전으로
##꽃은
챔피언스
함수로
행정을
군인이
소장이
신학의
군단은
여왕이
군주로
전한의
##멩
연기에
1910년에
##중에서는
##150
##나가와
##밀리안
##사자
곳으로,
가수로서
##필요
##레벨
규제를
##ü
가설이
##닭
밧
꿇
콥
황제이다.
##250
##선거를
##편에는
##키아의
##행위가
범위에서
온도에서
반도에서
##빔
상대전
랍
##소속으로
뮤직비디오는
23일에는
##트리는
##분포
##스틸
##손자
권리와
심사를
그것도
평화의
연재를
브리지
USA
체계에
의원,
가벼
씩
##점이었다.
##할아버지
확정지었다.
##관이나
##버스,
##기간은
보이는데,
1795년
##필드는
##어떤
##목록
##교황
속도에
수사가
구역에
무대가
북부는
제29
법원이
호수의
엷
##말이다.
15,000
##기에서는
##전쟁에
17일에는
선수들에게
고등학교의
##2개
공산당이
9일에는
##He
##명성
##사토
말기에는
장군으로
제약을
정밀한
고도로
17개
평소에
맞추는
장비가
제28
##不
무기와
재정을
연기가
편성을
26일부터
##조직을
##부대로
아이스크림
7,000
##-22
##마음
##지연
##먹을
과학,
이것도
다리에
1936년에
기준으로,
##버스로
28일까지
##상태를
##관에는
##진에게
##통한
##2만
공부하고
그런데,
##다란
성이다.
1996
일이었
검사가
이민족
영상은
측정한
공항의
##世
갯
##는지,
##일에서
##결과를
##현상을
14일에는
##ade
목적이다.
시즌이다.
드러나는
2군에서
##영업
12명의
의원과
하지는
계속해
스승인
만나서
검사는
(
##분데스리가
##원으로서
##플레이를
작곡가이다.
##요일,
##사이에
##대기에
위원회를
##중간
##발달
선수에게
수치는
관리에
##뜰
감사를
항의를
계곡을
협회에
필라
덥
##프로이센
##인이라
##내기도
프랑스와의
##통계
##이행
누구에게
보여주지
##유식
13,
지시로
끝에는
기지가
##뮴
짱
뮤직비디오를
##왕이다.
##우루스
이미지로
##서버
##만약
5일에는
##포항
##레알
##발레
논리를
성질은
오스트
성장과
##똥
마법의
##μ
대장군
렙
둠
켐
닝
1996년에는
##7년에는
##사로부터
나라이다.
##-60
##어가는
##자리와
##책임을
##도르의
##세르크
##방해
지도자인
##애국
##기상
못한다는
##생태
##가이
##강원
머물고
근대화
성인의
##쟈
550
사형에
병력과
##밑
쩐
1928년에
##사람으로
##부분에는
##적이나
##함수는
##었기에
##혁명의
##마리를
##받았고
##잠수
사람이었
##화합
##김씨
##생성
##벨라
##SK
##바둑
관리는
##첫
부인을
##썹
임기가
현지의
공군이
토지와
팟
##함이었다.
##정책의
##업무를
15일까지
24일부터
70년대
##않은
한국어의
##mu
##중일
계획이었
제국에서
##판결
기체가
전부를
구역의
카드가
요시카
주도는
1923년에
1919년에
오스트리아는
##자로는
1849년
##지로,
21일에는
##카페
##빛의
##운전
남아시아
##팩트
이승만을
들어와서
가까이에
##리다
##후한
##수술
##해리
진화를
합병을
찾아오
선거의
12만
와이어
행사는
재학생
의식의
1929년에
##over
##위성을
##월드컵
##명확
서쪽에서
##크루
##곳이
말레이어
에이지
3세대
위성을
다이나
위성은
세로로
배치는
건강에
지상의
Ⅱ
##선거에
3일에는
##음반
10년에
##2차
군단을
##묻
목격한
브리스
선수에
공주의
2개가
위성이
청주시
밋
##ames
##라리스
##정부에
##이익을
##소리가
##라이즈
##탄소년
##분화
##건물
##창단
##포병
반대에
수학의
짓고,
서로마
기자는
사제가
슌
##기술의
차지하며,
##오스의
##입자
주위에는
30분에
자기를
약속한
공동의
화물을
마라도
2천만
내부를
천체는
옆에는
추정한다.
##인과의
##협상
##누가
##푸른
##리더
병력으로
##톨릭
##멤버
교사를
생명이
연기로
##똑
정원은
쑹
웸
##고등학교에
##플레이어
##프랑크의
1846년
##기능을
##감리
대장으로
스페인이
머리에는
경기장의
해외에
제작은
청구할
뺨
##대장으로
##경제적
독립운동에
##기간에
인지도를
##관측
한나라의
##재건
##정비
상원의원
##고백
##원정
대전을
개체가
사적인
태조가
북부,
전주,
덱
1921년에
1931년에
##유럽에서
##정권을
##제로서
##oth
27일부터
##-64
##기에게
##높이
변호사를
프로그레
본질을
싯
킷
헝
##자들로부터
##화에서는
##1000
학문이다.
19일에는
##라면서
##사단이
##호흡
##시라
공부하는
가지고,
##심판
미사일의
##이노
온도에
식물은
##に
19.
관리로
와이오
칠레의
디스코
뤄
1939년에
##했다며
##기관은
##리그는
##-80
##무효
##멜로
##9월
##도전
서비스에
##후인
##아즈
수학,
근무한
진영을
##했다가,
29일에는
##스페인
##리그를
##길이가
출신이며,
##자나무
##연산
물러나게
##상황
반지름은
7일에는
이라크의
해체를
##갤
변수의
문학,
제38
Med
웜
프랑스에서는
##협회에서
##면적은
##의회가
행성이다.
##신학교
##화산
##상승
당사자의
##문헌
##통화
다이스케
##런던
포도주를
##체험
인권을
집권한
여성에
24년
거리와
투수를
##춧
##十
줘
##대통령
24일에는
##달러의
##성군에
##행위로
##부인의
##형성
##석방
사회복지
강원도의
##척추
중앙에서
##란히
주도의
문자와
거두는
나가고
정조가
잼
##면에서는
##반응을
13일에는
##ues
실패한다.
##연대와
12일에는
이전했다.
##-40
##브레이
##다케
##오른
하거나,
##대동
##보전
##文
고도가
예산이
재산의
##"에서는
29일까지
대상이다.
##플라스
##이드는
프로듀서로
그레고리
##중독
8강에서
4번째로
##싱턴
진영의
Che
25만
표면이
노리는
클로드
장관의
소위로
병원을
##с
꼬리가
##리투아니
수학자이다.
##경제의
##120
##시대를
##방에게
##위대한
##공원의
##사단을
##우에서
##크스는
##장학
시장으로
##3위
##잡아
##5월
##폭발
##명예
##방면
Stor
요소의
성과는
범주를
천체를
유전체
그곳은
##cent
##rag
사이에서도
##110
##계절
동시대의
빠진다.
망명을
지대로
##놉
##하였다가,
소프트웨어가
##공연을
##행위의
29일부터
이집트,
##간접
##남아
##건강
것이지만
##동기
##일도
4일에는
아버지로
지대에서
##아티
역에서는
총선을
망명한
공식을
des
##な
##—
우주에
소리는
막아내
제21
뵈
공식적으로는
##넣었다.
지역이었다.
##사건을
불가능하게
##왕조의
##인용
슬라이더
전투기를
스트라스
Best
##WE
국경에
일행을
행복을
코치가
밴드로
##세계적으로
##애니메이션
1932년에
##함으로서
##원자력
##함수를
11일에는
##구조의
##동생인
20일까지
##미에게
##비례
##동시
##이전
##유치
##해운
들어가면
검사로
외부로
버스의
구성에
보고가
##넴
중종의
편성의
하느
##대사로
##자리,
##기업의
##가루를
##검사를
이사회의
하나이며
시내에서
관리와
직원을
감시를
음식이
막부에
성경에
저지대
사로
얄
긁
월드컵에서는
언급한다.
##명령을
##com
모스크바로
지명이다.
##니에게
##루스가
##트리아
##변호사
##이용
##수석
사이트의
기원하는
##이념
##거부
##예선
1천만
시위는
이내의
무관심
브리즈
방면에
아이오
##클레오타이
엔터테인먼트는
##환이다.
##den
##선이나
##보내는
##아미타
##사람이
포켓몬스터
##음악을
##부장,
##더스의
##회계
##요금
지역까지
도시로서
다양성을
목소리로
##뜻
공장의
국왕을
무리의
평양의
##行
##톈
연료로
무장을
사단을
1951년에
##차트에서
##투스가
##테르의
##대부터
들어가면서
##지대의
1854년
##츠키는
##세자가
미니시리즈
##않아
6일에는
##코믹
##라톱
넣어서
제조사
조선과
악화로
권력에
종목을
쿠바의
동해안
무기가
소장의
”
##고등학교의
##인한다.
##클레스는
##했다면
##방식은
##지면,
##레스,
1857년
##거리로
##그레이
##타르의
##마트라
##개선
개인정보
##연예
제일의
집안이
인종의
범주의
##뎀
시기로
일제는
##뱃
김씨는
부상이
−
엔터테인먼트의
##스케이팅
유나이티드의
사상이다.
##물질의
##계열의
##다리를
##다고도
##도구
##중도
##주석
##상호
##섞
재건을
이로서
항성을
##퓌
1994년에는
구성되어있다.
##9년에는
##극장에서
##시장의
##외에도
##일에는
##베이스
##이스트
##편찬
표면에서
##않고
##발견
팀이다.
##공룡
성장이
##눗
뿌리가
공주를
이주를
구단에
##공간의
##점이나
##정도로
##중립
2일에는
대구에서
##공산
##내부
합의가
자동화
장비는
중부의
##у
작곡은
선정을
풍부
1993년에는
##면이다.
##ator
##성이라는
1855년
##나가고
##라인은
위원회에서
##신에서
##교회를
국회의원은
##타이는
##역시
##광주
값이다.
##선진
돌아가게
항공기가
##죽은
성장에
항성이
전통과
출장을
1개를
파리를
##｣
오페
씹
##서비스를
##과대학교
##플라이
##시장에
##적에서
알바니아의
##히로는
감독으로서
끌어들여
8일에는
사무실을
##유격
##학살
##인종
##정류
사장은
표기가
구름이
칭찬을
##國
예수는
매카
이슬
—
꽉
formula45
##족이다.
##한국의
##리어를
##지기를
물리적으로
과학적으로
1840년
##네스의
말하고,
1998
##관료
##사면
##번역
##달린
시대에서
##찬성
##54
보이나
소스를
정의한
##―
##ρ
피난민
이사장
112
주문을
경력은
정원을
태종이
매장을
##싹
##회사에서
##간이다.
##가톨릭
##들과도
간주한다.
25일까지
##공원은
##원자
##0.
##특수
상하이에
##예로
손자이자
단백질이
##결성
전두환은
구성원이
##1회
사로잡혀
##점차
총선에
신호의
가정에
강도를
기대에
서양식
2017년에는
##사업에
##병원에
26일까지
구간에서는
레코드에서
##사법
##운행
##규범
헝가리는
##정차
베이스타
이사로
삼고,
해군을
단계가
가수의
취약한
##사회를
##eth
##과정의
지정한다.
##rat
자본주의의
##확정
##58
안에서는
##일한
성인으로
##원시
##부하
##신고
2차례
순서가
제40
제자가
미시마
##젓
PSP
마사무
±
##ONCACA
##플레이오프
1925년에
문화적으로
음식이다.
##베르는
##시스는
##리오는
##군수로
##중성
연기하는
##주파
##북부
남부,
기사는
집안에
보일러
인수를
장치로
장군과
모드로
연대의
부상당
렘
##단으로서
##4년에는
##크스의
##받으며
도착한다.
##일본의
그리스도가
##del
현재에는
미사일이
지난다.
작전에서
##공포
##녹색
의식에
기구가
제작사
유로를
##풋
##지하였다.
##군이라고
1908년에
##구에서는
##uro
##버트는
바이러스는
군사적으로
##마리가
에피소드는
스위스,
에너지로
이사장을
##그에
논문으로
##인류
사람들로
특이하게
하드리아
##쇼핑
분자가
조사는
데에도
5.0
##ε
장비의
시모노
작사가
##사우스웨일
1943년에
##프스키는
##법이나
27일까지
##러리를
기준으로는
##-25
##솔로
##An
3일까지
##산소
Res
22년
철도로
신호는
출전에
##부장으로
##천이다.
1941년에
##정치를
##로그를
##복무를
예정이었던
예선전에서
베네치아의
더불어,
##하인
작가로서
##불가
##프란
##보급
##다음
##정벌
##있기
##마법
산소가
한자의
통계에
모드가
대사는
무기의
소리로
병력의
보르네
왕조에
##스에서는
##우스트
##상태로
##라도,
이에야스는
##지지는
##활성
##°C
##쿠바
##엑스
지낸다.
##신임
##노비
크로스를
##랭킹
협상에
궤도의
생물이
부산의
11세
마사토
왕자는
formula42
##익스피어의
미사일이다.
##화로운
##디스는
##들어가
##라리가
##누스와
##히로의
##드림
##적절
##세웠
##더블
2600
경비를
25.
국토의
요구할
듣고,
평생을
항해를
드라이
추격을
Ber
백성의
파트리
기사단
##뿌
찻
1991년에는
##istor
##'라고도
##성으로,
##소송을
##협회에
##이드의
기사에서
일본인이
##아주
질병으로
##디비
##도심
##어드
형성을
국회는
뿐만이
동기를
20.
카드로
신화를
원형의
시조는
솅
##전쟁에서
##민족행위
1926년에
유나이티드로
10일까지
일본에서도
##시장이
##리스타
나라에서는
##오스는
##기구는
##노부가
구성원의
##많은
##황태
##긋
이들도
##푹
이전인
1세에
백제가
1927년에
##버스에서
##과학,
프로젝트로
##니다"
민주주의의
##이기에
##플러는
##로스를
1856년
##마리아
##슬라우
##먹고
대상에서
##넣어
##윳
수입은
붙잡아
인조의
설정한
##회사이다.
1924년에
##판결을
##콘텐츠
##정신을
##사단과
##더스는
입장이다.
##ied
##부처
##기원
##육군
##승부
범주에
설정은
위원에
요리의
박사를
다이오
##챠
##국으로부터
1992년에는
구체적으로는
##역이며,
##데이는
##웨이의
##도시의
##살이를
##와카
사람이라
그때부터
기간에는
##구현
스트레이
고리를
나가서
종이를
지대가
이전,
formula46
기본적으로는
##클레스의
##거리의
등으로부터
##조치를
##우리의
되었다가,
##토론
아시아나
##련의
자리에는
오가사와
##기다
주인공을
주제의
장관에
##왓
의사에
114
원형이
이동해
오후에
스코어
전력은
##し
법학을
핍
내용이었다.
##체로부터
##했다”고
##정치적
##보드를
##근대
김대중의
##직업
중심지는
##대응
미치게
보이자
철도,
반지
퓌
1922년에
25,000
국회의원으로
##나이다.
한반도에서
##생물의
##데스가
##개발을
##5년에
##구로,
##노부는
인물로는
##한글
메모리에
##희망
##쿠데
결과로서
법정에서
살해당한
##法
형제를
유치를
세종은
출전,
황후가
가시마
티베
샷
이상이다.
차지하면서
##공원이
##히어로
##플러스
##장치가
##리스를
공용어로
##버튼
행정부의
사용자를
##붙어
끝나고,
##1/
대해서,
서비스,
예술을
코드의
만화의
적고,
고리의
##됩
둑
##성이라고
##네트워크
##했다:
##니스탄
##조직의
##니다”
##아파트
루트비히는
##마사가
떠났고,
사적으로
##개편
##유전
##교과
본선에서
Des
동부와
승리,
공기업
양쪽의
신고를
인도는
##떨
##м
서재
##형이며,
##미니스트
##인이며
##연구에
국회의원에
##단체는
##남부에
지역에서의
##프리드
##대회가
사회에서는
##협회를
##되기를
마르크스는
##황후가
##우수
작곡가,
##개념
##탄생
##유통
유지하며
발전하는
일본군과
##석유
베이스로
예로서
전원을
8년에
정체가
출력이
파일에
기체는
수원시
12,000
##트에서는
##노스의
##len
##장군이
##발라
##라디
##공부
지상에서
##경주
##국방
이집트를
##석사
카메라는
중력에
시기,
##뿜
23.
3개를
가면을
개성을
깡
훼
｢
##민주당을
##18년에
##주기를
##동맹을
##든지,
##이치가
##편성을
##니스의
시나리오를
##디스와
##노부의
원형으로
부르고,
##8월
##재정
##것에
스페인을
##힘을
##연주
##출연
##화강
##샤를
출입을
호주의
##\
집단에
방언을
확인해
##た
표시를
항성은
얻기도
차이나
사형이
강도가
영지로
멕
쇤
낀
1990년에는
1944년에
1942년에
##-800
언론에서는
##니스와
##sen
후보에게
##기초
부상당한
##지하
##천도
2일까지
군대에서
##마카
##선사
공원으로
제안에
호수가
440
직전의
근무를
##퓰
조상이
9년에
개체는
욱
밍
formula47
##니다"라고
1907년에
##되거나,
비공식적으로
프리드리히는
##인구는
##교수,
##원이나
##디지털
##만에서
##떨어진
##리나는
##사에는
##지방에
##커스는
물리학과
##이들
한국인의
항공기는
##메디
##전원
##법학
붙인다.
##감염
사다리
공용어
장면의
##랗
수치가
의사는
노력에
소장은
시인,
수리를
##三
홑
썸
서울특별시에서
사건이었다.
##론이다.
##연구소의
아들이었다.
##활동의
##스코트
##바르게
러시아인
있다가,
##경우
형태로,
후원으로
하느님을
##닙
##と
요리가
무관한
가스를
구역이
군수를
명단과
모드는
가치의
감사의
태조는
켤
등장인물이다.
##대기에는
1906년에
##라인을
##대회는
##경기장
독일과의
##공식
영어로는
줄어들어
24개
파일이
막부가
바다가
의식은
미사를
저택을
요새로
그해의
갸
쭉
##민주당이
웹사이트를
공유한다.
##공원에
##스케이
##수수,
##시오는
##층에는
##측에는
있는지에
현대에는
##넘는
##SF
##화성
게다가,
##몬테
추기경에
고전을
경력의
없는데
내리지
능력의
동아리
##짚
인기에
"St
Sub
톡
formula44
##스에는
##하이드
20세기의
##이치는
아카데미의
##폭탄을
그러므로,
##ila
##아미
##보냈
##라틴
##아동
##때의
##간섭
##완성
##필름
벌인다.
직원의
남성은
##ς
번식을
자치를
노예를
에우리
##엥
제37
기자,
샨
formula49
##체제의
##이치로
##올리는
##적이기
선출된다.
##년에서
##주일에
##영향을
##장이자
12일까지
17일까지
##사절
##권한
##유니
사장으로
##하드
##이해
정한다.
##매장
##남성
##1일
##충돌
##사다
3차례
##′
기지에
연기는
다리로
유나이티드와의
##관이었던
##〉에서는
##국가를
##혐의로
##호와의
##행동을
##아가라
##바탕
저서에서
##촉진
당시에도
분자를
##룹
석방을
##없
버스와
24.
제39
팀에게
방해를
공주는
이번에
레논의
##오르게
##디아는
##후에는
##러스의
밝힌다.
이때문에
에너지와
상하이의
##스탈
##증명
##갯
처리가
여자와
중단을
##끌
아이러
시뮬
방법으로는
##1.5
부르는데,
##활동은
1775년
##산하고
##론》의
##테스가
##프라노
24일까지
##적합
##수신
##연결
##출신
##오브
##규정
데이비스
기록에는
##트랜
##예정
##피고
15대
주기가
개통한
남북한
공원은
혁신을
##쥔
화면이
것이란
##퍽
판단에
시조가
밈
formula58
formula48
대한민국에서도
##회장으로
1000년
##현상이
대법원에서
##시위를
사용하여,
##ISC
##보르기
살아남아
일이라고
##이글
##유신
경주에서
인류는
##生
15,
폭발을
여왕은
서기로
##휼
##뻘
축구단
교구의
##★
##위원소
##속도가
인정한다.
##국과의
##로에게
##부수
일본어의
##수요
10개월
##무시
즉위하여
기록에서
하나라고
구축하고
##묘사
소설이
양자의
우주는
논문이
발음을
26.
사임을
기사로
달라이
권리는
지적을
자문을
본토의
고리가
서명한
113
성씨를
왕자가
봅
##illa
1905년에
##시스템을
##품이다.
##레스에
##차원의
칼리지에서
##전자의
##어로서
트레이드를
##석에는
후기에는
##팽창
군인으로
##권력
정신분석
##섬에
##수비
##후반
잡지를
회전을
27년
과학을
##붐
인도로
##빴
바위가
##핌
일대가
번주가
출발을
1988년에는
1989년에는
##원이라는
##ECD
##일리는
##혁명을
##내고,
19세기의
##iat
##행위는
##모리가
##증가
시기부터
서비스로
풍부하게
##무상
##구제
18개의
레코드의
소리의
##밟
정신의
제자로
수요일
기계의
결의를
##댁
페르디
늘어서
##心
해리는
퀵
딤
##돌아왔다.
마드리드에서
##력에서
##속도는
##영화를
##간에서
##-27
##커스터
##차례로
##카드는
##출마
##보좌
노동자가
##평면
경제적,
##소장
한다면,
##타율
명단에서
하나님을
##코파
조성을
개조를
조상의
##뜩
요리에
신장은
영입을
기병을
해군과
젓
1918년에
##형태의
##폴란드
##했다”
##중국의
1796년
##마이어
##사와의
##45년
##아오
디자인한
##무실
생산하기
##군주
##아무
나폴리의
항공사인
총리와
경주를
반대가
##낌
행정의
##제품을
한국에서도
##대사를
1847년
##단계의
##99년
##왕국의
10000
내셔널리그
대표팀에서
##의무
활성화를
사이에도
##3~
##기억
##파워
##조명
##4번
##급행
##웹
측정을
지적도
발명한
기계가
용어의
홍보를
왕비로
14,
백작은
묘사가
##王
formula50
##공사에서
1911년에
##국으로서
##지대에서
##공화당
상태에서는
18일까지
##학자로
조직이다.
19일까지
##시위
##섬을
언론에서
##보통
##항일
인물이었
##수영
증가와
포로를
##ó
지대의
프리드
나서,
다이에
대대는
##연구소에서
##자유주의
노동자들은
##지로는
##명이며
##ras
##가라는
1798년
민주당이
반대에도
2군으로
##59
##부품
육상에서
전기가
백제를
환영을
확인을
호주,
굉장한
##좋
개정에
에스파
이스턴
손상이
공원의
##철도는
##스크린
##전이나
##비용을
##타카는
루이스는
만주에서
잇는다.
##제사
돌아가고
등장을
진화에
학문이
한계에
부패한
##は
버전에
4번의
제50
##댑
높이로
동점을
##지방법원,
##행사를
##전자가
전달한다.
노르웨이,
정신적으로
13세기에
##구에게
차트에서는
##근본
근처에는
##근로
##동화
그린다.
##장식
맞는다.
##두어
흐름은
유지에
편에서
몸에서
친구로
유로의
##뎅
사면을
계곡의
마리를
##대에서는
##시에서는
##iou
##분야의
##들로,
바이러스가
##지역이
##머리에
##처리를
##의회에
손자이다.
##바티
주에서는
##목표
구성원은
공원에서
없다"며
##CE
당사자가
##연애
조치에
22개
가사의
맞서는
중지를
보내지
교사의
개체의
복음을
전선이
기습을
이적이
뚝
뚱
##히고,
##모에게
##의식을
##형태로
##리는데
##연습
##못해
대회에는
##Se
##몸을
동지중추
작고,
쿠르트
요소에
온도와
피부를
다수는
부상과
이곳이
왕자를
극장의
구성과
##사우루스의
##전쟁으로
##하였기에
##리우스의
지도자로서
웹사이트에
##-90
##사람의
##계획에
1844년
##'로서
풍부하다.
##따른
##1억
변호사는
##국회
##애플
포도주의
##싱글
되기로
장관과
인사가
가사로
지식은
단일한
초대형
하기에
논문에
라인의
미군에
##왁
닥터의
웁
릿
2000년대에
##장한다.
##어들면서
마케도니아의
경기장이다.
##체제가
##트와의
16강에서
운동에서
##대조
##알을
동부에서
조약에서
##그런
군사적인
인기가요
##채무
##성우
재단은
살인을
화학,
통상의
##훔
신학과
영지가
높이에
크라스
닥터가
평범
폄
펫
##세기에는
##생이다.
##전했다.
##13년에
##뿐만이
##과학과
##분자의
##게이션
##uer
##대장군
단백질은
충격으로
공무원의
##고무
##영양
##전통
##57
전용으로
##접촉
##댄스
28.
##탤
##껴
조선임
육군이
공주시
해리스
3층의
##설이다.
차지하였고,
##내에서는
##나오는
##거리와
##교수를
일어나자,
전쟁이다.
##역에는
이집트와
##동아
##재생
12년에
수정이
파일로
종전의
##륀
유죄를
반환을
직후의
숙종은
6.5
반지를
##ī
그곳
1900년에
결승전에서는
##신으로,
##트라이
##공원,
##러리는
##부인과
16일까지
차량이다.
##3명의
##의료
법원에서
보여주기
일본인의
이야기와
그것으로
그리스를
포기하지
##간부
원소와
함수에
증명을
1일을
Sun
제36
주에는
기사의
해산을
확장에
메시에
쏴
##내렸다.
##법이라고
##문자로
##결정을
##구조가
##선에는
##사실을
##rol
##성군의
어린이를
앞으로도
차지하기
이미지와
유대인의
##비상
강점기와
기자의
정리의
7.5
항구에
##上
NCA
뮌
##미사일을
천연기념물로
##연구소,
##이들의
##이론을
##세우고
승강장에서
##루스와
##서로서
지역으로,
##루스를
##노리가
국가로서
##진행
오카자키
##여겨
##루미
##모두
##오라
수소와
양성에
심판을
연주가
3천만
병역을
의사와
유지하
##꿉
작사는
뽐
멩
##과대학을
아르헨티나,
##받았으며
##ient
나오는데,
구역이다.
##가사키
##로지는
전역으로
##붕괴
##추기
행성으로
##지상
사무라이
크리스트
##설치
논문의
대기를
해도,
전설을
동기가
군대로
##뱌
보물을
강등을
##ن
인터페이스는
##작으로는
1913년에
##있는데,
한나라당의
##형이며
##열차는
부분에서는
##황제의
##아스터
##380
##기구가
9일까지
돌아가지
##2억
##감시
##신라
##총독
약화되어
총재를
정리가
솔로로
27.
신체에
사유로
##í
32년
12대
거주지
머리의
의학적
―
##-400
##권이다.
##장으로,
국가대표팀을
##소수의
##크에게
##아들이
##사건에
단계에서는
말하는데,
##세부터
##이기는
이미지의
물리학의
##당선
60년대
##어린
안드레이
##르네
조치는
##듣
농업을
256
부정한
##샌
임신한
번역을
전역이
좡
##적이지만
##원에서는
##네덜란드
##구역으로
제외하고,
##und
##이들을
22일까지
##센트를
1842년
##매우
한국어를
##데에
17개의
##건조
현역으로
##오이
건물에서
재배치
가시가
총리에
궤도로
투자가
끝내는
당대표
왕위는
녀
친일인명사전에
##적이어서
##세기에서
이론에서,
공간이라고
##미국의
단어이다.
23일까지
##후보로
##대부가
##재배
없었기에
##화재
Rep
세포로
출력은
통일한
오타와
재산은
스코트
방해가
보기에
잣
팥
##러스트레이
##ider
##조사에
##들로서
##문학을
##빠르게
##되기는
##원에는
##토리아
##비치의
##파트라
##8년에
##바이스
##오다
##하야
유지하려
전문학교
##불법
이번에도
6일까지
임시의
태국,
아동의
미치고
헨리는
70년
지중추
완성을
제34
교체를
예상을
갈라파
11번
육군과
즉위를
땐
##Love
조선총독부가
실질적으로는
##구조는
##기구를
##우라는
##스프링
##라스가
##고로드
##레이루
##올랐
아이들과
들어가고
식민지에
협회에서
도로로
21세
이유도
2위의
##멕
프리스
정체는
김정희
##ｍ
;
앳
##연구소는
##노선을
##공장을
##퍼드의
##관리를
##스타운
##마에게
##안에는
유적이다.
##비판
##이성
##수출
3세에게
중국과의
저지하기
##사장
##고용
##트워
분자는
근대에
준비해
길이에
가사와
연기자
##τ
더해져
사사키
제어를
##걱
보조금
사기가
가로로
죽이기
메이어
팍
##민주당과
##인이며,
##버지니아
##전선을
##교수가
1799년
##조건을
14일까지
##유키가
##사로,
##달리는
##서서
제안으로
##임무
##계몽
##때에
카메라가
태어나는
##3일
엑스트라
##포크
승리가
국회가
##촘
우주로
조기에
서기관
13대
##뚫
개인은
##к
##딛
종이에
눕
▲
##other
##교에서는
국가대표팀이
##국가로
하나이기도
##크리스
##법원은
##라이브
##MBC
##350
기록하며,
##특정
지도자를
반지름이
식민지는
방지하는
##규격
재미를
무대는
전자와
인류를
개편에
##˚
신호로
권위에
기구에
공장은
숙종이
정원이
파이리
오다큐
존재하지만,
##시키기로
해산하였다.
##자리로
##로그에
##아니라
##일이나
##감에서
##해군이
##본부가
##군단은
##다리는
##드리스
##지난
##2~
##7월
거기에는
##저작
##신화
##우울
노력의
##딤
인식의
야당의
##σ
소리와
##中
##쌓
##솥
총재로
Met
맺고,
득점에
불안을
##二
주의회
1987년에는
1986년에는
##사우루스는
1909년에
##레스에서
##회사와
사람으로,
##나이의
##스트라
##시대는
##bre
많았고,
##각기
##농구
##컬러
음식으로
##동해
##56
##얏
길이와
생기고
16,
위원이
도구가
행성에
변형이
도시,
감정의
마오리
그럼
춥
텃
숱
샵
##'이라고도
1917년에
##지로부터
##장이라는
##기인으로
유나이티드는
##국에게
##내용을
이름으로,
##츠와의
##조에는
마드리드에
상황에서도
사람에게는
##비트의
##ESA
##보관
출신이었
##경남
제10대
청나라는
강이다.
##주차
##헴
진동을
신체를
해외의
추가해
말라는
요소와
표시가
피부에
타원형
370
시집을
쉰
젬
로스앤젤레스의
##소에서는
존재하는데,
##만이다.
##캐릭터
##레이의
##치에게
##형이나
##세우는
##간에는
##가치가
##산하는
노부나가는
##발행
여기서,
##대체
경기장이
##수익
##3세
##젊은
보이고,
이벤트가
만들면서
평소에는
##진출
관직에서
##마지
동부는
신도시
철도에
온도의
현대화
서부와
대폭발
세대를
340
머리로
득표를
##所
##り
두개
μ
깬
##대학원을
##안이다.
##방식으로
##편이다.
이론에서는
##발전에
##속도를
##프라이
##대상이
##레이저
##자에는
##1세
정교회는
##비율
스토리가
##연기
변수가
법정에
확산을
다리와
④
##연구소가
1895년에
##아카데미
##플레이는
##-47
##지역과
##환경을
##행성의
##포스트
문서에서
##3D
##전주
##인증
##상실
##채권
스테이트
14대
바르게
조치로
향상에
되찾아
##윌
받침을
바위에
##か
방어진
134
줄기가
짤
故
묀
구축하였다.
##자본주의
콘스탄티노스
##감독을
##성이라
##아내고
##축하여
##부대에
##마사의
##다이고
##유키는
##2월
##함께
##경험
지역사회
7일까지
##존재
##스페
##오빠
##코너
모리오카
사사로
그들에
17,
범주는
갖고,
정부인
##엎
모르게
활동해
##в
##imes
##20년에
##이하다.
##부분에서
##무부는
문서에서는
##사건이
##기하는
사용되는데
##지대가
##리오스
##rad
##부인은
##축하고
##카이치
주한미군
스탈린이
헝가리,
##이긴
##구축
사령관은
구단에서
모드에서
앞두고,
개신교의
##근거
거주한
권유를
걸어서
평등을
음식과
검사,
일이라
반도와
무리는
3위,
유형을
영조는
에이미
1985년에는
##장군으로
##과정이
##리다.
##정책은
1790년
지도자들이
##로스,
##하시는
1845년
##노비치
##-26
##바이를
##장군에
##레스로
##차에는
##마루의
불법적인
##동굴
##3월
##강연
##전체
사이클로
지상으로
올린다.
부근에는
##젖
하자는
연산은
구상을
기후의
감소로
무역이
입력을
주소는
의도로
고도는
군단이
트라우
##국이었던
##arth
버전에서는
##미네이
##사항을
##터리가
##소스의
##아들인
##단에게
##비아는
바이러스에
오른쪽에는
직후에는
##피어
##정해
##구름
##마산
점에서는
야구에서
##기름
24개의
크로마
##햇
배열을
28년
재산이
근대의
##事
950
익스트
시인의
암호를
연장을
의사로
빅토
튕
좇
쉼
ا
##관학교에
##식에는
바이러스의
아이디어는
##실험을
##"로서
##모양을
##안토니
##권력을
##끼리는
##라스,
1778년
##릭스는
비롯하여,
##사고를
##어나온
집행위원
##전성
한국은행
인하여,
베이스를
##모터
##우승
##규모
##남자
교체가
상당의
요구로
##놨
##텟
처리에
방위를
##道
아이유
부상에
필리스
일컫
콴
##론에서는
1896년에
##30년에
스위스에서
##발전을
##sel
사람으로서
##보면서
공전하는
물러나고
##버전
한다”고
11번째
##아침
##혹은
##이식
##트럭
13년에
호의를
증가는
제공을
안정한
사직을
만주의
보관을
무역에
로스토
영조가
이행을
불구
플랫
##중이며,
행정구역은
##최고의
##단위로
##한다”
##법에는
##역할을
##노리는
##하위로
요미우리의
한정으로
지도자의
##양식
##셀로
##하얀
포인트가
시장과
380
교사는
본선,
일정이
제47
사마르
유형은
삼성의
##･
센트
£
츄
##축하였다.
##혁명이
상황에서는
네트워크는
##대사의
##보이고
일본에서의
##인조로
##마사는
##개방
##교향
라이벌인
##지각
장군에게
직원으로
동부,
30.
평가와
까지는
행사의
투어는
##팸
레이어
이성을
##∙
의도는
일부분
우루
##모양으로
##남쪽으로
바르셀로나의
기록이었다.
##모에서
##총리를
##시장은
##공동체
##가지는
##기지에
##마루가
##저우는
기사이다.
공화당의
##마주
##탐사
##Le
에너지원
##하노
작곡가로
이후로,
##쉬운
대표팀을
안전성을
##시행
##모래
##2회
요시모토
분리를
##낫
실행을
동양의
인종이
전선은
되찾기
아리안
코치,
크기,
##받았다고
##철학의
##대장이
##이에는
포함하여,
##통일을
##연구를
1777년
##스카이
##마지막
##42년
##콘서트
무장이다.
##어느
서부에서
사령관을
##신용
체계에서
##염색
##당초
폭격으로
비트를
연애를
당대에
미군과
사자가
##て
올리지
2대의
공주가
공군에
온라인으로
중화민국은
##체제로
##민당과
##부로서
1788년
##고도는
##빌보드
##위키
벗어나는
구축하는
##아카
##아닌
##해제
##백색
캐나다는
##전향
유적으로
##행복
##개성
얻고,
최고위
발행을
불편을
섬에는
3개가
31년
##잼
##민주당에
##다녔다.
국가사회주의
##플러의
##시기에
##기로,
##손가락
##줄기가
##부하는
##누스를
##문화적
13일까지
없는데,
교수직을
태어나고
1군에서
하나님이
##LG
시즌에도
##쾌속
협상은
집안을
감소를
고대에
병원의
체제와
한다며
역시도
일치를
명성은
현대로
예배를
장수를
하버
령
##더라도,
회의에서는
##후에서
##크로스
##이다가
에피소드에
##노리의
##바라는
운동이다.
##소환
##이적
국회의사
##학문
##측근
만났고,
##애니
제임스는
##이제
지역이었
하우스는
##집중
##앉아
##선발
회장과
사장의
290
백제는
옥스포
방지를
주관한
##λ
베르트
인조가
입단을
제시카
즙
##인으로부터
챔피언스리그에
##종이며,
##원이라고
이야기하는
##문화가
##머리가
##하나의
##방식이
##다리가
##점유
##더욱
##공유
못한다고
##뒤로
풍부하고
6개월간
##요구
##방사
##오키
혼인하여
없다"
오다가
경력에
##텁
은행을
라고도
사유가
막부를
예선전
솥
귤
formula57
1984년에는
##요시에게
##시즌에는
##르기도
##지원을
##단지가
##지구의
그려진다.
##방법은
##nec
##대회의
##트리스
##효과가
##uth
##쿠라이
##편성의
##다이라
##공군의
데이비스는
##진압
서비스와
유니버스
작가이자
사이트는
##부흥
군인들은
##사퇴
버전에서
##시사
18개월
역으로,
Sec
시계를
의식과
중력이
유학,
잃고,
기호가
앉아서
남성을
흰색의
최고급
##뒷
##욜
에이로
##벵
이듬
푹
##형이라고
##명이라고
사용하는데,
##36년에
##관에서는
가정한다.
##지니스
##코스와
##들이는
##결혼을
##스토리
##글로벌
31일에는
##부대와
##원군의
의미하며
##다만
##여러
경찰에게
##역할
##사제
##후지
##거울
##UE
원자를
소리에
개막을
규제가
연구할
엘리스
##벙
##꼼
조선조
제35
터키는
조직원
권리의
배치가
확인이
평등한
4개를
밴드와
##전이었다.
##광역시에서
##사건으로
##지방에서
##대상에서
##상으로,
##트라고
##회장에
##소에게
연구원으로
##러리,
##러스를
집행위원회
크라이스트
##선제
##성사
5일까지
메모리의
4일까지
##지은
없다”
해서,
단위가
대중에
박사와
자라며
약화된
비난이
부서의
이때에
입학을
##헥
경영의
국가나
안동시
##ي
스페
팁
##었다"고
##리우스가
##주에서는
##부하여
연주한다.
##경기가
##2명의
##쓰기를
##어로,
##10.
##방식의
##색이나
1680년
##기하여
##열차의
##전자는
중반에는
##모드
티베트의
없다”고
만들려고
오페라의
양쪽에서
##조카
##극단
올리기도
##동계
특성과
후원자
해상에
영어는
만화는
신화는
편곡은
간에이
마운드
##ы
펜실
넋
생산하였다.
##ally
조사에서는
##라스와
##360
##코스가
##여행을
##메트로
##이드를
##있는데
##장식을
추기경의
##케네
##영원
##다섯
1군으로
##지적
##패한
8일까지
제자들이
##한번
##천황
프레스코
시카고의
대선에
통치가
못해서
연주한
밑에는
##꽝
내부로
인조는
죽이지
##흰
##д
얌
##분야에서
##스테이지
사람이라고
연구하는데
시작되어,
##공사에
##의원을
##포스는
임명된다.
##요시를
1598년
##-1번
##아이돌
##오픈
##차이
##소매
##무렵
##인쇄
역전승을
##화장
토론토의
체계로
부정을
25개
재정의
상원의
케네스
개인을
근거리
군주를
26년
회원을
아우크
##相
귄
퀼
꽝
##엔터테인먼트
##3,000
국가대표팀으로
##페스티벌
##대학원,
##조사가
##타이의
##-1,
##권에는
##투스를
##이야기
##타카의
##령에게
음악에서
주위에서
##가입
않는데,
분위기의
엘리자베
##수동
전투기가
##구체
등과의
29.
편집을
여론의
기계는
희생을
양식과
##쉰
##뽀
확대해
캥
℃
##지방법원에서
##대학원에서
1980년에는
엔터테인먼트와
출신이었다.
##점이라고
##강점기에
임시정부를
##크라는
##회장이
##'로,
내부에서는
##성사를
##12.
##버그가
##초에서
##인하여
##레나는
##시와의
##접속
##재학
전후에는
시인이자
##자매
##구마
작품에는
##상륙
##아버
##我
백제와
직원은
측면의
게임기
##業
##밈
##뵈
에이리
##㎡
넌
냥
formula54
1983년에는
##아름다운
##축하는
##비치가
##사건의
##때에는
##번호가
##영화의
스튜디오를
##공사로
##-24
##분에는
##신사
것이기도
##권리
##동료
건물로,
나머지를
전에도
원자는
장르는
위기로
미술을
산소와
설명에
##有
13만
깊이는
한번의
영어가
저술을
세종이
코스를
##륄
호수는
영지는
구원의
201
칵
챔피언스리그에서
##파에서는
##전선에서
##기술이
##파에게
바이러스를
##호선을
##2.5
와중에도
##홍보
##온도
미디어의
##위험
나아가서
어린이의
연합군과
연안에서
군대에게
포기하는
##태종
중력을
대기가
1위의
관중이
행위,
변신한
"Ch
수수료
손에서
줄기를
아리스토텔레스
##루이다.
뮤직비디오가
포기하였다.
##클라우
차지하고,
##공학,
##320
##달리고
노스웨스트
##러스에
##티스의
##사상의
##계에는
##베리의
##시스의
##회사,
##대대는
##공주는
##타로가
사상으로
##등도
기원으로
한반도를
일본어를
인물로서
##국내
노동자를
곡으로,
서부를
영상과
계통을
제22
단종의
Are
21개
결심을
예산은
현상과
대대를
32개
420
호수를
들면서
##イ
##ス
쁘
##원으로부터
##어버렸다.
화학적으로
##라스를
##국가가
등장인물의
버지니아주
##군단의
##ted
##무원의
##니아가
##바라의
특이하다.
##리아스
의하여,
정도로,
대신하는
공산당과
##영역
특성으로
카메라의
##아세
##양도
##도입
기독교도
##전술
나타나서
##평양
증명은
122
공원이
예언을
친정을
메리는
대만,
소장을
됩
챕
사로잡았다.
증가시킨다.
##장관으로
##박한다.
##신으로서
##iber
##총리가
##'이나
##화학적
##민당이
##티아의
##회에는
식민지에서
##도에게
생각하고,
화가이다.
##본부의
##우라늄
##물리
##중력
양쪽으로
##가사
##대만
##졸업
##아사
##논쟁
##자극
전력에서
##전압
##진주
1988
금속의
돌아서
니콜로
진학을
구름을
권고를
남한의
구성의
서부로
조합의
거주민
##è
서기를
복무한
1위와
상호를
##룀
\
formula55
1915년에
##"라고도
##미네이트
##ille
오스트리아가
마지막으로,
##위기에
##지도자
학교에서는
측정한다.
##말에서
##우고,
##대장을
##부인이
##4개의
##랑이에
##기후
##뒤에
##숭배
##공공
##예방
생물을
프라우
하나라
길고,
도로,
해설을
올리기
공장에
##얗
상승을
행사로
곳이었
##⟫
80년
노트르
달성에
전화가
##を
주식의
통화를
사라고
제45
당사
룡
캣
formula60
##2010년
##100만
오케스트라의
##12년에
##문자를
##카와의
##체에는
##제도와
##정권의
##투스와
태어난다.
##철도와
##법원에
##무기의
##때마다
공동체가
시작해,
##5천
##않는
##리처
##해협
유지하게
도전하는
칼리스토
요구사항
##원형
##요크
크라이슬
##분위
지배가
권리에
잡지인
폭력에
통신이
공정을
전문화
##Ⅱ
퓰
1980년대에는
프톨레마이오스의
1982년에는
##ange
아르헨티나와
아르메니아의
##에다가
##집단의
##장치는
##피스는
##한다며
##아내는
인구조사에
##기지로
승리한다.
##공주와
##입법
문제에서
##정통
1990
공산당을
##이하
시나가와
9000
##오바
##광범
##제약
위로는
비서로
26개
의학을
범주로
Red
노동의
음식의
생기지
피부가
##公
##2009년
항성으로부터
##부대사헌
한나라당은
##루스,
##소설을
세계에서는
##동에는
##력이나
##사회에
##이사로
##선에게
##다수를
##드라고
##ior
##야스는
##화이트
##고전
1100
##위상
민주당과
서울시장
1970
##감옥
##신호
한자가
광고가
위상이
##돗
신화와
철수한
하나와
##ら
건의로
전용의
Δ
똥
⟪
formula59
##계에서도
##alle
##aven
##도에서는
조선총독부는
##가이며,
##14년에
##이다"
##타로의
##커뮤니
##천군의
##상에는
##소리는
##단백질
##사이자
##세우스
##피아는
##95년
##성경의
대회에서도
##영상이
##석탑
##여섯
##보낸
##입은
다음해에
미디어를
##티움
12세는
선수들에
기사단의
대전,
##쭤
국회를
임명을
12~
공중에
확장이
코드로
##멍
금지를
버스에
황후의
검사의
##공산당의
##레코드
##시기를
##공사와
##공사,
중심이다.
##무부의
규정한다.
##대대가
다이노스의
##사찰
##사격
##입학
##않게
그리스가
##병사
##산악
##일어
##다녔
##메시
##석가
라디오를
레코드에
문자,
세대가
변수는
왼쪽의
다가가
한글을
되지는
내놓고
사양을
영역과
권력과
공원에
신사의
무역은
##샴
이정희
동부를
유배를
##젼
##-130
##상에서는
##식에서는
##병원으로
##시라는
체제이다.
##천군에
##네스크
##정이나
##gel
##비스는
##능력은
##사이어
구역에서
##논문
##측정
##제트
이때까지
##복사
1980
하우스의
총재가
알리지
분화가
명이었
파리,
##삽
전기,
규격을
##덧
저서에
바르트
표시로
공주와
살아가
지대공
쥔
엔터테인먼트에서
측면에서는
##센트의
31일부터
##클레오
유대인들은
##동물을
여기에서는
##스트루
##자들,
##해군은
##니스를
마드리드가
##담배
이루고,
##자란
제기하는
##연출
##전파
Comm
3500
아내에게
##아인
##창원
군인이자
미사일로
통치는
인물에
기호로
베르크
가사에
전력의
보안을
확대에
신학은
탐사를
25,
기지는
133
재배가
제48
##뻔
먀
##1,000
##orth
등장하는데,
##시절부터
##치며,
일본인들이
##주기로
그중에서도
##장치의
마르크스의
##네스가
##동쪽의
##부장이
##퍼시픽
##법원의
##세가와
##Let
주력으로
칼리지는
##연설
이유로는
태어나서
##동방
##영주
##개입
##부활
##오타
##배틀
##휠
네트워
재생산
개선이
길에서
양자를
수영을
육군을
왕실과
범위로
회장인
통신사
가시와
로스트
한신의
리처
ㄱ
믈
##오스트레일리아
##ather
##2,000
##-2000
##보낸다.
##들에서도
##공원에서
##장에서의
##점으로는
##10년에
##손으로,
##정부와
##오스,
##시장,
##그에서
##피스의
##동성을
##서쪽의
##성에는
부문에서는
##아리는
##웨스트
##다이스
이야기,
중학교를
항공기에
대학원을
죽이고,
전력으로
시인으로
##인격
##후원
##녹음
##부담
케이지
전시를
유형이
유전형
인식은
대사의
##쌌
액체를
항구로
원정은
항구가
제이미
놔
##나왔다.
##15년에
##37년에
##160
##클레스
##인가,
방문한다.
##츠키의
##시기는
설명이다.
##와이트
전쟁에서는
##-70
##크스를
##고리를
##모니를
문화적인
공식으로
제주도에
##성모
행정부는
##등장
거리,
진입을
관습을
이화학
트리오
조상은
대화가
정비를
라인은
나이토
##툭
닥터와
1970년대에는
대통령이다.
##21년에
##주의에서
##선에서는
##산하여
물리학에서
##본부를
##형태를
방식으로,
##협상을
##들어오
##노스가
##리와의
신학교에서
##티스트
베네치아는
##노리오
##쓰지
##단일
공중에서
##따르
아파르트
##물어
경기장에
장기간의
행정기관
전기와
가정이
물에서
조건의
유리를
Let
장학생
상관이
주장의
보이오
안전성
##슌
조명을
바위를
투어의
파크는
ㅇ
웹사이트에서
##ated
##해가는
##소스는
중화민국이
##외선을
##정기를
##피스트
##디스트
##보니아
##경기도
##단이나
##주로서
##당에는
##건국
거주지를
해군에서
##폐기
##뿌리
것보다는
남자에게
전선으로
##설정
멤버로서
비디오가
명에서
일상을
권위가
##밌
속도,
버스,
##〕
집행을
이끌려
관중을
일대로
조지는
명문이
다이아
고문서
헤르타
전두
스튜
MV
formula65
formula56
##역에서는
가톨릭교회는
##장이라고
##자리에는
##득점으로
영화에서는
##원시에
##명이고
##확실한
##섬에서
##가스를
##군이라
##문제의
##연료를
##브라이
##나이는
##연대,
##메이드
##역대
넘어서는
##떨어
##참가
베트남은
마리아나
##사촌
아버지에
남성에게
##KT
##방영
이해에
지적인
길이로
토지에
이사가
##ㄹ
미국내
커피를
성종은
##㈜
필름을
뱌
1978년에는
##오스트리아
##감독으로
##파키스탄
##'에는
콘서트에서
##일으키
##량에서
어린이들이
##천군,
##리로서
##리그와
##지리지
##구리는
##종류가
##로스에
##의식의
##핀란드
##기에도
##마루는
사이트가
속한다고
칼리지의
부정부패
##규제
##경부
후한의
세대에
참여자
피난을
전역과
의학,
나가야
투수의
의사,
평화가
신하가
각본은
1번째
##사령관으로
##2014년
##령이다.
소프트웨어로
##명이고,
##력이다.
##대학원은
##측에서는
12세기에
##변화를
##학이나
##만에게
##사운드
##당과의
비공식적인
##무대를
##토스와
##경기로
스튜디오가
공무원이
중학교에
분위기는
##유인
당나라는
##모습
##인상
조선인의
가와카미
경우에,
##인정
##액션
태국에서
변신하는
뒤로도
중부와
것이지
군인의
행성과
23세
제정을
6.0
영상의
2군에
대개의
성장은
심판의
1호는
잿
긍
##동쪽으로는
##소설이다.
1975년에는
##가상으로
##광역시,
##조선로동
##클레스가
##사령관이
##현이다.
##무라의
##코프의
##소스를
특징이며,
##와이드
##문제는
##프라는
##시사이
##러브를
##프레이
##내는데
##타르는
##세자를
##DVD
##마르는
##선박
##외곽
남편에게
나오고,
군인들을
##붙여
동안에도
통한다.
##장난
부상에서
대선을
입고,
추진을
중력의
제자를
말로는
der
##ㅣ
부하인
공장,
잡지는
등판을
쿵
숯
젝
데이터베이스를
##부르크로
##기지에서
##단계에
네트워크가
##문서를
##시기가
##치료를
##ICA
##지하기
##내리는
사용한다는
##조직이
##타로는
##소리로
##어에는
기록된다.
증가시키는
##시대로
##카스는
중심으로,
크리스티아
조지아주
##강남
김일성을
올라가면
영상으로
보내고,
##점프
저지하는
대표팀은
금속으로
11년에
왼쪽에는
선수상을
돌아가서
에이스로
결정의
##썩
35년
공장과
지진을
반도로
사이즈
대공포
승진을
제33
췌
넵
숄
엔터테인먼트가
##프레이즈는
##5000
##성적으로
##음이다.
##클레이
##함수가
##일보는
사무실에서
발전시키는
##리그가
##군에는
불가리아는
##곳으로
##베이는
##ule
##수술을
주니어는
##초기
확대하여
참고로,
##경북
##설도
노동자로
##과거
##해수
나아가는
헝가리와
것이어서
앞면에는
12세의
아파트가
##베어
서부는
##낱
##옙
수정한
악화된
저지를
바라고
문서로
대장이
승부가
##캥
항구는
무력을
연대에
처형을
##2008년
##성으로부터
##선이라고
##체에서는
##비디오
하드웨어를
##더니,
##nel
##성장을
##신하게
##90년
##갈수록
##러스가
##랑이를
에피소드의
공용어는
넘어가게
1960
미국이나
##명칭
유전자는
##이름
미국인의
##새로
하느님이
모양이며
##뜯
서방의
이하는
모임은
테마를
생성을
네이트
심리를
본선이
##끓
음식에
480
왕자와
공원을
##無
가운
딛
##역이었다.
##오이다.
보여주기도
##들에도
##줄기는
##유키의
##231
##도시인
세계대전의
##닉스의
##카드,
##ves
##중심의
##〉에는
이에야스가
##비스트
##기지를
##가리오
유지하여
국방위원
##지질
##공인
##경계
##합격
공동체에
22개의
14년에
작가와
변형을
수도의
공부에
명명한
만주에
##챙
한다”
저서는
보장을
전향한
전승을
##썽
정면에
발사를
긋
콘스탄티노폴리스를
1990년대에는
##서쪽으로는
##적이지만,
1979년에는
##2018년
방식이었다.
아버지로부터
1899년에
받아들인다.
구단으로부터
##트라스
##군사령
##클린은
##도시를
##갈아가
민주주의와
원인이다.
1590년
##오다가
##현에게
1758년
##전선에
##-34
##레이어
##관심
##민중
##거짓
##함경
지도자는
##순천
##소집
시가지는
여동생인
##배출
"이번
판단이
##읽
동물에
중재를
비용의
노력과
토지가
알고,
항성에
줄기의
12번
삼성은
쉘
##론》에서
##군이라는
##원이며,
##분명한
##들어와
##tem
제공하고,
##필드의
하더라도,
##47년
##정체
##아랍
한국경제
중심지인
위기에서
##사막
##피터
노동계급
##3대
육군에서
고리는
지대는
수소의
기구로
개선에
개장한
없어,
효과의
크리티
진군을
떴
욘
##2017년
##-235
##19년에
##34년에
##버그에서
##동성애
##버스터
바탕으로,
##가에는
##180
위치하고,
##다이나
프로듀서를
##주류
##넣은
정권에서
##독자
##안내
작곡가인
25개의
##장면
##예배
국민주의
공동체는
자라며,
정수의
제1번
지도는
에스타
해서는
##눕
장수가
세자로
병원,
중동의
리드를
##و
소프트웨어와
프로젝트에서
##되었기에
##리지만
##고구려
##일리의
##상에게
##요리의
##기지는
##get
##실에는
##해군을
##3.5
##리스토
##amm
##로지를
##2일
대법원의
##내야
##생긴
##항복
16년에
고문에
항소를
한강을
33.
놓고,
현지에
시의회
##넓
폴리스
화재를
##寺
##쭈
사마의
라스트
##이다"라고
##가능하다.
##하우스는
1880년대
##형으로,
##것이라고
##지와의
##결과에
##과학자
##포스의
미국인들은
##워드를
##아르트
##전문가
##페이스
##헤이트
##후기의
##기능이
##ral
##바르트
##장관이
미국에서의
통일신라의
##사건은
노르트라인
한국인이
개신교도
의미로는
국가지정
##순간
흰색으로
##방문
##통해
끌어들이
##남녀
##추적
##한성
##書
채무를
증가해
123
맡고,
감정에
까지의
무인도
4개가
내고,
3세에
"Th
29년
발전기
슨
##관이었다.
##33년에
##편에서는
##연구소를
바르셀로나는
##데이션
##이론은
##클린의
##수로,
##11월
##cel
##1.0
##자신의
이탈리아인
##스토르
##보기로
##당에게
##140
##요시와
##무원은
##단지를
##ACE
##바이오
##색이며
##3층
정부에게
##내리
형제자매
##진입
##단순
##티오
후반에서
이미지에
##내린
비상대책
13명의
면에서도
12번째
##해병
레코드는
군주는
광주의
정권과
총재는
##벚
고가의
평면을
##記
연주에
성경은
때에,
개발사
극장을
심장을
부상의
병사의
장소의
뇨
##점으로부터
##군으로부터
##프스부르크
1904년에
##인기가요
##계획은
이용하여,
##엔진을
##코프가
##시대가
##체에게
##코드를
확인한다.
알려진다.
##96년
##12월
##사상에
##줄기를
##원이라
##황제가
##마이트
장군이다.
##경에게
##강제
곳에서도
태평양의
기자들이
시가지가
대상이었
구단으로
##넘어
##득표
설이다.
덴마크는
##^
##싶
밖에는
결성을
마크가
Mer
카드에
##æ
장면에
동기는
유행을
기자를
one
검사에
늘어져
##프로그램을
인구조사에서
##프로스의
##공신으로
##스테이트
2019년에
말이었다.
##세에는
##글로빈
18세기의
이야기에서
노동자들을
##보에는
시점에서는
##가루,
##업에서
##공신이
##공주가
1780년
##여성의
##진동
보기에는
일어나서
##자주
##맞는
##시작
용어로서
공부하기
##침해
주관으로
제자들을
잡지에서
만들기로
##앤드
연기자로
가스의
나치가
보이던
##낵
Ind
진영은
가해진
석유를
사제는
선교를
리스크
유적의
성종이
##횟
남아서
백성이
##신한다.
##정한다.
사람들로부터
##타이를
임시정부가
##있지만
##330
##고문을
##uen
##아가는
##98년
엔진이다.
##어린이
##러리의
##지하지
에너지,
유대인이
##트롤
##증거
마치고,
아들로서
##상용
##선정
보조금을
Ther
##자식
재위기간
##교차
##CF
스토리지
상대에게
제1부
부호를
탄소의
독재를
장소,
결성에
##낀
홀로그
문자에
1개가
진화가
왕비는
##ル
##쩡
메시는
짊
##산하였다.
##하면서도,
##31년에
##익스피어
사용하지만,
1916년에
국가로부터
이곳에서는
##기록이
##닉스는
##관계로
##부대신
연합군에게
##터에게
가운데에서
미국에서도
##버스에
##형식의
##카드로
##나르는
##야스의
##이사를
##싸움을
마음작용의
무신이다.
수동으로
##구속
대표로서
##부호
제12대
그리스로
##공기
##육상
위기는
대기에
99.
기사와
목적인
예산의
인격을
지도로
8.5
##正
간부로
녹색의
##ر
어떻
어떠
아리스토텔레스는
##형에서는
##실이다.
##하였다:
##cher
##강점기의
##"이며,
##메인은
임시정부에
##원의원
##통치를
##대신이
##활성화
11세기에
##46년
중심지로서
마드리드와
정보기관
##동작
##한계
##검색
거친다.
형태로서
##증기
##강수
전문가가
있으면,
변호사,
후원하는
이집트로
##마운
##한자
##항해
얻고자
두어야
설계의
그리드
선생을
재정이
36년
사자의
지도가
떠나서
가수를
850
돌격을
사이온
기지의
업무상
헤이하
##팥
제46
##本
콜롬
1960년대에는
1974년에는
우리나라에서는
##'으로,
아르헨티나가
세계대전에
##생산의
##일으켰
##구성은
##스포르
##거리,
##상황을
##정에게
##방법이
##정권이
##화에는
##이치,
##체계가
##드로는
##구성을
하이라이트
##단계는
##초에는
원인이라고
##마을의
##관이자
정해진다.
##구역은
##-55
타이틀곡은
보이는데
##일관
##유형
대의원을
##패키
그때마다
변호사의
다음날,
천주교회
13세의
##앴
재단이
묘사를
비스트
121
매개로
판단,
통일의
간에는
테마는
아라이
임신을
요시키
봇
1973년에는
대통령이었던
##형식으로
##퍼드에서
##혁명으로
##수한다.
##의원으로
##연구원은
##단이라는
##일로부터
##미네이션
해당한다고
##omm
##상이었
##-32
##"이나
이사장으로
##런스를
##합성을
##요소를
##》이나
스튜디오는
##병원을
##11.
##교향곡
##3세의
거부하고,
##앨범을
##KBS
##신도시
않으면,
일부분이
아파트를
##개량
라틴어의
##양자
##테인
##응용
국경에서
살아가고
##로켓
##아틀
15년에
##혼자
프리스타
##신탁
##지컬
성질의
크라이
깊이가
##金
##쑥
향상과
감정과
크기도
전례를
스크리
##텡
날개의
인종은
전화로
만에서
헹
쑥
##2016년
나타나는데,
##타가와
##지기는
##1세의
##산업을
##석이나
##tom
##아이를
##당이나
양식이다.
##세포로
존재하고,
카이사르가
##저우의
##소리의
##44년
##장군을
##공주를
##메이는
##게임의
##둥이는
##색이고
승강장에는
노선에서
##경성
일본에는
영국과의
##태풍
부동산을
##인생
이집트에
1위가
현장의
양국이
##³
얻어,
##솝
호수에
확장은
신분의
전망을
프레이
시나이
타이중
공사의
플로렌
흰색,
회색을
쵸
##22년에
##센트는
##시스턴
##지하철
##와이어
##체계는
##쿠스가
더해졌다.
##컨트롤
##니스,
##48년
구성원으로
##사람은
작품으로서
##프스크
구간이다.
##길에서
##럼비아
에피소드로
물리학,
그래서,
##내내
게이세이
고전주의
부장으로
##1월
##쇼와
##선조
##Ar
Summ
##4대
아이에게
메모리얼
스토리는
수소가
11만
액체의
가정은
군인을
음성을
야당이
주제와
390
다이내
인도가
트리스
불가르
로스터
시도로
승리와
기부를
제32
##地
##iation
1981년에는
##부하였다.
1898년에
##있지만,
##어버리고
##트리에서
##하드라마
##나고,
##2세의
분야에서도
##사로는
왕이었다.
##세력은
##지구에
할아버지인
##제국은
##공원을
##있어서
##박근혜
##도르는
1455년
##무기로
표기하고
##표기
찾아내는
친일파로
##때도
13세는
##루트
##조성
##특히
전투기는
글로스터
조사,
창당한
##쨩
대구의
통제가
논리로
연대와
각자가
민간에
38년
부서를
7.0
흥선
툇
2018년에는
##iller
##드라이브
##기로부터
##ella
##미하게
##법원,
외부로부터
##인물로
##다며,
##론》을
##음악은
##아래로
1644년
시설이다.
작품이며,
##러스로
김일성과
이사장,
##1인
메모리는
의해서,
##이산
드러나게
##방언
사후에는
타원형의
##자전
##서북
규모로,
부수는
발전,
##が
알리게
행위와
##κ
미군을
요리와
구에서
직전,
만주를
##녘
##땜
사절을
편곡을
선종의
정지를
"Al
다르크
##石
아인
꽁
휜
##했다"라고
##2012년
##도시이다.
오케스트라를
##상이라고
##리안은
##240
##허가를
##주자로
##비에는
##체계의
##운전을
1660년
##대하여
1757년
##터리에
일본군에게
##빠른
##교체
##일부
이용해야
##스탠
##2세
##각각
##자녀
##투입
##제목
42.
효과도
성과에
고조선
32.
사양의
##홉
축구에
넣고,
달성을
향해서
"My
명에게
우라와
냇
챠
흄
프톨레마이오스는
1967년에는
##"이었다.
##중학교에
##상태에서
##35년에
##대상으로
1890년대
목적이었다.
##16년에
##조에서는
##등이다.
##편성으로
##필드에서
##ures
##신이나
##시라고
##이치의
##시가지
어린이들을
사용하기로
##요일은
##감정을
##이스는
##교도의
##시에도
##계획이
##사단,
1648년
##이와의
##사우스
##보드의
클라우스
##고대
##리만
오른쪽의
민주화를
서울시는
무상으로
하다가,
주제가로
프레임을
분위기에
맞이하는
##부여
점에서,
남자들이
전문가로
레이다는
전역은
경부터
작사를
23개
시장,
호위를
폐지,
종족의
논리에
소비를
협회를
코르크
연안을
##씌
권위는
야구단
대만의
규제에
목적지
##꽁
야구에
중계를
편성에
##█
깍
쿰
1976년에는
##지역에서는
##스페이스
전당대회에서
##사회에서
##트라우스
##39년에
##평가를
##사이버
##조약에
##철도,
##제도,
##데스와
##과학을
##권에게
##지점에
텔레비전의
주장하고,
##뮤지컬
##릭스의
##레이에
##열차를
##주군의
##크스가
##터로서
##자이후
지방에는
문재인은
진정으로
##감정
일부분을
동안에,
민주당을
항구에서
##유성
독일에게
##성리
##총재
##지름
최대로
장르가
주가가
21,
입장과
##찼
교사와
교수에
조상을
수리가
합의한
##콴
곳이라
##〔
##빡
##줏
라인이
신사임
점프를
루이는
대한민국과의
##목적으로
##32년에
##개발에
도달한다.
##식이나
방법으로,
##분야에
영역이다.
##상태의
##개명을
##국민의
##나가게
##교구의
##군이었
##타임을
##작전에
##라와의
##니스가
##하라의
##권이나
##대부를
##먼트를
##먼트는
##스테이
알아내는
##중화
도시계획
##관할
않았기에
곳이며,
스위스는
고조선의
20년에
##개척
고문이
36.
형성이
선전을
석사,
버전도
모임이
13번
군인과
견제를
화산이
흑인의
##높
반도는
##퀄
계약한
##社
레이트
##性
##’이라고도
##공장에서
오케스트라와
##동아일보
##역으로서
##수로는
##조로운
수상한다.
##두에서
##드리는
과정에서,
##이슬람
##사고가
##베이의
##대부의
##국이나
##레인지
1785년
##군단을
##크스,
##화로서
##파라고
##중이며
##산군에
후손으로,
##ses
##갈색을
##군수를
##경유
밝히고,
총선거에
나오는데
대신하게
21개의
버리고,
##동양
내리고,
##와이
부인에게
##가상
##홀로
##빨간
4강에서
입자로
225
나가이
붙어서
인사로
안전에
설정에
승인한
권리,
##듦
가치로
##볜
양식에
경주에
정원에
병사는
보이즈
보도는
Rem
궈
##물이라고
##층이다.
##남부의
##750
반대한다.
##야스가
##보드는
##병원,
##아스는
##건설이
##관이었
##게임을
##앞에서
##들어온
##번에서
##리스크
##여부를
##라비아
마드리드로
##지중추
##백작
일제시대
그것들이
##얼굴
나가면서
광주에서
##처녀
레이저를
선수권을
##적응
##안테
입학,
통계를
개성공
정비가
중세에
형성과
서부,
대상과
##볶
##く
야간에
김씨가
시드를
식량이
##캬
불법을
##넜
3대의
웨이트
##인으로서는
##정도이다.
##열이다.
세계대전에서
##종으로서
##사람들이
##프랑스의
##드로스는
##선으로,
관련된다.
일어나고,
##이사는
할아버지가
##영역을
##라인의
##그래픽
##지대는
##ios
##스파이
식물이다.
아카데미를
##음에는
##지방을
##진영의
##산에는
1759년
##rod
##-98
노무현의
한다"며
수학적인
해안으로
한반도와
##정수
##표시
안에서의
##점령
장면으로
##이토
##흡수
오늘날,
지도자,
개인이나
##보일
##주재
##채용
##롯데
파라마운
주석의
모두는
높아서
주인의
##者
이성의
##켐
통일부
심판이
화산의
전자식
경계의
##ㅡ
국경의
중동,
사장,
유적을
퇴각을
Ret
채권을
아울
뭄
뱉
##장으로부터
##정보통신
대상이었다.
##alla
##점으로서
##작품을
##케이트
사용자들의
##국이었
##도로,
##오고,
작곡가로서
##식물은
##행성이
##나와의
##카스의
##심판을
##몬스터
##패션
##확률
##안산
계획에서
접하고,
##몸에
##백인
정치에서
친구에게
시에서는
주식으로
카메라에
13번째
표면에는
##실린
브레스트
탄소를
청구를
수사는
진보를
사용의
사단과
통행을
개량을
호수와
##눴
이스타
경주의
사르트
개성이
뉴스의
반지의
측면은
회원은
실시,
에스터
파트로
사유를
최대화
##う
앎
##선으로부터
1968년에는
##전문학교를
철학자이다.
##보병사단
##원군으로
존재하지만
방송된다.
##더스가
##필리핀
##자원이
##시로서
##치기를
사람이라는
이야기다.
##공간이
##라크는
##코스터
##마을에
##카이의
##대우
##맡아
##분산
##필리
고대에는
##취급
##죽이
##우려
용어로,
지중해의
강제수용
##SN
##스위
위기의
정수를
시도에
고전역
2회의
코어를
산소의
장면,
처리,
##맙
마리는
건강과
##υ
발사가
신체는
석탄을
누구의
프로젝
명단은
파크의
##．
##れ
닳
金
formula64
##돌아갔다.
##문제연구
오케스트라,
##조선일보
##정이라는
##28년에
금지시켰다.
##신이라는
부상당했다.
##ober
##년이다.
##호선으로
유나이티드에
##드르의
##전선이
의미하기도
##성이었
##해안에
##투스,
한국에서의
##등학교
##경기는
##정이라
##소에는
##기다.
1388년
##중이었
##시리아
##대장,
##이사가
##-99
페이지는
전투기의
안에서도
0.00
시대에도
##주연
23개의
##눈이
##우익
플레이로
##가공
개신교회
##2층
방어가
벡터를
해양성
44.
단지가
45년
창당에
지지로
정원의
뒤에,
제1,
흥행을
쇼군의
올리게
##옛
##ラ
아스타
뜸
뒀
##마케도니아
##독립운동
##건이다.
##면서부터
##산이라
##뉴스는
조선일보는
##이면,
아파트에서
조선에서는
##공원과
##토스가
##비용이
지역으로서
##산군의
이승만에게
##-95
##이다:
##국이자
##센트가
##성이란
그렇지만,
##츠키가
##보내고
##신이라
##미카와
##스트럭
마음작용을
##일제
일본어,
에너지에
##곤충
##울산
공장으로
국방부의
스위치를
경우에서
전당대회
올라가게
##리포
실력으로
##관직
##냉각
##전동
##1층
증명이
460
기체로
복지를
Ben
주인은
고통과
루이즈
주인을
##ь
Bel
##꼽
샛
1971년에는
##청에서는
##상으로서
##세계대전
##24년에
감독으로부터
##》에서의
##레이에서
##위기를
##체제에
##라인이
##라이프
##시타를
##세대의
르네상스의
##관리,
##연대에
##10만
##크스와
##티스가
##위에게
##역사를
##민주화
발매된다.
활약한다.
스테이지를
##메리카
##양산
##일렉
가지는데
##스톡
중지하고
##요코
##정희
비해서는
##기호
대학원에
##개시
연방의회
아인트라
한다"
31.
위상은
전부가
주기의
조사와
비트의
기대가
동방의
왕족의
화산은
##β
군에게
번에서
이치로
개조가
개통일
유리는
##앱
3·
잰
」
1920년에는
##선거에서는
##군으로서
폐지하였다.
만화가이다.
##보였다.
유일종이다.
왜냐하면,
국방위원회
지도자였던
##그들은
나타나고,
##베이션
##돌프는
##케이스
##태양의
##7개의
##코미디
##공군은
##오리는
왕족이다.
불가사의
외교통상
대법원에
##지시
##가문
노동자와
##거대
공직에서
##원로
찬성으로
##서방
측면으로
미시간주
##광산
##지급
민중을
전시에
활성을
기계에
연계를
더해서
역사로
35.
교사,
이전한
바로는
주석이
통일에
토지는
보물로
##폈
본선은
광범
딩
뎀
1940년에는
##했다고도
인터뷰에서,
##당이라는
##서부에서
##군에서는
##가라고
집단이다.
##메인을
중화민국과
##신호를
##일까지
유대인들이
##-2,
##라이스
##자기를
##형이고
##후에게
##러스와
##머스미
Hell
##풍속
인지도가
##절대
역사적,
한다"는
##작센
그레이스
##골드
인접하고
뜻이며,
니시모토
묘사는
46.
##뉠
사고,
가속도
모드의
바다는
추적을
##ㄴ
##ㄱ
제49
헤이스
본선을
##ister
##론》에서는
##단으로,
##하겠다.
##보고,
##히로,
##테이블
##관리에
##주에는
##데스크
##Com
##재단의
##커스의
##라이는
##음에서
##평등을
##공부를
##피에르
##och
보여진다.
##인들로
##임무를
미분기하
발전시켰
중력으로
방지하고
철학적인
사단으로
##중부
찾아오는
군인들의
안드레스
##연락
벨기에는
스위스와
흑인들의
##테마
주교회의
케이스케
입자와
후보인
##쉴
내부가
리버스
##잃
##땡
깊이를
무기,
자세가
ITV
연금을
사제로
허리를
작전과
간에서
##쌔
무장이
##뎬
쫒
옻
묄
##물이었다.
로스앤젤레스에
미국으로부터
##법으로서
##당에서는
##iner
##음악에
##전기를
##도시에
##서기로
##올리게
##출신의
참여하고,
##어들어
##레이와
##요시,
##했다,
##ICE
##황제로
##대상을
##대비의
##찬성에
지지하지
생각해서
그곳으로
사용자와
##조달
만들어,
##선전
전두환의
##하사
##제거
26개의
오페라를
인근에는
##알파
미사일,
##성취
##반사
포인트,
동기부여
##줍
단편집
말로서
마이트
##ᆞ
합성을
동북부
아카드
카드와
분화된
변수에
공주로
대비를
내리기
She
무역과
##깊
하이에
음식,
맡아서
장교를
사이어
통상반
찹
려
캬
욜
##문에서는
##쪽으로는
##법인으로
##단이라고
##산이라고
##형식을
##사진을
##세력과
##프라를
##iar
##구성이
##자원을
##식민지
##시고,
##지도를
##자체가
##가르트
##지에도
##네스와
##남쪽에
사용하는데
타원형으로
##출입
##반란
왼쪽에서
제주도의
유대인을
##살해
##영광
공격에서
경력에서
중에서,
##무선
전용도로
##드문
##이탈
##개화
기구와
사기도
타입은
관측에
실시를
확대와
##킵
##明
녹색을
##촬
수용인
##컹
찰스턴
껴
1970년에는
##2011년
##페르시아
##전이라는
##국이라는
승강장이다.
##지구로
##과의사
##점이라
##과학적
##바이의
원주민들은
##49년
##로스톤
플레이하는
##워드가
##코스를
##선거의
##uto
##양식의
##키아벨
##온도는
##성군,
##토리를
계획이라고
##터리의
##응답
외국인이
지구상의
##밤에
##4개
##VD
##누르
##너무
##전승
헤드라이
##앰
원자와
48.
분리가
심장이
보기는
가입자
저항의
양자는
개관한
11회
군사의
##リ
평정한
병사와
버스터
모드리
##す
펨
●
formula1,
##캘리포니아
##,000년
##23년에
##들이라고
##25년에
1894년에
##재정부
##도시가
##있다가
##어서는
##점이었
##구제로
##여서,
##류에는
돌아가면서
공무원으로
창당했다.
##무기는
##병에게
##장관을
1649년
##왕이라
##백제의
그리스도는
##어나와
##권이전
##유가사
민주당에
##봉쇄
한국어와
##디움
##유닛
생산하여
##일곱
헝가리를
프레이저
외국인의
##코트
사람들,
원자로는
미사일에
##나쁜
47.
시위의
민간의
관측은
방패를
##됭
화가가
37년
소유로
##下
이사와
##高
##й
헷
갠
찼
##기하였다.
##그리스도
##단에서는
##uest
전체적으로는
##프라이프
아티스트로
##사적인
##총리로
##탄소를
##장군의
##중에게
##작업에
에드워드는
##세스는
##작가로
##드와의
##물로,
##머스트
마드리드를
##천안
##사직
##생존
계산하여
3개월간
제기하고
##서양
##Su
요시나카
##한신
한국어,
##연령
축구에서
##무리
지지하여
최고조에
올라가서
##해적
수출입
45.
소리,
탄소가
CER
유지가
모드와
##꽂
이성은
요리로
입대를
세자의
제44
해군사
시인이
정상의
##팰
나이와
데이지
##정이었다.
사용자들에게
##장이며,
##팀이다.
##제로부터
##하려면,
##장비를
##관하여
##터리는
##주시의
##대사는
##공간은
출전한다.
##역이었
##마스크
##극장의
##아르는
##신성의
##ror
앞으로는
증가시켜
##합동
반격으로
공부하여
노력에도
1950
흑인들이
##모순
##짓고
분위기와
##제정
11세가
##법정
##화살
##1차
##회색
구리,
22,
확실시
광주,
640
결심한
대사,
자세는
은하에
조성에
##뎃
##東
세이지
창조의
##펭
자연재
연령은
생활용
사료를
부하라
##で
보상이
제58
흰색을
루트를
운전이
##ト
##م
π
σ
大
1962년에는
##2013년
##트레이드로
1885년에
##원으로,
##제에서는
##지대학교
##하위를
받아들이기
불법적으로
##축구단
##회장은
##판이나
노동조합의
대의원으로
##코드는
##먼트의
##병원은
##선수가
1545년
나타났고,
##의에서
##신이며
##레오는
##테스타
항성이다.
호주에서
계산하기
##인기
시내에는
찾아가서
정부수립
##파란
실제로,
##상무
비롯해서
##추천
일본에게
##취득
##기증
모델로서
##갈라
##해당
##세월
##베타
대기록을
육성을
주기에
군사용
중도에
코드에
레이지
14번
투수는
파르네
스미토
성씨는
장소와
병사로
##五
판타
1969년에는
1977년에는
##우스트리아
##학에서의
##물이며,
##3000
##aver
금지하였다.
##가운데에
유나이티드를
##프리에서
##마라는
##일에게
##텍스트
##카드가
##리크는
제외하면,
##형제가
##세이는
의미에서의
##130
##생물이
##토스를
##기지가
##배상을
##-54
##단과의
흰색이다.
##리어는
##ned
##시조
##작성
카메라,
##영혼
문화적,
계속하는
부인으로
##국왕
플라이어
##복원
##크림
원소에게
승인이
결합의
##ん
시위로
성장의
공기와
작성,
이하인
인구에
극장,
오가와
패턴은
검증을
탄소와
식물에
일정은
바이로
반도,
고도를
신학에
##뒀
좋아서
항구의
##經
살아서
영주의
이오의
콘스탄티노폴리스의
1965년에는
##athe
##tent
##시스템의
##법으로는
##이들에게
##컬럼비아
##상용으로
아르헨티나를
##동이라는
##데이의
##Con
##전쟁은
##이론의
##있었던
##ved
##웨이가
인정하고,
##제도로
##금이나
1756년
##아이의
##년간의
##엑스포
##올라는
추기경을
부대에서
리눅스,
##탄압
나타내지
##저녁
##오케
보상으로
이에야스
##취소
##환승
##큼
인기와
공기는
알아서
전개가
##엑
여기지
##뷸
반대해
누르는
코치와
재산에
영지인
11호
뉴스에
##د
δ
formula68
##국이었다.
##'이며,
##선이라는
##런스에서
##단계에서
16,000
##ones
##연간에는
##사람을
##설에서
##연구의
##결과가
##변화에
##재판을
##보드,
##"이며
지도자들과
##군이나
##2.0
##가타이
##학자는
##효과는
##철학을
1770년
##기술은
##하느님
지도자들을
##토리는
미국인들이
설치된다.
##ced
없다"는
##J.
어린이가
단어에서
##홍콩
이집트는
##배경
##커피
실수의
논리는
시기도
뉴스는
이스터
작용의
지정해
머리,
아이로
##η
Mem
보관할
측면과
##き
비트는
장기를
＊
차지하였으며,
##리그에서는
##관으로,
##무대에서
##’라고도
1890년에
사람들이다.
##부로,
##소리와
##바르의
##어들은
##문이나
##사전은
##cen
##군수,
##돌아온
관점에서는
##시절에
##버그에
##70년
갈색이다.
앞에서는
##확장
##해외
##열린
인지하고
##이오
##제기
친일단체
14번째
하와이에
##기용
결과로,
제국에게
레이스를
##사례
##유행
증가시키
##로동
##먀
분자와
부호는
연기와
전자에
가나의
여론은
액체가
신체가
화면은
재즈,
건의를
실력은
일상의
재정은
유학의
특정의
주지로
변신을
##탸
헵
툭
τ
formula75
1930년에는
##분이었다.
한국시리즈에서
##군이었다.
##프로젝트
##요일에는
##소비에트
##하에서는
##명이라는
##기로는
##모델로
텔레비전,
헝가리에서
##머스의
##성에게
프랑스에게
##체로,
##레이스
##대대를
##데에서
##시오스
##둥이를
##너스의
##었다면
##관현악
##프리를
##카이는
##장식이
##통행
##중단
지지하며
##원반
건의하여
확장으로
식민주의
##에우
도시에는
사령관에
포도주가
제11회
##제4
득점으로
##가진
선수들로
##위탁
분해를
본토를
34.
##몫
사장인
가르는
중재로
먹고,
살아나
지대와
왕실에
도구는
성씨가
결의에
제59
극장이
가수상
극장은
소형의
배틀러
노무
랙
一
##2007년
1940년대에
1960년에는
##'이었다.
우리나라에서
##계에서의
##산이라는
##보이다.
##하우스의
##ates
##계로부터
11,000
##진이다.
##교수는
유대인들을
##수준의
##학자가
##론이나
##198
##조건이
##손자인
##러스,
작곡가이자
##어서,
##비트는
##시아가
##차기를
##장관은
##무장을
발전한다.
##아오는
1560년
##감이나
변신한다.
##전이라
##다이의
##관습
##시각
##수집
경계에서
##범위
지지하던
##건담
대표팀이
거부하여
1일부로
왕실에서
31일을
2200
##알레
SMAP
레코드가
##±
광복을
장면과
그로스
수상의
처리는
독자의
말미에
개체를
문제시
고종을
영상,
재산과
헌법적
한계로
33년
사자로
장수로
중종은
영상에
##학이다.
##마이크로
행정구역으로
##27년에
##38년에
##17년에
##학과의
##이스의
##연대로
##카와는
사용하지만
##이지는
##오라는
규정하고,
##정당의
##요리는
##생명의
전기자동차
##케이블
##무라가
##물에는
##부와의
나아가서는
초등학교를
지역이며,
##기기로
##uel
##없다고
##아들을
##주간의
##치아이
물리학을
오스카르
##우루
다양성이
신비로운
콘서트에
##지혜
사로잡아
레이다가
개정이
지지가
몰락을
39.
확장과
##π
주소가
박사,
미사에
포트를
공원,
지도와
폭력과
##찐
44년
폐지와
늘어진
310
단종을
아이와
명단이
한강의
피부의
이사의
석사를
렐
formula70
##고등학교에서
##크스테이션
유나이티드에서
##학이라는
##광역시와
##공이다.
19세기에는
##공업을
##제국이
기록하고,
##이사,
##대학생
할아버지의
##데스,
##독립을
##리지는
텔레비전을
##가치를
##전차를
군인으로,
##수수를
차이나타운
##무원을
##장이라
자유주의적
##트리의
이사회에서
##클리의
##플레인
##터에는
1659년
많았다고
계기로,
##넣고
대법원이
사업에서
##공화
지역이나
##프랭
##입대
##평생
감독이자
고속으로
조선총독
호수에서
재단을
실수가
연산의
대수학
자원은
기계로
이에게
연봉을
북부로
만들면
수치로
시인인
건조를
장난을
##쿵
군단에
으로,
시설도
열고,
지원자
##四
득점,
비즈
##민주당,
##사이에서
일본으로부터
##부분으로
##양이다.
##11년에
##주로부터
결과적으로는
##무장관을
유나이티드와
##부장에
##형제를
##점에는
##모델을
##명예를
##두고,
##해안의
##가락을
##국가는
##워싱턴
##클리는
모습으로,
인물이기도
전투에서의
##아나는
##다이지
##부문을
757년에
##세대,
1456년
##유니버
##에이지
##충격
대성공을
##최종
의원내각
##김해
카메라와
##보물
항공사는
나아가지
##공헌
경기에도
연구에도
27개의
##제독
##종사
##MV
##섬식
역까지의
##판타
역까지는
통일이
검색을
40.
주석은
540
일체를
허가가
카드,
광주에
단어에
복사를
대사에
대대가
플루트
132
앞서,
유리로
다이토
제60
##묶
미하라
메이드
李
물리학자이다.
1963년에는
##단으로부터
##질이다.
##집행위원
인터페이스의
##권력의
##방면에
##190
##170
##상과학
##떨어져
##식물이
##파일을
##현상의
##디스의
##보기도
##"이었
##의식이
자본주의적
##차기로
##영화가
##슬러는
##족이나
##네스를
##무관을
##-78
노무현은
##상관
##대립
마이너스
##비교
##렇게
##개조
##진단
##개명
대신에,
지하에서
아파트에
해산하고
형제로는
##시집
##지니
나뉘어져
구축하기
##부동
##몸이
협상에서
동아시안
표기에
권위의
온도로
표시는
지나치
##뽕
전화,
상원은
주로,
받아내
자손을
부서는
단어와
생명에
시행을
정리와
갈색의
신사에
종전을
신인상
##х
뽕
##인들로부터
캘리포니아주의
##-1000
##ramm
##림이다.
##점에서는
13,000
##점이라는
##부인으로
##있었고,
##도로서
##'에게
##가로는
##구역의
##민당을
##사직을
##수에는
##동안,
##동물이
##라우스
##구역을
##버그와
##미쓰는
##리다가
##가스는
1565년
2007.
제작한다.
##레인은
##레이다
##에르타
방정식이
##김정
그곳에는
10.5
명으로,
선교사가
12.5
##무력
도시로는
##부패
근대화를
##있었
아리스토
항공사의
저지하고
##침략
##추구
##드러
후속으로
##힙합
##꺽
열대성
여성인
장교의
의사인
줄기에
사장에
다가와
##家
##〜
이하와
나오토
왁
사람들이었다.
##itor
시스템에서는
##원이기도
##행성으로
##었다가,
##발이다.
##언어로
##어떻게
##단계를
##부장관
##어들이
##화학,
##기다가
##어에게
##리나의
차지하기도
##체계에
##토리의
세르비아인
##협약을
##통하여
공원이다.
##마케팅
##iot
프로듀서,
친선전에서
##저장
##NH
##음성
1900
##Me
예선전을
등과도
논리의
다리,
대기압
해명을
남부로
참전을
##뎠
번역은
장식은
말이나
동의가
보내야
측정에
헨리의
많았고
정보도
실시로
파이오
평면은
마크는
##李
화물의
입단,
다이야
스웨
듬
1955년에는
##"이라고도
1972년에는
##나라에서는
##트라우스는
##플레이의
##스트로는
노르웨이에서
##연구소에
##본부에서
과정에서는
독립운동의
##피에서
##클라이
의미에서는
##파로서
##보기가
##천문학
##기구에
환경에서는
##무부에
##프라인
아들이라는
##가로도
##동이라
1675년
##성균관
##행성은
##340
##레나의
홋카이도의
##고시에
##되지도
천문학의
풍부하여
##수여
##근육
고도에서
노동자,
철학에서
부르는데
대기하고
사이트로
만나고,
활동에서
##주행
나누어서
찾아가는
##제자
저지하려
의원에게
남자들은
##무신
성균관에
##우즈
무장으로
집권을
변수로
주거나
기도와
이주가
평면의
##成
요구해
##꼈
요리,
피부는
중부,
##멤
12회
신화가
##㎏
행사와
번역이
지도의
##義
연주로
아스파
매니아
대형의
##城
레이시
⑤
1938년에는
1964년에는
##oder
##클리에서
##방에서는
##과대학의
##지에서도
##세우스는
##한다”고
##에너지를
##파리의
##함이나
힘들었다.
##조선인
##지대와
김일성종합
##마이클
##신성은
##ela
##반지의
##지도는
1580년
##자원의
##타이완
행정구역이
##원군을
알바니아는
##기간의
오른쪽에서
##무대에
1755년
##전선은
##문학,
##보이의
일본인을
분위기로
##이런
##안동
합병으로
##끝이
##현장
예산으로
식민지와
작곡가의
##향한
##임시
##국정
##타격
##실용
##루마
보이스는
##널티
분리,
전파의
입력이
취재를
##γ
구원에
검사와
측정이
멈추는
기호에
부패를
주도가
죽이게
##탉
바이런
##ester
##법인이다.
##점으로,
##데이터를
##법이라는
##과대학에
##신이라고
##정수석
##학자의
##진영은
##혁명에
국제사회의
한성부에서
##들이라
##에이의
존재하는데
##철학자
21세기에
이름으로는
##런스가
##'이었
##명칭은
##치아노
##체와의
##대기를
1765년
##웨이를
##작용의
##앞으로
##세이를
1570년
##76년
##감독이
##원형의
##투스로
"Love
아래로는
사무실은
##제후
##돌격
결정해야
##국경
대부분에
조지아는
##내륙
리처드는
##어깨
전문을
숨어서
1위는
국정에
##−
대조를
##ί
##θ
##ά
백인의
강도는
군사는
듣고는
연장은
일시에
사면에
아동을
##텨
허리에
##핫
보내려
중종이
코스피
섣
뺄
팅
1936년에는
##2006년
##없었다.
##하다면,
##29년에
##학자로서
##광역시에
##색이며,
기타리스트로
분야에서의
내부에서도
##우리를
##선고를
민족주의를
웹사이트는
##스페셜
##출력을
##은하의
행정구역을
##식에게
##이동생
1764년
##대대의
##현상은
1559년
##조선을
##로마의
##네이트
##오르고
##마와의
대표팀으로
라틴어,
##변형
입자들이
##장려
##실내
하와이의
##이민
라틴어를
##잡은
##아직
활성화된
건물로는
##군대
코치로서
유리의
이것과
한자는
사전을
연산이
작가를
소수가
맞이해
이사는
ACE
제56
열대우
연대장
기자와
받지는
작전,
레이는
이동의
바르고
폐지에
하에,
고백을
출장에
실전에
##탔
대사마
숏
с
formula66
엔터테인먼트를
국회의원이다.
##리우스와
##정부에서
어린이들에게
##파라는
##시로는
##총리는
##사상이
##성군은
##회에도
##보드에
##형태는
미국인들의
##테스와
##가고,
##버트의
##징역을
##제로,
##성이며
##구리를
##법인을
##세자와
##왕후,
##카메라
##챔피언
##군단이
##카드와
##HER
전문가의
유전자에
이라고도
##파견
19년에
의미하고
뿌리에서
##명명
##음식
##사립
입장으로
작곡가가
##주소
생기고,
증가시킬
포기하게
17년에
##고급
##것과
포인트와
조사의
부정확
유리가
장비로
최신의
통신의
사료로
예선과
해에서
3위의
27,
앞서서
나라인
대대의
##％
잡아내
다다르
부대원
전진을
기체에
##作
영지의
혼인한
진동이
보고도
공연장
노르트
꿩
ㅁ
##작가이다.
##법으로,
##생으로,
##스트라이
##시리즈의
##2008
##대수학
##시로,
출신이라는
17세기의
##동안의
##증이나
초등학교에
##토스,
##포크라
하와이에서
##행정의
##경찰의
##사단에
##미르의
##일리가
##내용은
##질량의
##사랑을
##그로스
##고리는
##모니의
1645년
##트리지
##야마다
##태종의
##쿠라는
##구치는
##사라이
대한국민
자원으로
##체포
##식량
##비록
##4일
##도중
상임이사
항공기와
##처음
##격파
##곳은
수소는
측정은
보조를
에서,
왕실을
560
잡아서
파트를
194
귀환을
좌익을
실력과
출시를
왕비를
하이트
해상을
붙잡고
남성에
##氏
지명의
단종이
무장은
카르타
##밧
1970년대의
1960년대의
1980년대의
##시간이다.
##식이라고
##구로부터
##곡으로는
##업이다.
##종이라고
상황에서,
##국에는
##무역을
##체로는
##경이나
행사이다.
##라이의
##박정희
##Pro
##분기에
##관직을
신고전주의
##노스와
당대회에서
##더스와
제주도에서
##요일을
##커스를
##원이자
##쿠스를
##소리,
##역사상
##씨와의
##디스가
활동에도
일대기를
32개의
헝가리에
시가지의
미국에는
##H.
접속하는
디즈니의
만들려는
하나라는
##놀라
등이며,
그리고리
사실이라
##좌익
수수료를
스파이스
##매니
온도,
뉴스,
고대로
##뱉
54.
확정지
구제를
은하와
오르트
잡고,
물이나
지정을
복원을
주식은
46년
건국의
백인이
##安
메시아
장군인
대수도
의도와
찬성을
마리에
비행사
농구를
오전에
제42
역이나
1946년에는
##황제이다.
##가로부터
##실에서는
##후쿠오카
방정식으로
##산이나
##철도를
##루스에
실시된다.
##사상은
##반도의
##220
##리어로
##머리는
##법원이
##오라고
##450
##주로는
나폴리에서
차트에서도
1568년
##마이야
##도가와
##리자,
##브라는
여성이다.
협회로부터
부정확한
##나왔
외국인을
시간에는
##주제
경기에는
프리메이
선교사로
##DJ
어린이와
##골든
은하에서
곤란을
여론에
작동을
##텼
대사와
전사를
노비를
권위와
부하의
4개국
국경은
동해에
파리와
경기병
앞면에
2회,
증기를
동북쪽
"He
2층의
함유한
영주가
야스토
마케
이야
시카
##사우루스와
소프트웨어,
##성이며,
##ctor
1870년대
##했다면,
##크리트로
##병이다.
유나이티드가
##개발이
##방향을
##공간에
##오른쪽
##재산을
대학에서는
##로그는
##민주의
획득한다.
##단위의
##구리,
##가스의
1750년
##대장은
##쿠스와
##갈색의
##본부,
호수이다.
마친다.
청나라를
##모으
항공사가
##정찰
오스만의
##익스
루이스의
화면에서
12세에
중간에서
거주지는
##직접
##뒤,
##세례
유도를
38.
뉴스가
기구,
다양성
모음은
장기의
지지와
##뽑
대동아
참석을
총선은
자식은
##깁
그와의
바이스
폭력이
감정은
##夫
소장,
한쪽에
차트의
전형을
당일에
안타와
연고의
틱
웡
##러리에서
##의도에서
##라이다.
##시로부터
##소로부터
##세로부터
##2012
##'으로서
##령이었던
##신이었던
필라델피아의
##시스템은
##로지의
##정리에
하드웨어의
##선과의
##병력을
##자인권
포함한다:
##결과는
##시즌이
브라우저는
##마스의
##리기로
##치기로
##레이를
##누스,
끌어들이는
우리나라에
##같다.
##이처럼
##구리의
##박사를
##대대로
##시스를
##스크로
##가와의
##득점,
##이미
##영토
150년
##이래
표면으로
시카고,
스스로는
민간에서
##장소
드러나고
##압축
##로렌
위원회와
직전에는
관계로,
##감소
##전당
##7일
##닛폰
이듬해,
##체결
K리그의
##연재
중간의
28개
권고로
"Be
헨리에
연주는
식물로
신분에
병원이
임기의
35만
있기를
얻는데
발사는
34년
손해가
백제에
호수로
##쌈
노선,
##땀
선발을
메디아
위장한
도요코
##우크라이나
로스앤젤레스로
##anger
##6년에는
##adem
##음으로서
1860년대
##이스라엘
##전으로서
##포인트를
##인사를
표기하기도
##프리스
국내에서도
##"에는
##미치는
##병원의
##병원이
##정에는
##신고를
##퍼드가
사용되고,
유형이다.
1588년
##자전거
노선으로,
##바나의
##페이드
##프와의
##야에게
추기경으로
상하이,
입장이었
##용어
##수련
통하여,
##공직
오르고,
그동안의
마무리로
##편곡
##가마
##특이
법학자
입성한
도심을
원소에
23,
브레인
가공업
유대를
최초에
사이인
1호를
경주로
도구의
##늉
타입을
않는데
42년
##州
1회,
##옐
션
젱
1925년에는
##고속도로,
##증이다.
생각이었다.
##러스에서
공부하였고,
##연구원의
##2015
웹사이트의
나타내고,
##적지는
어린이들의
##궤도에
네트워크로
참가하여,
##시기와
##보드와
##오스와
##네스트
##론》과
##집단이
##피하기
##비스의
##프리는
##대부,
후임으로는
##공신의
##안타로
##웨이,
##비치와
##런스는
##만일
##최근
계산하면
##게시
##히려
용어로는
##배열
28개의
스토리의
영화에는
##빠져
살인사건
##동경
##구려
정상으로
텍사스의
연관을
세대로
모음이
##펩
가서는
간부를
확대는
##낚
연장이
화성에
평면에
조성이
인지적
제정에
순환을
복구를
시인은
밀리는
투자는
동기생
무용을
후손을
보병을
입대해
자리의
육상에
누구를
울산의
마크를
뽀
##보통학교에
##인이기도
##삼았다.
서울특별시에
##상이라는
##2017
##누스에게
##물이라는
##드에서는
##자기의
##열에서
##그랜드
##투어를
##총리에
##대신에
##"로,
##웨어는
연주된다.
원주민들이
##테스를
##론》,
##메르의
##환경에
작품이라고
##범위를
##세자는
##은행을
많았으며,
잡지이다.
그리스도와
##니아스
##리코는
##검사로
천문학적
##동서
기존에는
구축하여
12개월
차지하지
사후에도
대학교수
사령관의
##종료
##천체
##계곡
##새벽
##상규
##승리
속에서,
조종사가
폭력으로
일대에는
##구매
협력으로
종족이
운영의
시위와
의혹은
49.
총리,
지시가
문서와
##學
2대가
27개
모음을
원산의
의학의
명성에
형성은
365
가려고
트리의
개명한
680
가야의
##っ
가고,
직원과
영지에
##땐
주력이
깐
formula78
formula1차
##단이었다.
##웨이에서
인터페이스가
##점이며,
가톨릭교회를
##리스트로
##플레이에
국회의원,
##구조로
제자들에게
##별로는
##최초의
##조선에
##집합의
##주시에
##의원,
##캐스팅
##데스를
##기록은
##체인지
##십자가
##이것은
##너스를
1650년
##식물로
##원군이
##원이며
##루이지
##선사가
전문가를
있는지는
정상에서
##제네
미국인이
##경향
포인트는
점에서도
##불안
합동으로
##무인
18년에
마이스터
##이세
11세는
##이유
##좋아
기호의
좌표를
"An
부동의
핵심을
광산이
##쎄
화살이
대기는
얻어서
마약을
##쥘
고도에
연구해
인상이
충격파
여왕과
연령이
##썸
뗀
껌
##codice
1943년에는
1966년에는
1953년에는
1939년에는
##시장으로
##차원에서
원인이었다.
##가이기도
##서쪽에서
##되었다:
##류에도
##우주의
##항공기
##인구의
강점기에는
##헤드는
##신문을
체계에서는
##위하여
##생물을
##집단은
##가스가
##이다,
##형성을
##ibr
동의한다.
##머리의
##밖으로
##웨이와
##이드가
##터리,
##크와의
##운드로
##법인의
##폴리오
오브라이언
##7.0
##더스트
##그렇
##용인
이사장에
왕이었던
돌아가야
##폐쇄
##확보
##적용
정확히는
##선임
##덮여
올리고,
한국도로
##인디
##고객
##어뢰
입자에
향상,
980
CEP
부정기
##ま
가스는
화학과
한계는
매장이
제2번
여왕을
전기로
##圖
50.
감소가
제주목
##힝
임대로
뮬
formula76
35,000
##류에서는
##전이라고
1888년에
##개국에서
##면에서도
자동차이다.
##플레이야
표기하자.
##표시를
##수사를
##부문에
##질이나
##sed
##ges
##영화에
##코스,
##아스의
기록에서는
플라이스토
##최우수
##대비가
군인으로서
##역이나
##-76
##레나이
##베이트
##-00
의미로서
거두고,
##확대
##민간
대기업의
##전송
##없게
##호남
##언덕
##모험
독자들의
신이다.
##가해
757년
헤이세이
본선에는
안보를
4대의
라인과
12억
만남은
사장과
1부터
등과는
##댔
야당은
무사의
군주인
저작은
협회와
1세로
상상을
쿠바는
갖추기
코드와
215
없기에
최소의
##멈
동지의
한양의
주력을
24,
원반의
항공을
##知
##챔
원작은
디스트
ㄷ
1959년에는
##odel
##연구원이
##랑이에서
##명성을
##카라는
##간이나
지구상에서
설치한다.
##김대중
출신이었던
중국에서도
##소리에
##비트를
##무부가
##광고를
지도자들의
공동체에서
##황제는
##77년
작품이기도
##코치를
##블로의
조정으로
없어서는
##누리
지구상에
교향곡을
##아테
##서사
변신하여
##설명
##출시
18일의
##기체
##차지
K리그에
##유학
부동산에
공군에서
인사의
의도에
합의로
취임을
합성에
종족을
작성을
의학과
성장,
음식물
고유명
입학생
테이트
심판은
가리고
아이리
탈환을
제57
분화를
코스는
##뷴
폭력의
990
##뢴
토르는
##ッ
°
?
1932년에는
1957년에는
##동물이다.
##도시로서
##로그에서
##관이라는
##방면으로
조정으로부터
아르메니아인
##onel
##기기를
##변이가
##ged
##아사히
인물이라고
##취하고
##iro
##있었고
순위에서는
##set
##지기에
1760년
##장이며
발생한다고
##모습을
##000
##화로,
1457년
예선에서는
##중국에
##디스를
##모습이
세력에게
통틀어서
공화당은
않아서,
15일의
##검증
##간호
이래로,
##왕자
범주에서
프랑크의
이전하는
거부하자
##탈출
연기대상
광주고등
관심사
총재의
형성의
병원과
##깡
광역시
그레고
발사에
포기를
목적도
상위에
범위와
동부로
무역,
##좡
개성의
추정치
교역의
양자인
군단과
##ㄷ
서북쪽
더해진
##얘
정면을
##】
오스트레일리아는
##atest
##보이기도
##대학원의
이름이었다.
##전으로,
프로리그에서
##공장이
##석에게
##품이나
일본인들은
##233
##마스에
##투스에
1450년
1688년
##다스는
1398년
빅토리아는
##레스티
##3.0
##바이는
월드컵에도
##집단을
플로리다의
폐지하는
조카이자
##힘이
들어서서
지역에도
##혼란
의미로,
아이디는
##주장
명나라를
##딸인
이사회에
이상이나
칼리지에
##병력
14.5
1985
##모듈
목소리와
중력은
22세
개선과
48년
공원과
트리를
학사,
명이나
유적지
인사와
지표를
종사자
##갸
동작은
211
베이지
"Sp
안정복
빌리지
피해에
##숀
##ː
선수상
꺽
볏
췬
formula80
조선총독부로부터
1930년대의
1952년에는
1956년에는
##eder
기부하였다.
##광역시청
텔레비전에서
##리지만,
##보호를
##분이나
##시장과
##창시절
##어가고
##인디언
##편성과
1498년
##우치는
##트라의
##부인을
이탈리아나
##부하고
##티에게
##나르의
##도로스
##나다는
##본부에
다운로드를
##모리를
사무실에
집단에서
##노벨
이름이나
조선인이
##좌우
속에서는
##사과
11세의
행성에서
제작사인
##폐지
요리에서
##관객
나머지가
플레인
전자,
현대중
앞서는
번역,
원자에
라이스
종이로
북미의
득점이
주소로
239
사제의
식품을
가는데
비트가
##時
데이비
라이오
γ
##한다"라고
##트라우스의
1949년에는
1944년에는
##인권위원회
##리우스를
##적이지는
##피스에서
14,000
역사적으로는
##가에서는
##행정기관
##회원으로
##왕이라는
##목적인
##조선은
##정교회
##1번째
선거에서도
모임이다.
##부르는
##자격을
##imm
##발전의
##국가에
도시에서는
##치는데
##병이나
성격이다.
##세력에
##신성이
##노르는
##모임이
1575년
##데이라
유럽에서의
##편성,
##탑재
##구분
##신생
##없어
전까지의
##자랑
##손해
스위스로
##마그
##조종
마을에는
##스폰
하와이로
##이원
버스에서
복제를
세대는
맞서기
발현을
피해야
자원에
회사,
다다른
여자로
협력에
싶어서
클로로
마루를
##챘
초대를
대리로
우주인
아오키
1948년에는
1924년에는
1950년에는
대한민국에서의
##사람들은
##ifor
##예선에서
##시즌에서
##타로,
공간에서의
개인정보를
##는지도
국회의원의
성질이다.
아이디어가
##정원의
##구역이
마르크스와
##반대로
민족주의적
##서부,
노르웨이어
##상이라
##IPS
유대인들의
##무인민
과정에서의
1547년
1595년
상태에서도
위원이다.
##부과학
##umm
##인도의
##타로와
##실제
##지표
의한다.
합동참모
들어오고
식물에서
장기간에
##2천
##데뷔
##무엇
포도주는
##朝
##믐
광고,
구름은
판단은
세우려
가지만
것에도
자원과
명성과
36개
코치는
유통을
총선이
운전자
논의의
성경이
시에도
천도를
##海
배상을
부사로
221
##神
안타,
사단에
뉴스와
인종을
탈락을
강점
헴
꼰
1961년에는
1937년에는
1908년에는
##2015년
##사우루스가
##물리학자
##26년에
##독일의
한나라당이
##량에게
임시정부는
문자이다.
##비트로
##-77
##오와의
##요소가
##러리가
제임스타운
##이러한
##팀에게
##제국을
##-96
##199
##헤드의
##법이라
1540년
##바르는
##었다:
전투에서도
1599년
##티스와
##청구를
1655년
##인지의
##호선에
##코가와
##사양
문서에는
##교토
통해서,
##야간
##전형
그중에서
사건이나
##정말
##공중
클래식의
지지하기
신학교를
맞이하고
##고정
##7개
전투기에
궤도에서
##전후
철도에서
상상의
노트를
숙청을
투어가
국토가
##칵
회담은
것이오
에도로
편성과
탑승객
이치에
제31
##化
부대표
산화물
##方
90년
235
8.0
다이고
파이트
메이시
닥터를
1907년에는
1929년에는
##경기장으로
##보병사단의
프로그램이나
표기하였다.
증가시켰다.
##성군으로
##트리오스
##드로스의
##40년에
크로아티아는
##마을에서
##감사에서
##현장에서
플레이오프는
광주지방법원
##파티아
##작가의
이야기하고
##기업을
대한제국이
##대에도
##제2차
##능력과
##작업이
1768년
폐지하고,
##조정을
세계대전을
계속한다.
일본인들의
##’로서
##법이란
설립한다.
##장관,
##이하고
##오스를
종교적으로
##마스는
1558년
주관한다.
##실이나
##타카를
##펠리에
##구간이
##데르는
##준결승
##자신이
##기지의
##모드는
도구로서
##맞지
##흔들
##입사
##정식
상하이를
2300
이끌고,
청동으로
여자들은
##심장
##정조
##인공
##접근
제12회
로드리고
두개골을
이사회를
##미토
##진짜
높이에서
인디언을
##보충
소스로
경주,
소비가
##δ
만화에
2위가
##숴
회전이
극장에
내부와
지대,
##쉘
신경계
저장소
##꿋
포위한
26,
감소는
나오키
##新
##君
순위로
찜
놋
덫
н
##조사에서는
1928년에는
1931년에는
##세력으로
##2014
1860년에
##위로부터
##ives
##드래프트
##공학을
##imu
##264
##트리를
발달한다.
##변이를
방법으로서
##재산의
##보에게
##고리가
##프라고
##구로서
노르웨이는
##동부,
##티아스
##리나가
##정도가
##》이란
##-38
##마사를
##SBS
##후에도
##극장을
##소장을
##고에게
##부사와
리그에서의
국제사회
##참고
일상에서
##중반
##가속
오페라는
콘서트는
아리스타
##대거
##면역
일정기간
이르고,
정상에는
11개월
##노란
보건의료
영상에서
##베네
대한성공
전당으로
주석,
회전에
벡터는
원형은
22만
구상은
MSN
공직을
심장의
기도는
거부를
주도록
##텅
마리와
전후,
회원의
37.
호주제
화가로
국도가
당시를
아오이
5개를
셉
귓
日
##과대학교에서
엔터테인먼트에
1921년에는
##2005년
##령이었다.
바르셀로나와의
##비즈니스
##ader
##바이에른
##amer
##지냈다.
##연구원,
##otor
##아버지인
##사전을
##인구가
##변수를
##회장과
##작전이
##기준을
북부에서는
##행성을
등지에서는
자본주의를
기원이다.
##전기는
##에스테
##충분한
##저우를
##량이나
전당대회를
##문자는
##리아니
##네이스
##iec
1585년
##타가야
##선교회
##차로서
##간행
발전기를
장관직을
##붙인
##신설
무관으로
##양호
이벤트에
라틴어와
##징역
하이드리
전문가인
##요새
12세가
##전해
플레이에
장기하는
진영이
위성인
농구,
공사와
##あ
것이어
철도망
간부가
기대와
ISS
입대한
왕실이
화가인
신성을
##г
기대승
3개국
##я
세자를
아사카
우리와
이적은
##갠
리가의
Ale
##녁
보스는
2대를
음반사
스탈
formula77
1954년에는
1935년에는
##경기에서는
##동쪽에서
##학생들이
##바이올린
1876년에
##시오페이
##요일부터
##orte
##케이스를
##조합의
##후보를
##그것은
##공학의
일환으로서
##들이기
##능력에
##회로를
##서쪽은
##브로드
##토르의
들어가고,
##원군은
##이사의
##하이는
##백색의
##키아는
##미르는
##랑이의
조카이다.
##마리오
##노르트
##이치와
##시즌의
제자였던
정교회를
있는지,
31개의
운동에도
항성에서
##풀려
##종족
오페라,
중세에는
국무장관
중추원의
##누구
한쪽으로
시절에도
조상으로
경기로,
성경에서
선수들도
지중해를
##창업
11.5
부하에게
아스키
표기로
중시조
전기는
확산에
그때는
것도,
일이나
국토를
전원의
숭배를
사기는
출현을
국제수
서명이
Men
전부의
신하의
##맣
외부와
선정해
이치를
이해의
##챤
연대로
전후한
알바로
##自
223
마이즈
비로,
숍
수록되어있다.
##점이기도
##값이다.
##도시에서
##신이며,
##중이라고
##베이에서
##트로부터
##동부에서
공격으로부터
##하느님의
##용으로는
1880년에
여러가지가
##역사적
하드웨어와
지나갔다.
##로그의
##리아나
프로젝트와
##DNA
##리다는
##준비를
##조선이
##주로,
##행위와
##대장에
포기하고,
##프스카
##top
##종이나
##국이라
##Her
##수소를
만드는데,
이름이기도
##카스가
##아트리
##협상에
시작하는데
열차이다.
##밀리오
1546년
##라스터
생각이었
총선거를
건너가서
##최대
##방출
선전하는
##캠페
##지내
##비틀
##중재
통합의
주석과
차이와
한쪽은
모음의
코어는
구분해
흑인이
행사,
득점은
그중에
470
##얌
손자가
변호를
머무를
사과의
남자,
지어서
##色
포도를
인사는
헤이시
사제와
에스트
##ب
유튜
1930년대에는
##선이었다.
1926년에는
##시장이다.
##시리즈에서
##유적으로
##국에서도
##부문에서
##공산당에
1870년에
##무부에서
##무관으로
##천군에서
##중에서도
감독이었다.
##트에서도
##로지와
브라우저를
상호작용의
##디아가
들어와서는
중화민국에
##요리가
##능력의
##중에도
##기사를
##러리와
##론》은
##수원을
##총리의
##재료를
텔레비전은
당나라에서
##이집트
##메리는
##인지도
##비오는
스테이지는
길이다.
표기하기
성장으로
##복귀
##안티
일본인과
13세에
##유년
##고향
제자들은
유대인과
##선출
플레이는
##여론
여자들이
측면에는
##밀어
전면에는
벨라스케
경력으로
##억제
36개의
##역전
대로,
분자로
55.
##웜
석유의
창당을
인기로
전면의
##ア
수집을
습격한
##集
예수와
시계가
##也
##以
214
제자들
되찾는
제77
##名
##敎
##宗
★
##세계적인
##드로부터
##iles
##전투에서
##계에도
없다"라고
##랑이가
##지역,
##노선이
##산하면
##협력을
의미하고,
박사과정을
시장에서는
발표된다.
가까이에서
이하이다.
##유지를
##라이온
뜻하는데,
하인리히는
##리에르
1596년
##아리를
##베리,
1468년
1646년
##건이나
##철수는
##하이의
##차량의
사용자에
4500
일본에도
##이중
인도주의
서울시청
##부속
##육성
교향곡의
내리기도
국제기구
##왕비
##위협
정면에서
운전자가
3년에는
경제기획
수원으로
##등판
프로스트
##출장
탄소는
연장에
신학,
일로,
##こ
아스테
말이었
재단에
SMS
천체에
가서,
대구에
백인과
눈에는
석유가
관중의
인사에
대의를
되찾을
유리,
보아의
배제한
해제를
폐지가
이시카
이자를
코치의
##ш
교구가
##랸
스타워
찾는데
남자로
싱가
헉
훤
닻
쌈
1941년에는
1919년에는
##회로부터
##름이다.
##전자에서
##군으로,
##2016
##바키아는
##라운드로
기점으로,
##이다”
##인지가
##문자의
##족과의
##체제는
##혁명은
##이론에
##가루와
##정도를
손자이며,
시나리오는
텔레비전에
##블로는
아들이라고
##따르는
##머리로
##전이었
1676년
##교차로
##히로를
##루스코
Under
프로듀서는
관심사는
광산에서
정부와의
있다면서
서울시의
나이에도
##보완
메모리가
국제정치
주석으로
##야당
그중에는
##그때
전두환이
##다지
유지하지
2700
현장으로
영국에게
섬에서는
##불구
##영지
민주연합
온라인은
##임대
화학의
##밖
개방을
연기의
주류가
재즈의
##넸
선전에
11~
윈도,
재생을
정도와
피부와
경우라
창단을
군주제
회원,
군사에
용어와
##븀
보수가
##궂
##像
노비로
##體
당초에
영주시
보스포
가라스
학사를
노스웨
신장이
##も
뭘
##성이었다.
1933년에는
##관학교에서
##체계에서
환경에서도
##지구를
##ias
##구성원
##경기의
Commu
##오리의
라틴어에서
##지식을
##강하게
전당대회는
##그들이
1754년
##끼리를
##아나의
##이상이
##유학생
##선이라
##커스가
##손에는
##75년
1654년
##트에는
##시오가
##세이션
##필드와
##모리와
예상대로
입자들은
국방부가
##주거
아파트는
천문학과
이것들이
##시그
신학교에
##빠진
녹색으로
행정부가
동물에서
##독점
##명시
##소개
이동시켜
기념물로
운전하는
##몰래
그라스
구별은
이바르
부호가
모터를
##맺
연대,
입법을
제54
3일의
지명에
받는데
묘사에
무리에
띠고,
예방을
##ㅇ
##見
신사를
무장의
프리즈
갬
##상이었다.
1934년에는
##화산이다.
##잉글랜드의
##ether
##바이트로
부분적으로는
##받으며,
##선생의
##50년
##270
지향한다.
약속한다.
##리어,
##드라의
##뉴스의
##리오가
##세기가
##려면,
##코스에
##어버려
##적에게
1577년
##반대의
##양성을
##INC
##이하여
##내리고
지구에서는
##마자,
##대대와
##면이라
2014.
##대와의
에이스로서
##차량을
쓰이고,
수도권의
##중동
##유출
입자들의
남부에는
##스핀
시도에서
##배급
##확산
가수로는
루이스가
##해산
말이며,
구조로,
받지만,
##부서
밖에서는
Prod
Prof
##젬
99년
지나갔
양반의
##뚤
PDP
모드,
사막을
투자에
평론을
거부로
##女
부장을
##맡
작곡의
위성에
출력의
세자가
경주는
31개
##長
##윕
숟
넙
웍
짖
1958년에는
##사우루스,
##공원이다.
##정이라고
이루어지는데
##점이었던
##20세기
1878년에
##안에서는
##스코트는
##아시아나
##2009
##엘리베이
16세기의
##노무현
##히트를
##순위를
##%로,
##자이고
##회장의
나타나는데
##성과는
##주군에
대회에서의
##시절의
##도시와
드라이버는
##로에는
##스웨덴
##동성이
##도시는
지중해에서
##-28
##대장의
##퍼드와
1544년
##둥이가
회색이다.
##문학자
##ito
##수리의
시드니에서
##가상승
##검사가
##페르트
##미하여
##필드가
1658년
아우스트라
중추적인
##이슈
한국에도
##자신
##사형
개성적인
들어서,
통해서는
북부에는
공부하던
##한일
변호사와
##없고
##바그
선교사를
자기에게
11위를
##성균
선교사의
몰아내는
곳이라고
중동에서
회장이었
제임스가
라이브로
달리고,
제주의
항의가
비가환
위기와
악화를
##쾨
도서를
56.
화성을
그때의
##쩐
##ω
꼬리에
협력이
##ç
##ə
아이기
대대장
위원은
연간의
998
진화는
평등의
대수가
장군에
정도전
삼성이
##냇
##曰
시계는
마오는
1호의
백색의
시드는
뵐
긱
국가대표팀이다.
##과대학에서
##연구원에서
##화가이다.
##운동에서
##중이었던
인터페이스와
##진이라는
엘리자베스는
이르기까지의
##작으로,
##하였다,
말레이시아는
##-238
##라운드를
##베르토는
##조사는
##워드의
##토리얼
##레인의
남부에서는
##의원에
##위성은
제작된다.
##버그를
##피스를
##전기의
##ANA
나라에서도
##비치,
##리어의
##동시켜
마르크스가
##우라고
##모니가
##토너먼
##비행사
##라도주
##마리로
##트로서
##아이는
조선인을
##남한
구성원을
지명에서
더욱이,
##타협
##출발
##수립
##비극
캐나다가
##아홉
차지하려
내용이나
들어가야
정원에서
현대에서
##2위
##JR
에이드리
나폴리를
조종사는
##호수
##고고
##여기
장기하와
입력에
수사의
윌리스
손에는
장수의
원반을
제어가
나치는
목적,
교역이
통화로
기지와
트리는
확대한
##꼰
부정의
##平
##愛
##헛
9.5
##밝
투자의
##㎞
게르트
Dec
행정원
셧
쥰
##발매되었다.
##되면서부터
##어들었다.
1947년에는
##관계에서
19세기부터
##아버지의
##무장관이
##."라는
##행사가
##입자는
##형이라
##헌법률
##러리에
##310
##트로,
##림이나
##궤도를
##드에는
작업이다.
##현상에
##280
##기구와
##소문이
##자체의
##ato
##역사의
##세기를
등장인물이
##통신사
전쟁에서의
##국가와
##투르크
##미디아
##프스를
##라트는
##오프라
##폭력을
##비스가
##인에는
##요시에
##손에게
##이상을
##다리의
##서에도
##돌아가
활동이다.
1640년
1656년
##투수가
##11,
##중기의
##집행을
##재단은
##티아는
##영남
국정원의
한나라는
##이화
##저택
명이며,
덴마크를
##레코
##곤란
##봉건
##엔딩
##특허
1920
부가가치
명나라는
##청동
것이기에
카이스트
##눈을
##맞이
대만에서
명단에는
부동산의
통상을
감소에
흡수한
##水
가스와
이해,
환경부
침해를
교류의
쇼군이
호수,
코스로
꼬리의
쓰기를
피고가
바그라
한쪽의
라인에
부서가
##ό
##光
잡지,
받기로
운전면
여진이
가려면
병원은
메리의
채권의
전진의
시와의
씀
왠
formula2,
작품이었다.
인도네시아는
이에야스에게
##함이라고
##스피에르
##작품의
황제로부터
##일치를
##제국에
##사전에
##둥이로
##교사로
##천군과
##신하며
##의원이
##한다,
##대기의
##단이었
세인트로렌
##외국인
##오스가
##있으나
##화에도
##무기가
##진정한
##나이를
##사격을
##미치의
##들면서
##형제는
##16,
경유한다.
##조와의
##리노르
##시스가
미군에게
자동화된
##한강
##3·
의도에서
##위장
##표면
발달하는
##패턴
목적이었
전자전달
##땅에
1976
##설탕
##멸종
상원에서
제주도를
##선고
##주문
명이었던
사무실로
##목포
##아베
##일조
민간신앙
담당해
수사와
대상,
정리,
분배를
에스키
도구와
추측은
##ち
손자로
소수에
곳이나
소스는
5대조
대구로
58.
박사에
정상이
신분은
1번의
깊이에
종전과
쓰기로
기름이
공동성
항성과
##語
580
계곡이
사유는
왕이자
##主
흔들어
대전시
##會
제55
##六
ICE
방면을
570
##字
방문자
##元
Sen
켓
갭
됭
##대회에서는
1951년에는
##그리스도의
##스피에르는
##식물이다.
##학생들의
입장이었다.
##프레스는
##텔레비전
##마이스터
##사단으로
##시칠리아
##형이라는
바르셀로나를
##2013
넘어가면서
배경으로,
##극장,
지지하면서
줄어들면서
국회의원과
##행위,
##하에게
조건이다.
##말로,
##변화가
##210
사용한다고
##아스포
##정치에
##터리로
##요소로
루마니아는
##그로,
1549년
##노리,
##의해야
##우리에
일환으로,
##범죄를
1664년
##세자로
##세대는
##퍼드에
##기자리
확인하여
천문학,
##거주
23세의
##산타
항공기,
국내에는
박사과정
기자들은
##취약
##마틴
마무리를
번역으로
##해설
감정지능
대화와
각종의
스승을
재배를
포트는
유로로
교사인
##썰
##定
제70
정조를
##德
##都
"Su
##팻
##だ
##་
튤
κ
냐
##과대학교의
1990년대의
포함되어있다.
##일으키는
##자이고,
##아버지가
세계적으로는
##연구소와
##권이라는
##청이다.
마드리드와의
동아일보는
##성과의
##철도로
##주시,
##장거리
##콤팩트
##재단을
해외에서는
##져서,
##최후의
##정권에
##교도가
##헌법을
올림픽에도
##릭스를
##방에는
##철학적
##산군,
개발한다.
##위로서
##oto
##비율은
##이들과
##토리가
##전자,
##아서,
##령이나
##크스에
##검사는
##레이라
##포트를
##빌리티
##-31
##5·
##나누
##여덟
2세기에
하나이자
기사단은
##전남
전주에서
이미지,
인류에게
##충청
##외부
##자바
##이리
재임기간
판단으로
신학적인
##해체
돌아오고
23년에
곳이라는
21년에
해리스는
국가지원
##에버
당사자는
##지속
##미얀
나폴리는
##탈퇴
선수로도
무신으로
수수한
의식,
Sur
취소를
이때가
법학,
부르크
맞아들
무신,
##羅
구마라
공직에
985
점은,
수천만
다다카
신성과
선조를
카라스
진출입
현장이
##理
알아사
화장을
##田
2위와
^
데이터베이스의
##공무원으로
##중이었다.
##경이었다.
##스코틀랜드
##게임이다.
경제적으로는
##화되어,
##대학원이
##하나님의
##군주제를
1864년에
16세기부터
조선총독부에
##부르크고
##ices
바르셀로나와
월드컵에서도
##단지로
##총리,
##었다"
##조사와
##이하는
##안전부
##2세로
##평등한
##리안의
##당이라
##남쪽은
##코스로
민주주의에
##정이었
##자료가
세르비아는
##그렇게
##토르는
##미아와
역사이다.
##나이에
##직원이
##후기에
##주제가
이에야스를
##마사,
2015.
##차로,
국제공항의
##트라가
##모르의
공간이라
전까지만
공무원을
보여주어
마지막을
##사천
순간부터
##순수
건물에는
##헤라
##창출
1세기에
연속해서
등에서의
1860
##살려
##카메
사무실이
경기장과
전투기로
승강장,
##덥
평생의
유리와
오후,
설정해
도구,
전동기
참전해
탄소,
32,
수비가
화가,
##엿
나이의
난민이
##錄
무대의
명문화
궤도와
보니,
군사로
Hen
구조상
반대칭
960
##□
대장은
##爲
SKT
##出
##／
개국에
푈
天
##ident
##학이라고
##방정식을
##아인슈타
##dent
##개발사업
##권이라고
##국으로,
대신하였다.
##요일까지
한반도에서는
##크리트를
##란이다.
##agem
##사무라이
##물이라
러시아인이
자본주의와
##피해를
##통신을
##영상은
##이는데
##기반의
##소로서
##생물에
##AMP
##티스타
##NBA
현지에서는
##동쪽은
##천주교
이벤트에서
##진과의
##구리가
측면에서도
1665년
##화물을
자유주의와
축구단으로
##카르는
버스터미널
교수에게
25년에
2400
레이다의
노출시키
사실이나
##주요
##오직
연대하여
양쪽에는
##제5
이사장이
##수렴
아이리스
제임스의
마침내는
어워드를
##믿
만주,
평등,
투자와
연고를
왕족과
소수를
사후의
독자가
5일의
지지는
55년
##쁠
고리에
논리가
협상의
이전해
##シ
노비가
무리와
신장의
##堂
275
조지의
시마다
##냑
##さ
##臣
햐
##지방법원은
##2002년
1927년에는
##할아버지는
##2000년
##애나폴리스
##물리학의
노동자들에게
1868년에
##3년에서
##되었다면
##최초로
##퍼드,
##지어진
##요일로
##소식을
##탄소가
##125
##미치가
##바이에
##시스와
##메인이
##관리의
##토스에
##철학과
##리기를
##위에는
##층에게
##동이나
##'이며
##의식에
##구르타
##대대,
##파크는
##She
##범위가
##-75
##그녀는
##연관
자연계에
일본어와
포인트로
##화면
기자들의
유전자와
##니콜
인구조사
뒷받침해
어린이는
자리잡아
공무원,
##생각
없다면,
아파트로
##라파
30년에
##태조
스토리와
##성종
당사자인
##남극
##마오
이벤트는
진출에는
받지만
결과도
분자에
"이제
연산에
후기로
한자와
주행성
57.
은하계
##軍
다소의
편성,
나가면
기도의
공군을
사전은
사전의
규정의
자세와
시계의
경기관
무기에
모으면
##눙
곳이며
파르크
정면의
##ع
뗏
짰
칫
겟
1950년대에는
##말레이시아
##고한다.
##공간에서
##철도에서
##광역시는
##히로시마
##방법으로
##4000
##ston
상원의원으로
##ackg
일부분으로
3000년
##화학의
##입자의
철학자이자
##사전의
##라인과
지도자이자
##아들은
할아버지와
##논문을
##개인이
##하다시
##tel
조선인들이
##브라질
##260
##음이나
##하에는
##30분
것에서부터
노르웨이를
##코프와
##4.5
##군사적
##행사에
어린이에게
##550
##iol
##장군,
##비로서
##극장은
시간이다.
##아키는
##마사와
##농촌
이외에,
3가지의
제주도로
##요미
게임이나
방식이었
##탈환
없어서,
관통하여
스위스에
개발사업
활성화에
사운드는
##유고
클라우수
흑인들은
미국에게
전투기와
##마케
추기경과
##연고
모양이고
칼리지를
화학을
중력과
논문과
길이,
기후,
비트로
유기체
디스토
39년
전력에
동화를
특성,
하기를
765
원형에
후기,
공군과
이성과
로스는
255
권고에
33개
계곡은
에도에
완공을
사도의
1층의
##南
잡지가
수원의
아오바
##ド
##カ
진주목
룀
##들어간다.
1942년에는
##지역이다.
##대통령의
대의원이다.
##장으로는
##하우스가
##세우스의
##권에서도
##미사일은
##파로부터
초등학교에서
##포르투갈
##민이다.
살해당한다.
##-500
##들어가는
내셔널리그의
##러스와의
올라가면서
##요일이
사람이며,
다음으로는
한국인들이
##라가나
##있음을
제기하기도
1657년
##타입을
##대사전
한다"라고
##그대로
##센트로
노르웨이와
##850
##위성이
부인이다.
##버트가
1542년
사상이라고
##주도록
##시스,
##66년
##네스티
것이라고도
##기사와
##고에는
##정당은
##더스,
이에야스와
##기구로
##유신의
##여왕의
##리히는
##성군이
##마크를
##서로,
##디스탄
##지기로
##페이는
##치아는
3가지가
대화에서
사람과의
##5개
##3천
사령관,
때까지도
##조립
베이스는
리눅스는
3·15
##지불
##당사
##김종
것이지,
국제사법
목적지에
막아내는
##사료
660년
##일상
##에피
##제휴
##찾기
##생기
갈색으로
사운드의
예선으로
##첵
신화,
실력에
228
집에는
않기도
흑인을
88년
660
Bet
출시와
시라크
오스미
가마를
31,
빌리는
영주로
사단,
들고,
김영광
파르트
쪄
힝
formula85
##2004년
##아들이다.
부산광역시에서
##보병사단은
##론이라는
##부대에서
##오른다.
##조선인민
##레스트로
##》이라고
##드로스가
##1년에서
##폴리스의
##성에서는
##목에서는
##품으로는
##사라고도
건물이었다.
##2010
##-135
##디자이너
##공무원의
##Rem
##부장은
영역에서는
##Ser
##로그와
##코와의
##너스는
발생한다는
신화에서는
##개국이
##공장,
##정권은
은하이다.
소속으로,
##서부는
##세에도
##조지아
##심사를
사람이기도
##주거나
##아들의
##연구가
##수수와
##아마이
##사면에
1548년
시나리오가
##높이는
##편성에
##타르가
##"로도
##쿠라가
아스파라
예정보다
##실수
##요청
20일의
기구에서
##선호
리눅스를
시기에도
거주지가
발전기는
##에드
##적색
##실현
##사망
##불리
동물이나
장관에게
달아나는
동시대에
##청주
사마의가
스위스를
##상주
인정해야
일부로,
건물로서
##어른
##혼합
제22회
##선물
중화학
적지만
보관해
기사,
주석에
실망을
전주에
당선을
그만의
흑인과
일대와
생기자
하나이
도입은
테마가
참모로
도주를
살해를
한국도
##同
일정에
##갛
복제품
대화의
조선사
후일에
48개
신인이
자손은
동기인
##八
192
달성,
"Sh
폴리에
아이라
IPC
푀
##서울대학교
##초등학교를
1850년대
가운데에서도
##색으로는
##버리고,
##내에서의
##프에서는
45,000
##마이다.
##왕으로,
바르셀로나가
##신임을
유지하고,
##부장과
##총리와
##12,
이전까지의
##언어의
##세대가
##신이었
국회에서는
##650
##코드의
쓰이는데,
##오리를
##인간이
##노스를
##철학은
##인들,
1642년
지나가면서
##위성의
##노부를
##성군을
##공군이
##선수를
회원이다.
##-33
##루이드
##크라고
##천군은
##노트의
마드리드,
출시된다.
상황이라
##유엔
3세기에
##단어
제3세계
##경력
비롯해,
나누어져
여왕으로
독자에게
##질병
##강릉
##멀리
120여
##고발
##신흥
문재인이
##개업
프리스트
193
자기는
##왑
제80
Len
메이는
아스피
##⋅
논의한
미치기
예측은
업무용
루이의
성인을
##돕
코스가
작사와
강화가
신사가
전남도
9.0
연대표
##샛
우익을
##重
신고가
##想
##タ
투수와
한신이
괵
촐
1923년에는
##물리학에서
##보장이사회
로스앤젤레스,
##족이었다.
##리로부터
##남아시아
##플레이와
##태평양의
시리즈에서도
##스튜디오
##군이며,
##ilen
##곳이다.
##신학교를
##들이라는
##단계가
명나라에서
##위치를
##플랫폼
대학생들이
##박스를
##엔지니
##행동의
##단지와
##돌아와
##민당에
##어들을
##모리,
##구역,
##선전철
##닉스와
##터리와
##타입은
##세이가
##곡이나
요구사항을
##부대,
##쓴다.
##놓고,
청나라에서
임시정부와
##나고야
##그로의
##자키는
##다이로
##노부,
석사과정을
##라이와
##명칭을
##머스는
##:10
##도어는
##쿠라의
##중도는
다리에서
##이러
##수반
유대인,
미디어가
집안으로
메모리와
##소멸
의사이자
##이번
번째로,
2800
온라인을
화가로서
대회에도
##급제
콘서트가
##주립
왕조에서
인지하는
못한다면
##승차
미디어는
수록곡은
이온은
문서,
##삶
점이나
##的
공개가
조명이
부사장
도전에
강도와
에르고
줄기와
영역,
항해에
보호의
왕이나
추방을
35개
재즈를
제75
차트를
보아가
댄스를
##後
상주시
화재는
사무관
확장,
통화가
1부는
##物
부처를
전주의
상원에
섬유를
회색,
자기도
대장의
##分
니시오
오가타
돤
【
##자들이었다.
##자들이다.
##2003년
1910년에는
##하더라도,
방정식이다.
대통령으로서
시작하는데,
##에너지는
##임시정부
##통신사업
##감이다.
##체제에서
##변이다.
##함수로
##파트너
##서부와
스타디움을
##마리,
##년이나
##이스가
##장치로
##김일성
##본부로
모드에서는
##처리가
##학과는
##피스에
##소스가
##Sou
##6개의
##라스에
##누스에
##웨어를
##업이나
##단지는
1766년
아프리카를
##변에는
##종교적
##치아의
##커스와
##명이라
##자체는
##히트는
##일으킨
##작위를
##수리는
##목에는
##메이저
##230
2012.
##장에도
##파크의
3학년에
합의하여
##구릉
경기도와
기술이나
연장으로
##천연
스토리로
영향력에
##호주
종전까지
##유일
요소로서
##공통
##미군
브루스터
블루스의
작업에서
작품이라
거부하며
일이며,
쇼군으로
계곡으로
##완료
22세의
목적지로
##예능
피에르는
##재즈
유럽의회
장군,
에도의
49년
갈색,
초상은
131
논리와
##탯
독자를
통화는
제90
구역과
해소를
전사가
선수도
모집을
재생성
흡수를
현상,
던져서
동의한
봉사를
사과,
del
##七
부장이
소수는
##百
##部
##ㅅ
238
전역,
나고,
완화를
수사로
##뻣
코너는
출장,
밀리며
역은,
줍
떤
##유고슬라비아
1912년에는
##관으로부터
##리케이션
##ages
##투스에서
거부하였고,
##파이스토
##아이다.
##iden
##모스크바
##물로부터
##정에서는
##종으로는
##마쳤다.
이동시켰다.
##레스티노
사우스웨스트
##드라이버
사건이라고
##표기가
##되기로
##경찰이
##대사에
##수소의
##외에는
1390년
##노선의
주변에서는
##양식이
##시기의
##없다는
##지기,
##런스의
반대한다는
작전이다.
##릭스가
##세스의
##클로로
##제로는
##지내는
##푸르트
##나이가
싱가포르는
##리나와
##목표를
##이기로
##중추원
##급의료
관련하여,
##역이자
##웨이로
##운행을
##프리의
최고속도는
명단이다.
##요크는
##6개
##파트
노무현이
직원에게
때부터는
한국인을
7500
항의하여
루이스와
목소리에
##중지
3200
인상주의
가지도록
하에서는
국민의회
50년대
버전에는
##생애
10일의
최초에는
포위하여
##조광
기동성이
##실시
##가려
수원에서
34개의
상태로,
추대하여
중시조로
##대변
인생이
계산의
ATV
주어,
극장과
순간의
액체로
삼아,
Del
무리로
감시와
일에서
모집에
표명한
##핥
아카데
태국은
동시간
천체로
항구와
광산을
212
응원을
추대를
대화에
##ū
##立
당시인
신호와
CFA
자이르
비상용
##別
다큐
텀
뻣
1914년에는
##2007
##층에서는
공용어이다.
##선이며,
##기까지는
##차이나의
##하에서도
회원이었다.
##’이며,
##하는데에
##리에서는
##관이라고
##제이며,
##행이라고
##내에서도
##메이트로
##지명으로
##보기를
한편에서는
##플러가
##위기로
##136
##있어,
##amu
##조치에
##이승만
##전력을
현재까지의
##형에게
##기구,
##마스를
##망이를
1670년
##관리는
##입대를
##포스를
가지지만,
##비용의
##서에게
##소속의
##포트는
##위안은
##비아가
1466년
##올라가
##학사를
##재단이
##법인이
##목이나
##제프는
##화가로
##신경계
##나이제
##결성을
##온라인
##보드가
리그에서도
이어서,
하기에는
경제정책
거주가능
올라가지
우수상을
원인이었
역사상의
백성에게
다이노스
##주변
기초과학
콘서트의
##조용
결과에서
라운드로
자기부상
##따서
##오후
약속하는
##수습
급진주의
흑인들을
##마찰
##시상
매장에서
사회사업
피해도
1회의
Les
마치는
34,
정부호
원정이
종이의
차이,
동해의
부서로
잠시나
56년
내장을
여자,
생명은
인권의
결정해
##ク
19시
가이즈
229
##官
조항의
고조의
사기에
사자는
##딥
오브레
레인지
1군과
ε
갉
땔
뤽
##2012.0
##들어갔다.
##under
데이터베이스는
##나라에게
1865년에
##감으로써
##카이다.
##’에서는
##마르크스
##산이며,
##브리어로
##"으로서
##gent
##-120
주제이다.
중화민국을
공간이며,
##퍼드를
##그에게
##대부와
##화물의
##스마트
##동부와
##형제의
##세이의
##사면을
소비에트의
사실이라고
##공격에
자이로스코
##관이라
가해졌다.
##칠리아
##이사회
##규정을
의회에서는
##계층의
##극장이
마을에서는
##수아비
##마을을
1464년
##투자를
상태에서의
##의사를
##병력이
##현이라
##문과를
##경부인
방법이라고
##관리가
모양이며,
후보로서
오후에는
길이라고
문제로,
##개최
##특성
제기하여
말하는데
후기부터
##복수
응원하는
한국인은
##주관
보이지는
##추방
##조기
##판단
제1호로
마사유키
이사장은
프레스토
우승에서
1차례의
##龍
이에는
원정의
전년에
와이즈
1인,
76.
국제정
얻지는
장기에
대장을
진학,
왕실은
창조를
이성적
아라크
육성에
철회를
도주한
제66
높이와
개량이
주가는
신도가
청주,
98년
처리와
##川
이기도
주력은
모토는
자이나
mm의
제68
인지도
설정의
##如
소속해
강등이
경부로
##身
½
탠
θ
뭇
в
##order
##신이었다.
##arden
##지어졌다.
설치되어있다.
아르헨티나와의
중심으로부터
##방면에서
주장이었다.
##6000
##차기까지
##지구에서
##금이다.
##타이다.
##rade
##보이며,
##로스에서
##전기에
##오페라
##가스,
##르기로
##입자가
##면이나
##펜하이
##370
##철학,
##남쪽의
민주주의는
##네스,
##모델은
##영역의
##서부를
##기반을
##닉스,
인물이며,
출신으로서
##점은,
국가에서도
자유주의의
과정에서도
##"에게
##일체의
##함이었
시장에서의
##트로는
##개국에
##일리와
이름이라고
##해군과
##산군이
##항공모
##검사,
##줄기의
1578년
##페이의
##말기에
K리그에서
##뉴스를
##자이언
노동자는
관심사를
복원하는
##국무
##다중
화면으로
음식물을
남자들의
##발효
조지아,
국제주의
무역으로
나아가게
##매출
왕위에서
특징이며
조선은행
##창설
에도에서
##고조
##열매
##의존
##3루
그라비아
당선이
가스,
인사,
화성과
중동과
상위의
FAT
출시가
코어의
금지,
아미가
강점을
산소로
11억
개성과
아리스
고전파
신학생
시조의
이스파
21번
예산에
아마루
에드가
눈에서
협력과
코트를
##府
부상은
인디즈
##言
칠레는
뮤직을
쎄
美
퍽
†
쬐
ㄴ
었
툼
formula90
##무장관으로
1945년에는
1922년에는
텔레비전으로
##하이다.
##통한다.
##수로부터
17,000
##마리아나
1877년에
##문으로는
##세우스가
##환경에서
방법이었다.
1875년에
##서쪽에는
##국이라고
##요코하마
##미아,
##달하는
##기기,
인물이라는
##비율이
##박사가
공부하다가
사람이었던
##베이어
##영상,
##사무를
##개로,
##의식과
##규모의
##사다.
##메인의
##만다.
##령이었
##1세로
##감독의
##트리가
##모양이
1566년
##78년
##서로는
1678년
##우승을
##말이나
##계로서
##게임이
능력이다.
##시아세
##미하라
##이치를
##로스트
으로부터
이민족의
##신분
##던져
있다고도
세부사항
##제안
인물이라
천문학을
문화재를
이벤트로
##상상
교향곡은
##자발
##꿈을
##신체
##향상
독자들이
##최초
##보편
인지하지
동물에게
##서명
22년에
구간에는
출전해서
24년에
기자에게
##분노
##때문
최고속도
##아울
이적으로
영화에도
9년간
정수는
수에서
액체는
마크로
강이나
개종을
쓰는데
##댈
번역에
2위는
##띤
구입을
병력에
토르의
데이의
1회에
김씨와
이동성
삼국의
##聖
##政
보상은
95년
케이시
216
##ß
알파는
##院
댔
뷜
∼
렛
1918년에는
마무리지었다.
프로그램에서는
1859년에
##지금까지
우크라이나는
##면에서의
##시스템이
##성한다.
##었다고도
##동아시아
모습이었다.
##동이라고
크로아티아인
##표현의
##MAN
##라인,
회전한다.
##지금은
##인상을
받아들여진
지역이기도
##보지도
##요일의
##해에는
세계에서도
##지대,
##간신문
##일리,
텔레비전이
##르기가
##센트,
1668년
1460년
##아노르
##다리로
1550년
##길이의
##시스터
혁신도시
속에서의
유튜브를
##압박
올라가고
##커널
##상임
천주교도
초대하여
성격이었
세우려고
의식에서
이성적인
##방패
백인들이
문자에서
##자율
해상으로
야기하는
##알리
무리지어
##전망
##집결
라운드를
제100
미네이루
예선전에
크라이시
총재,
야당과
##뀜
##史
대단위
생성,
인수,
용어에
명단,
발전시
산소는
등이었
혁신의
직무상
사무용
당일,
그레코
해임을
가스로
통제에
진단은
이하에
투자로
##因
연꽃이
##觀
##ㅁ
해리의
##間
##師
이자나
플루미
아가리
꾼
Ⅰ
댕
formula96
대부분이었다.
##산으로부터
##4,000
2019시즌을
##안전기획
##대통령은
##기까지의
디자인이다.
##작가로서
##광역시를
##세운동을
##뉴질랜드
이루어지고,
##양식으로
인터뷰에서는
##무관학교
##터에서는
타이틀곡으로
##라운드는
##리에이션
##센트에
##도어의
##증기가
##어와는
설정한다.
##스카를
##양이나
##MAP
##작품은
##타카와
부모로부터
##주군,
##내용이
##이름을
##거리고
##타이거
임명되어,
1576년
모양으로,
##함에는
서북쪽으로
##tes
##수사에
2017.
##소로는
##제사를
##그라는
##119
##iac
##베이라
1495년
##NHK
##더스를
##연대장
이라크를
##임신
연구분야
개신교를
2100
재단에서
##호환
언어로서
##헨리
강제노동
기관이나
아리스티
##계속
25일의
##성남
##이바
##신장
극장으로
지지,
##뤽
연령에
59.
협회,
개성에
제어는
##ê
감정,
미국도
전선과
꼬리지
23만
아스티
45만
ICA
강도,
재개를
##훌
##똘
프로스
실시에
13~
약속에
군수가
불안이
요시나
제후의
번주인
##″
반대는
바르는
살인,
제2,
##キ
##끽
아동이
한신은
##셤
##よ
프레지
마오의
씰
☆
formula88
1930년대부터
##5,000
대통령으로부터
챔피언스리그의
##ander
우크라이나와
##론이라고
##국이며,
대한민국과는
##최고위원
##닉스에서
##국회의원
##학생들을
1848년에
##전한다.
##지에서의
의미하는데,
##집단으로
##아버지는
##산군으로
##m에서는
거부하면서
제외한다.
##있기도
##받아서
##리나,
##형에는
##조사의
##방면의
##디스,
일본인에게
트리에스테
##후보가
##종이며
##정신의
##187
##단지,
##본부와
1564년
##티스를
##일체를
##아나,
##하나님
##아래에
##안에게
##계로는
제국에서는
##-39
이동시키는
##모습은
##감독은
##아이스
##나마의
##일로는
##제이스
##그로는
##블로가
##브레인
요시카와
##청와
사로잡은
##구할
##입고
한성부로
지도자들
한국토지
##석탄
지중해와
식민지배
과거부터
13세가
요한다.
덴마크가
편에서는
형제에게
##못한
##성립
##할당
##제출
올리비아
높이고,
##1위
하우스를
전쟁에도
리가에서
트레이시
연간에는
217
"이런
생성과
유신을
좌파의
잡지와
##マ
풀어서
밀리고
299
구상이
패배가
번역할
우라가
순위의
##좁
동해와
23번
신체와
보도와
노스럽
만들려
건조가
본질이
포트로
성인용
예로써
요소,
점성이
운동성
말라가
2군을
에버튼
두산은
##뵤
λ
ㄹ
텡
오스트레일리아가
##지방에서는
##선수이다.
##작으로서
##나가면서
18세기에는
##령으로서
##정으로서
사람으로부터
##네이다.
아티스트로서
##맡았다.
##천군으로
##심에서는
##나온다.
##운이다.
##ived
한나라당에
##7.5
##진영이
12월에서
참여하여,
68000
수학자이자
아카데미는
##480
##조치가
##보스는
##마음을
##호로,
##슬라는
##형이었
##목적의
##신하지
##나라고
##열대성
##군과는
도전했다.
##건설을
##스탈린
##메가와
##회에게
지방에서도
##위로,
화산이다.
##경찰에
##었다며
##식물을
##188
##주니어
##사장이
##960
메달리스트
1470년
##케이는
##타로서
##머리와
##단위에
##지명을
##마사로
오페라에서
그리스와의
##월드는
선정한다.
##매카트
##칼리즘
##구스타
##워드로
1396년
일원으로,
프로듀서가
보이스의
##혈액
회원이었
과학자가
##5일
소설이나
##강경
만화에서
수사기관
##이웃
##국토
##김성
대서양의
##플랑
국가와의
제자들과
##벌인
##토벌
##구상
기동성을
##리듬
프레이야
##실패
##김영
오사카를
에스트로
2차례의
정원으로
블루스,
장군이었
##긴급
고등재판
##꿔
정수가
일단은
조사로
36,
기소유
전의를
헨리가
흰색과
33,
교통과
2세로
제3번
490
227
작성에
실제는
7일의
종전에
진단이
나이,
고조가
제65
328
소집을
제88
힙합의
신사는
사토미
사제를
##來
윤리를
기도에
교구를
Dem
유로가
##可
부대,
도전자
이시가
996
연기,
돌파를
##佛
APC
－
핌
ㅡ
##었다"라고
엔터테인먼트로
##연구원으로
이야기하였다.
##니스트리아
사이트에서는
##작이라고
##커뮤니티
중화민국에서
##0000
중심이었다.
작전이었다.
##에스파냐
##헌법재판
##"에서,
##팀이었던
##학이란
##부동산
##아라고
##우리아
##상이며
##상황이
##지바르
##분자를
##노선은
##봉사를
##단지의
작품에서도
방식으로는
##하여진
##경영의
##제사로
##rof
##보다가
##사이를
##르기를
##북한의
##레나가
##abr
##고리로
##나이와
##다이가
##친구를
공연장으로
##동에게
##무부와
##구리에
##-88
##고민주
막부로부터
최우수상을
##보장,
##다이는
화학적인
의미하게
위원회,
속한다는
29일의
##일시
전문가와
전동기를
프라이스
정책에서
폐기하고
##동일
구성에서
동부에는
알리고,
##옛날
대기에서
##선종
토마스는
아파트의
이라크는
사운드로
항성으로
자가면역
레코드로
산소,
대구를
통계는
안정에
교류는
차별의
기체와
독재가
화가의
선전,
경남도
오고,
저서와
해적의
항의의
협력의
평양성
레이의
증기압
사라는
말한다
공주,
공전의
42,
##於
##星
상의를
880
왕자인
AMP
발레의
미사와
장남은
해리와
아서는
셴
formula95
##전문학교의
##프로그래밍
##바이러스는
##간이었다.
것들이었다.
##분이라고
##과에서는
##의한다.
##공산당은
##국가에서
##스에서의
##함이라는
##인으로써
중지하였다.
##상이며,
##경기장을
##사령관에
##차에서는
##작품이
##차량이
서비스에서
##마라고
##용이나
##전자와
##라스트
##공학은
##화학자
##돌이는
군인들에게
##-37
##제에는
##연대회
##니와의
##나르트
##나다고
공연장에서
##클래식
##비치를
##아리에
##프스의
##카스와
##"에도
##피아가
##장과의
##헤이라
자본주의는
##개선을
바이러스,
##명단에
1270년
##규정에
##베리가
##프에는
##릭스와
##전투기
##노스에
팀이었다.
##바로는
##비난
##다항
모인다.
##듣고
지방법원
자손에게
동원하는
##따로
유대인은
##나올
이때에는
방법이나
33개의
마음에서
대의원에
포도주에
공연예술
상황이나
##이수
##고수
##성직
평양성을
경기장인
군주에게
한성부의
##관중
동북부에
##공익
정도전의
해군으로
ther
##공용
##미디
##디젤
1978
문재인의
도전한
분해가
분산을
아이에
특성의
있지도
지리,
위해를
추구할
전도를
개정한
보아서
반대표
학교도
확대가
2일의
단지를
찰스는
에드문
건축적
기소를
세이와
##華
동기로
연주,
탓에,
추정해
성에는
##北
1호가
기도가
막부와
방면,
##ه
Dep
##맷
##善
명문을
##意
빌헬
땡
욧
엔터테인먼트,
##작품으로
##용이다.
서울특별시와
##에너지의
##주군에서
1866년에
##식이라는
##역이라고
##에게서는
##풍이다.
##가능성이
##생으로서
##관학교의
##역이기도
시즌이었다.
##."고
##인사에
##수업을
##선이었
법적으로는
##에이가
##집에는
##필드를
##병원과
##스스로
##화물은
활성화되어
##리어가
##점에도
##벨라는
##정신이
살해당하는
장관이었던
##도니아
##》로,
##집단에
##스포트
##신학을
##스타워
이상이며,
##4.0
##드라이
1677년
##철도에
1647년
##K리그
##시타로
##랑이는
##신에는
다이하이드
##제이루
마리오브라
모양이나
위에서,
항공기로
##직후
등으로,
##암호
##항상
내셔널리
37개의
강원도에
##식민
차지하였
2년에는
##상영
##암살
##일정
위성으로
##그날
포트리스
마이바라
top
##캘
288
스파크
전주로
하위의
전사의
심장에
그레인
3세로
47개
##깜
신장을
피해서
이성에
비서를
전국민
알고도
전사인
해에,
5개가
마법에
뿌리에
건국에
##쿡
회색의
왕조로
명문에
마르게
##命
인조를
가정부
##έ
제64
꼬리와
분화는
제98
역전승
주문이
Hel
트라파
에이트
안타로
시사회
##界
##門
ㆍ
멎
댜
三
탯
휨
##주의에서는
##-2010
##갈색이다.
에피소드에서는
##대통령이
##학자이며
##ides
##간에서는
##상에서의
##동쪽에는
##당이었던
야기하였다.
##것이라는
##자에서는
##선으로서
##잡았다.
1840년대
##바키아가
##시절에는
##군단과
##문서에
##기자로
##신학자
##류로서
##-3,
##필드,
##458
##받지는
해외에서도
##대화를
상원의원이
유럽에서도
그들이다.
##차별로
##의도에
##세스를
##피스,
##의원의
##제사가
공개된다.
##소련의
민족주의의
공전주기는
모습이며,
##무부장
##다스가
##고리,
##서기관
##사다의
##제주의
##타와의
##바이어
점이었다.
##회원이
클래식에서
##박사의
##-65
##형태가
##경찰은
##프리가
##시오를
요코하마의
##미아를
##결국
##영향
행정부에
나머지의
언어로,
##적지
##동북
신분이었
전형으로
##예측
분화되어
과정에는
전쟁이나
일본이나
의사에게
다양성과
30일의
2개월간
##야생
자식으로
기다리지
한성으로
무역에서
나오스케
##돌입
갈색이고
시로부터
아파트와
팀이었던
##고베
##챌
##∞
역설을
장식품
규모인
예방에
더해,
소스와
기도,
개시를
양식,
자세에
기대는
위안을
개입은
재정에
재정립
수평을
법원을
##п
위성과
왕족이
깊이의
평면이
왜곡을
보도로
꺾고,
상영을
저장,
##小
22번
##合
방면은
##等
##祖
』
륄
굉
팹
유고슬라비아는
##품이었다.
##장이기도
##》이며,
##프레스의
##환이라고
##수상태에
##사이드는
사령관이었던
##경이라는
여성이었다.
##스트로서
##통이다.
##영이다.
##락이다.
플레이오프의
##상관으로
##곡으로,
##스테이션
##이름은
민족주의와
##교체를
##가스와
한국인들은
##분자가
흡수한다.
생각이다.
노동자들과
회장이다.
##박스,
##하다:
##구치의
##피스와
하드웨어가
##마크가
##수리가
##대전이
##회로의
##파로,
##권이란
의원이다.
##뜨거운
##통제를
##보이지
에드워드가
##단이라
공전한다.
##상주의
##선수의
##요리를
##둥이의
##ISA
##보니,
##아리의
##세와의
##리나를
##아와의
##자기는
##세인트
##작전은
인도주의적
##산군을
##산군과
억제한다.
##대사,
##경험을
##너스가
##의학과
##변수의
동물이며,
##투수로
##레나무
##리아키
에드워드의
##토리에
##스위치
##래프트
요미우리에
##즈키는
##나우는
불리고,
이하에서
작품이나
버전부터
##발급
메모리,
박사에게
오가면서
김대중,
연구원이
##발굴
이긴다.
시간에서
중부에서
그것보다
물러나는
##영구
아스가르
지중해에
장식으로
35개의
한성부에
이름이었
##규슈
축구단이
레이다,
##일대
나폴리에
떠나고,
이동해야
게이지를
국정조사
##영입
싱글로,
라운드는
전시의
서민의
허가서
재개장
57년
용어도
음성이
동원을
75년
생물에
유전의
수습을
밖에,
공포로
사유의
한다,
8일의
건국을
부인,
헤이지
동서를
육상을
전사자
6개를
일방이
2회에
##ㅂ
ISA
단지는
5개국
복원이
##웁
없다가
##â
갈색과
Mel
##風
데이즈
손해의
뉴스타
한신을
벨라는
##ت
팸
댁
캇
펙
韓
д
##18년에는
##롤라이나의
##베르크로
##력이라고
##명으로서
##브리지의
올림픽에서도
##프로스를
##로스에게
##면이라고
러시아인,
##지기가
##평화의
##코프를
##도구를
##113
##제기를
##파리는
##6월에
##마스와
##천군을
##밖에는
위성이다.
##동부를
본선에서는
##코드가
##론이라
##생이었
##마크는
##부로는
##직원의
##구리와
##오리가
##군주제
##아스가
영역에서의
##》와의
외국인들이
##살이던
##영상과
##론에게
1685년
##상과는
##2위를
##60년
##자문을
##그들의
민간에서는
##성군과
2013.
##산군은
##19.
##게임은
##구간을
##주석,
##천군이
##3번째
##이적인
##애나의
##밴드를
불가사의한
##작곡을
한나라를
##2대
외국인은
중학교의
아시아인
##전면
주한미국
23일의
공화당이
##제7
군주제를
세력이었
서부에는
21세의
##기울
##그녀
13.5
미디어,
창원시의
나폴리와
10대의
220년
##조반
250년
8500
정보기술
##약속
검사에서
온라인의
습격으로
반도가
218
233
64,
단지,
착수한
낮아서
##뮐
체제,
지질은
직원,
상원과
사기업
760
힘들고
타이의
좌절을
이식을
화재의
왕이었
입장의
사자,
주지는
219
종이가
무대와
##樂
보스케
번주,
中
씽
귈
왐
##종이었다.
##브리지에서
##원의원으로
##레코드에서
##러시아의
##지기에서
총선거에서는
##지방자치
##장에서도
##제도에서
##클레스와
##들인다.
17세기부터
##판으로,
##7000
##수감사절
##색으로,
##회담은
##공식을
작품이라는
##진출을
##이하의
##미드의
##640
체제에서는
그리하여,
##다리에
##메이지
##오리,
##사에도
##포스가
##개국의
##레나와
##보수를
노부나가와
##추기는
그라운드를
결정하는데
##나가야
##다이를
##주시는
##돌프의
##타이지
##만이라
##메리아
##인증을
##5개의
##위기의
##217
##SAT
##조지폐
##감사를
##선수는
설정이다.
##르바르
##비트,
##박스는
##로지가
물리학적
행정부를
위에서는
##창립
권한다.
사업에도
##장르
##어두
##맞춰
군인들과
선거대책
제자들의
##다녀
##6일
##단독
##승격
재산으로
##필수
남성으로
22명의
##이혼
폐지하여
##실종
오페라와
종교적,
국왕이자
##희생
번째로는
미국인은
##막부
4개국이
개성에서
손자이며
서북부에
조종사의
제도로서
##파악
포인트의
회전시켜
크레이지
일정으로
역이며,
상대하여
토머스는
##자책
라인에서
##在
화성은
함수,
신성모
##位
정통한
이주,
징역에
오스티
최후에
합성은
공군사
통일은
보아는
신하를
폐위를
황금을
사자와
광주로
##花
제78
SSC
데이노
회사이
매각을
해리어
지상을
명의를
아이노
##け
##댜
이자연
뭍
п
땜
##만이었다.
##배우이다.
##법이라고도
##크리에이션
##생이었다.
1905년에는
##면으로부터
##-2012
이집트에서는
##발이라고
##었다”고
##자라고도
##세한다.
##사령관을
##시대에서
##조선에서
카메라이다.
##Res
##입자를
설명하는데
##피해가
##기가스
##임금을
##스로,
##세대를
##영화는
조선인들의
##/ht
사건으로,
##티에는
##쿠스,
우리나라는
##수아는
##차량은
##니아인
##기사가
##부대원
##무사가
##니스에
##115
##레인,
##파와의
##당시의
##트로스
##테스크
##:15
##일랜드
##밀리의
단지이다.
##시기도
##사장을
##여자의
##더스에
##쿠르는
##초록
집에서는
한국어는
##나선
교수로서
바람에,
시작해야
##가져
총리에게
심판으로
머리에서
본선으로
다양성은
부사령관
측에서도
말기에서
중심이었
전반에서
Bell
##예언
Ston
출입문을
회색으로
12일의
##총괄
이벤트의
지휘하의
크로스는
##멀티
17일의
국가장의
일에도
위원의
사후인
경력과
감시가
청구에
뿌리고
한강에
이사에
##샐
##京
##─
않기에
21만
##빤
폭력은
진주를
47년
##얹
주어서
##б
이중국
37,
추측에
"Ar
예상과
##탰
향상이
맞아서
##렷
수비로
1인이
나가시
##멱
제사장
번주로
##몇
즉위에
서구에
예산과
연령을
타이를
해적을
아라고
군인은
대만에
혼인은
##起
주전을
##쳇
##쥴
챗
꿋
둬
к
##할아버지인
##회의에서는
##일이었다.
##환이었다.
##손자이다.
##공간이다.
##족이라는
##폴리스를
##노스에게
##종이라는
##문이라고
##어가면서
##있었으나
##오키아의
##차이즈의
##신하기
대응시키는
##레이블
##번호로
##개념을
##살이었
##우스키
##주석과
내용으로,
##정에도
##자이기
##축하기
##데이에
##극단의
대대한민국
##테스,
##OST
##주석이
##선교를
##우려고
##카스,
##테스키
방향으로는
##탄소와
##커스,
현재까지는
##웨이에
##오는데
##류로는
##야스와
##9월에
##장관에
##점이자
##390
##지마의
곡이었다.
차지하였고
##마에는
##지명이
##니스타
##말레이
##브리즈
##터로,
##먼트가
1477년
##레이즈
##마스가
제자이자
조직이나
110만
프레임은
기상관측
56개의
민간단체
공무원은
주관하여
이상주의
사건이었
해안에는
백인들의
##2루
언어로는
중국에는
막아주는
신학교의
##승진
스위스가
토마스가
28일의
##색깔
황제로서
##반환
5500
제21회
아파트,
##부근
에드가르
##출전
가스미가
구상에
백제,
폐지로
부호의
강의가
학위는
기자인
아동은
출현은
확정한
모드에
3대가
위상의
왕자로
정원과
공산화
보살펴
일단의
메이와
증거의
파일,
동기와
진화된
인디오
신용을
불가지
동화의
제사에
대비가
대화는
den
몽골을
방어의
차지하
윤리와
258
대신이
부진의
코스의
##숑
96년
6일의
서기,
알리며
##잊
장로를
##雲
극단에
환승을
마법이
Mes
##驛
액션을
석사와
1세이
뺐
묽
똘
##식이었다.
1890년대에
##행성이다.
##왕으로부터
자유지상주의적
##작이라는
##대전에서
대학교에서는
##령이라는
1857년에
##명으로는
##때문에,
##있었다고
##주에서도
##시키지는
보여주는데,
##신에서는
##성군에서
##영상으로
##Hell
##슈타이거
##-600
##전이었던
전투기이다.
##정리를
##시계를
##문에도
##대성은
##'로도
프로스포츠
##대상,
##랑이,
##물이며
사용자들을
##통신이
##멤버로
##카이가
어린이들은
##보스의
##경이라
##사실이
##보로서
##원군,
##브라운
##ISS
##벨기에
##13,
##리어와
##우리로
##티스,
남쪽에서는
일제시대에
##문자가
##버전은
##교도와
노르웨이에
계획에서는
##코프,
##재료로
상태에서,
##너스와
##테인은
##가지만
##인과는
##노리와
##권력에
감독으로,
##순간에
##바라크
2008.
##그것이
페르시아는
##가루가
##열에게
##필드에
##BMS
##드르는
##구간에
등장하는데
요미우리는
##피스토
##선사의
김일성,
변호사인
디스크로
반응시켜
콘텐츠는
사이트와
23번째
단어들은
16.5
##침공
##연안
쓰는데,
독자들은
따르면서
앞에서도
##8일
벗어나고
의정부의
##진정
##신비
설명으로
##소요
연기하며
인물에게
몰아내려
이집트가
밖으로는
덕분에,
##현지
기술이전
경성에서
석사과정
시의회는
플레이스
##바뀌
포인트에
주니어가
기타카미
시드니의
비트레이
##이진
마법으로
조성,
미분은
지지도
자택을
촉진을
"Se
성인은
무장,
도시나
심장은
부장,
소스의
인기도
크레인
경비행
서브루
에이사
참고한
김정렬
계통과
유신의
평등과
##和
까지도
재위한
음성군
불어나
김씨를
4대륙
##九
가스터
알리안
##民
##ウ
성사를
베이즈
##能
발매일
고등판
해리를
보통과
웨이드
##お
짬
랏
서울대학교에서
##2001년
##법원으로
계산하였다.
##21세기
##이면서,
##단으로는
##일이라고
##형으로서
##되었다,
##현상으로
크로아티아가
의미하였다.
##사람들의
##아버지와
##대기에서
##원으로는
##족이라고
##학이라
##화학과
##조사,
##교차가
##레일의
##다스의
##속하는
##학에도
##세대에
종족이다.
##iem
등지에서도
##분자로
##미하고
##닉스가
##영역은
##정보가
##민당,
##다양한
##웨어의
##것처럼
##인가의
##전기가
##전력은
##'에도
##영지를
##워드와
고속도로,
##목적을
##입장을
##베리에
##있었기
##여름에
##차로는
##점이며
##인이란
##탄소의
##가야의
##트리,
##상황에
##3세로
##보스턴
##보내지
##시아나
##다이어
데이비스의
##병에서
##파크로
##리지를
##규정이
##그래서
1377년
경고한다.
기록하여,
등장인물을
##마트는
##문재인
22일의
국가라는
물리학은
분자들이
공동체와
지식으로
반지름을
전문가는
사상이나
나서기도
15일을
##9일
13일의
##우호
##흐름
##옆에
백인들은
##난징
##실행
##모집
23명의
인물이나
조선과의
티베트를
성균관의
분기하는
조선교육
지나가고
광주제일
자손으로
강점기인
모델로,
공간에는
루이즈는
헝가리로
연대기에
스포르트
파트너는
다이에이
##일행
생성이
35,
검색,
2대,
오리지
감시,
매장은
전력과
타고,
전주를
조성과
APS
승인해
생산업
연계가
차별은
파리는
맞서서
249
##갚
항의로
군주와
이주의
11차
예수에
지불을
묘사와
카이사
4일의
상업을
이용의
왕족,
차트와
신설을
위임을
정상은
전사,
245
여진의
조종을
##ō
조지가
역시,
한다:
교구는
비스와
인권에
사가라
장기는
하와
성균
ㅈ
뗄
≤
뻐
겜
대통령이었다.
##iment
##때문이다.
1906년에는
##"로부터
##일이라는
##작전사령
##사상으로
##올린다.
##2018
##생이었던
##역이었던
##조로부터
##nder
##문이라는
##2년에서
##inet
##영화학과
##1500
##ager
##고베르트
일본어에서
##집권을
##뉴스,
##기하게
##요소는
정의하면,
##적이어
##철학에
디자이너는
##소로,
##고도,
##리크가
형식으로,
##리오를
##대상에
##방이나
##사기에
1465년
##주와의
##미드는
##부에도
100mm
##129
##구간은
##des
1454년
##문에게
##노리를
되찾는다.
##프리카
##드레드
##히트의
트레이드가
##대사와
##전선과
2016.
승강장과는
##포함
##전역
##권위
동해안에
##내장
모습이나
제작사는
뜻으로는
##암흑
쪽으로는
군주로서
6월에서
근대화에
왕이라는
##초과
공공부문
##출간
정신적,
##초대
지구에는
전투기,
남성적인
곳으로서
베드로는
##고종
어린이집
보는데,
##연계
##합류
##도움
야구단에
전투에도
편집에
조지와
OSS
문자인
주류로
축소,
기사도
발명을
유성우
섬유로
성적도
지속해
##깬
하자가
연설이
수치의
파란을
개정은
가시청
75만
재정복
24번
##解
##Ⅰ
dec
64.
노동부
섬유가
최종전
통화의
지각을
형제로
서북부
공기에
친정부
##春
전시,
진주로
일에는
3대를
분리는
##前
##つ
레이가
조성은
선과의
ACF
구사카
##果
뢴
굼
욤
formula2차
##지방법원에
##20년에는
1917년에는
##조직이다.
##프레드시
##"으로,
유나이티드,
##검찰청은
##수에서는
##함으로,
22,000
##8000
##경이라고
##전선으로
##드리아는
##시리즈를
##학생들은
##집에서는
##크리트의
##색이고,
플레이오프로
##로스와의
여기서부터
논문에서는
##스위스
##기사로
##290
##공장의
##분자는
##이로,
##해안을
인접한다.
##정도는
##것이라
##은하는
##128
##건물이
바이올린의
##외선,
##법학자
##설이나
##크루스
##560
##로스로
##GBA
##무역의
##비트가
##릭스,
##창단이
원인이라는
국제사회에
##살아세
동북쪽으로
##종이라
역이었다.
##주시와
##고리의
##발전기
##이시오
##미나,
중국에서의
##치와의
##아래의
신학적으로
##그녀의
##수리,
콜롬비아는
방면으로는
2세로부터
##배치를
##트리오
1군에서의
##미야마
안동이다.
##입체
대신하고
이용해,
어린이날
동해안의
상호의존
일부로써
##성질
##고위
30분이
윈도에서
소개시켜
조지아인
베이스의
4개월간
기사단이
지나고,
의사로서
정보수집
전투에는
한반도로
668년
행정권을
진주에서
4월에서
나누어진
재개발이
백제시대
시설이나
##선포
##.5
세우는데
어워드는
요시나가
##추출
##언더
SNCF
사이러
기초에
##国
삼성,
불교도
고속의
인류에
평가해
탐사는
사진술
확대의
저서가
지연을
마그레
고발을
국내는
크림을
투자,
제정이
그라이
참전용
그곳이
테마의
양성과
아트로
불편이
방위에
자바의
진주의
단지의
상대한
황후인
특허가
축소를
장로가
##꼿
##굼
산란을
항해가
이중의
컬러는
군수에
##à
142
인상에
##굵
타이트
선제는
껄
촬
甲
쿈
formula98
##분데스리가로
1900년에는
##단계에서는
##작이었다.
##산이라고도
일어나는데,
##순위에서
전쟁이었다.
##있으나,
##당이라고
##Your
##회에서도
##가이자,
##더스에서
##노르웨이
##사추세츠
##'에서도
##주군으로
##공산당을
##철도주식
##임이다.
##형이고,
공무원이다.
##파크와의
##지기와
##도어를
##이기를
##현상과
##버전을
##버전이
출신으로는
##조치로
##랑이와
##배치는
##장면을
부근에서는
데이비스가
##문과학
시스템이나
##구간의
##460
##세스가
유지하며,
철학적으로
##티베트
##개월간
##인사가
1260년
##연구는
##신학의
##아스를
##야에는
##테이트
##인치의
##노동부
##리로,
장관이다.
##여성이
##황제를
##아리아
##기나무
##트리와
##발사를
##나서,
##라리는
2010.
목격한다.
##-58
##SAM
##신뢰
정신장애
사용자들
수도로서
##수직
연안으로
모습이었
중심지를
정교수가
참고문헌
##중소
시카고로
기록이나
##새끼
성격이나
도쿄도의
세계에는
투수에게
국방부에
안전성이
##트위
명문으로
선거에는
건강하게
5월에서
벗어나서
모리스는
사이즈의
십자가는
##경상
##도쿠
하우스가
"Con
제임스와
장소로서
##정면
##로빈
SMAR
지표면
##♭
기호와
이의가
그들도
이수한
전화의
강도의
224
주기와
대기로
6개가
소스가
44,
아시가
타이지
동기에
신장,
커피는
확대로
285
전설도
갈아서
이자율
라이즈
연장과
쓰지는
존속을
혁명,
국민주
태조와
성씨의
##得
시조를
남성,
##通
파크를
차이의
광산의
237
만일의
선조로
대수와
진주,
2부는
메이트
##깍
##귈
965
보스를
아가타
선이나
주전이
유인해
##レ
##オ
영구제
러브는
##َ
보수는
퀀
깟
##’이었다.
##민주연합의
##당이었다.
##있었으며,
##-2011
##-2015
##도에서도
##력으로는
##생이며,
##머스에서
과학자이다.
##화하는데
대한민국에도
##어로부터
##안으로서
65,000
##버전으로
##설에서는
##해로부터
##구역에서
##싱가포르
##선제를
지적이다.
##호에는
##타로를
##함수에
##왕국을
한국인들의
##이로서
##인물이
##고리에
##돌아오
##자기가
##기기의
지역사회의
##피스가
##연방의
##일치의
말해진다.
##신학,
##교류를
##차이가
유지하다가
기반으로,
##유대인
노르웨이가
돌아와서는
##상품을
##보조금
##버트와
데이비스와
##ESS
##권한을
##증기를
##친구의
##백제를
##속에는
##파크,
##남부,
##먼트에
##성도는
설치되어,
##미르가
##대와는
##9시즌
1170년
##먼트와
1475년
##헤이는
##포켓몬
##우스케
전자들이
제주에서
물리학에
##근접
서울시가
유기체의
##승려
사다리를
유적지가
12위를
서구에서
회장에게
양식에서
##들면
재정지원
##사후
##포맷
군단으로
##누군
나폴리로
사로잡고
더불어서
48개의
##개통
스코어로
정도전은
라디오는
나가사와
38개의
재정신청
곡이라고
14일의
##진공
##말씀
42개의
사회복무
역이기도
##어디
##측면
시즌에,
Ren
유지는
보스의
순서와
측정의
68년
하기는
니시키
부수상
검증이
해양의
복구가
##찜
독점을
청주의
메리가
##利
경비가
국도를
중부를
주소와
건의에
대신한
이사진
되기에
213
제어,
이주는
전사로
파리가
예측에
피부,
장수와
앞면은
구해야
바위의
##늪
섬유의
세속의
대수로
보안에
3위와
모로는
추정한
한강과
않기를
##漢
##使
투입을
코트는
남부가
##里
감사,
##웡
##而
주식이
Den
비서가
대공을
번주를
##開
247
대사인
##셩
##え
##フ
크루의
깰
⑥
@
핥
뎁
##formula2
##formula1
사우디아라비아는
##다가스카르의
받아들여진다.
##살이었다.
##당으로부터
##성이라고도
##시설이다.
##arter
##적이고도
20세기에는
##치면서,
1856년에
##공산당이
##경기장은
##전까지는
##2011
##하우스,
##용으로서
##예이다.
기관이었다.
##식이라
##부통령
##통신의
##론이란
##브로는
##대원이
##라며,
가설이다.
##보도록
##통이나
##성에도
##기원전
##수수는
##기능은
아메리카를
##계와의
유대인이었
##알코올
##요청을
1422년
##미에르
##합성에
##섬유를
##178
##에다는
##돌프가
외국인에게
##사자의
##구역과
##경상을
##420
1356년
##127
##정원은
##무대로
2011.
##-1.
##니다,
##-85
담당하고,
##모니는
##무원과
증가시키기
1485년
##연기관
##tec
##검사의
개성이다.
행정부와
공부하게
세력과의
##인텔
##낮은
한반도는
3600
##재미
##북극
보수정당
##매입
첫번째로
6500
국가로는
##수평
##이재
##가짜
선교사인
후보로는
사무실,
출신이자
##조금
영지에서
3차례의
##바꾸
##3차
확인해야
바이바르
부서에서
돌아가려
상황에도
소규모로
##입단
시도와
종이,
찾기가
개체로
가정해
수소,
재배열
한자에
동서의
용의가
Sem
9일의
주지가
공군,
발명은
전원은
판결의
등이며
군수,
징역을
윈도의
"Le
경제사
강요한
바위로
루이제
진화와
메리와
제자리
수사,
초상을
태국에
나카이
종이와
태조를
년에서
##陽
선교의
##萬
야생의
##甲
##껫
상호로
##ば
못해,
개업을
부상,
마루가
##ı
##ナ
윷
씁
##-2016
##플러스에서
##-2013
##aller
##중이라는
##동으로,
1840년에
##조건으로
##민족주의
##들에서의
##즈에서는
##었다"며
##바이에서
##강이다.
발생하는데,
##돌이다.
##씨로부터
##방이다.
##기기에
인간에게는
##수와의
5000년
##위기가
##사기와
대통령이자
##프라가
##sem
##440
##니에르
##노스,
##역사가
##장군은
##의무를
##주제를
분위기에서
행정부에서
##미나가
##베이에
##현과의
##들어갔
##올리고
##었다,
##다리와
##종사자
##순위가
##말라,
1420년
##SMC
##현이었
입성한다.
##원군과
##-45
##toc
##안타와
##러리로
##바나는
##나르가
##13.
##아리오
검사장으로
##카미,
##요르는
##인지로
##SSN
##보르는
##걸어
##1천
나뉘어서
군사적,
활동은하
항성종족
##정렬
하와이주
위로부터
죽이라고
##체코
4년에는
음성으로
넘어가면
자유도가
안으로는
원년에는
두루마리
219년
이명으로
선조에게
결정권을
서일본의
##상원
##기요
사마리아
16일의
##하버
##드럼
주니어와
진공의
고체의
좌우익
난민의
325
존경의
실수는
강도에
보스토
소모가
770
##φ
통일로
학위와
56개
생성에
동경의
스크루
자원,
제4번
##뻑
농구의
가라고
계속한
지상과
범주가
수원에
가수는
동서독
전화는
아사마
1집을
##武
투구가
부담은
과정도
하지도
수원,
##з
제76
수원은
780
장수는
군대,
##않
열어서
삼성과
590
운전에
군사기
485
하야마
공사,
역전에
회색과
}
젭
„
칡
т
formula99
##트라우스가
##시키는데,
##관으로는
##량이라고
##강점기인
##터리에서
##목으로서
대표적으로는
##공격으로
지역으로부터
##분이며,
추정되는데,
##호에서는
##라에서는
##클레스를
##루스에게
##능력으로
이야기에서는
##변호사회
##시베리아
##플러스가
##칼리포르
##tell
##호선에서
##미디어는
프로듀서로서
커뮤니티는
##사전,
##변화는
##어도,
##요소의
##무기와
사회에서의
##정신적
##nem
##학년에
##서기를
##수수의
##모바일
##6개월
##게이지
그리스도에
##다양성
##제임스
##지적인
##티스토
##루스트
##우치고
한나라당과
##요구를
##아무도
##드레이
##보도를
##규모가
##니어는
##구제를
사람으로는
##양식은
다음해에는
##수소는
##석기는
##장군과
##행정을
1476년
##호로는
1557년
프라이스는
##니에는
##한성부
##185
##찬성을
##데이를
우리나라를
##10일
##부상을
##모가와
##법인은
##히는데
방식이며,
##보르네
이미지에서
##클리어
##왕조에
선발전에서
##우에는
역에서부터
##베이성
##아라의
##기동안
##앨범은
##즈키의
##사이는
취하고,
통일하는
##장악
##원래
가속도를
포함해야
리눅스의
스토리에
사장에게
수요일에
대비해서
사마천의
##트럼
주는데,
라틴어는
기자들을
아들이라
베이스가
연기하고
##진술
##펠리
21번째
##조상
손상으로
##차단
221년
##5만
##구원
##선구
힘입어,
한국인과
##기대
축구단은
##매각
태조에게
##편입
밴드로서
곡이며,
최후에는
디즈니는
마크로스
오라고
지름을
회전은
발달의
힘입은
주소에
부정이
나선형
처리의
단절을
자유도
주소,
울산은
경주가
이토의
단위에
헨리와
복수로
자식의
레지나
상실을
Der
크루스
신비의
것이야
죽이자
##島
판단의
직원에
풀어야
흡수,
역대의
인사인
좋지만
누구와
Ala
##古
검사장
도시간
투구의
##ㅋ
최연장
##忠
청주로
루트가
예선의
아라스
손상은
에스티
보전을
필름은
##셍
신이치
##헝
사법적
페이즈
##識
괭
튈
м
##스타크래프트
1950년대의
##시인사이드
##7,000
##익스피어는
##형이었다.
##노동자의
##미하다.
운동이었다.
##70년대
##식민주의
##인에서는
##프로스,
오케스트라가
##레스에게
##살이었던
##상에서도
##성으로서
##국에서의
##노부나가
##문화재단
##iven
결정지었다.
아우스트리아
고등학교에게
분데스리가로
오페라이다.
그들로부터
##연설을
장관으로서
##159
공간에서는
관점에서,
부정한다.
##장기업
유학생들이
##료로서
##레나를
없다”라고
##강에게
##950
##조선과
##물이었
온도에서는
프로젝트,
##라크의
##다이에
##도시,
##노부와
##Red
##회로는
##"이고
##저지의
자유주의를
##주자가
##서기에
##제1차
영향으로,
##동물에
김일성에게
초등학교의
##데스에
##가문의
영국에서의
##시카고
##작이라
한국어로는
스위스와의
##베이와
나아가서,
##하이트
1423년
##모델이
##카스를
진행하고,
##이것이
의학적으로
##왕과의
##날개를
##베리와
##-56
##우는데
##따라서
##승인을
기지이다.
##의식은
##중이나
건물이며,
##주군과
##코드에
##프스는
##인에도
##마이너
##수수가
1478년
급제하여,
##경력을
##작이자
##타이틀
##마사카
##루와의
##증권의
##발언
##맞고
서울시민
평면으로
차이다.
리눅스와
880년
바이다.
##획득
이상이었
제기하며
##위임
디자인도
원정으로
헝가리가
거주지로
##제6
##교역
군이라고
27년에
##구해
1968
현대에도
##난민
라인으로
축구단의
왕족이자
"이것은
1975
하이드로
##필립
파일이나
축구단에
미분을
가정한
삼국을
가스에
주소의
먹는데
신비를
변형은
배포를
저장을
70.
공주에
정체에
지지에
성과도
레이나
##햐
##뭐
탐사에
다카르
##É
##論
대기와
##촛
유적,
38개
역시나
영지와
##白
고리와
동서양
##馬
포트가
투구에
단계통
에스코
학사와
##ニ
자이로
##쭝
놓여진
##½
##ŋ
동점이
팀이었
십자인
엑스페
UE
젋
formula100
formula31의
##엔터테인먼트의
##물리학에서,
국가대표팀에서는
1916년에는
##더스트리얼
1909년에는
##정부로부터
연결되어있다.
##소프트웨어
##유럽에서는
1911년에는
##방식이다.
##영화이다.
##사이드의
##지하고,
물리학자들은
##80년대
##하였다면
##케이드를
##왕이라고
##포트에서
##생이라는
##기준으로
부산광역시청
##부에서도
##운동에도
인터페이스로
##미로부터
##서에서도
##책으로서
##사에서도
##당으로서
1858년에
1855년에
법원으로부터
##당으로,
##행이다.
##이어서,
##연이다.
##이야기를
##갈색으로
##400m
##서비스의
##미사일이
##케이드의
##미주의
##일로를
##본부장
공부하고,
시장이다.
##널드는
##영국의
그곳에서는
##노트를
##서기가
아래에서는
##수직을
##체제와
##장소로
##현장에
##교사를
##장기를
##닉스를
강원도에서
##미사를
##동기를
##연장은
##주석을
##공정한
선전했다.
사람에게서
##트리고
##박사,
##토르가
천문학적인
나타내는데
##나가지
비율이다.
1395년
##체계로
##씨로,
##작전의
##신성을
##우스티
1556년
##야스를
##전사령
##사기를
##원소가
##주군이
4월부터는
##건물로
##건물을
##육군사
##기와의
##초에게
##우와의
##54년
##뿌리가
1459년
##종이에
##단에도
##이하지
##산하게
##버그로
##고와의
##고리와
##레이로
역으로부터
##수인의
사상에서
정기간행
제기하지
생산하지
신학문을
부인이었
참여자가
한성은행
##서민
규격으로
적지만,
##춘천
작곡가는
##옹호
일이라는
##목조
플레이와
3800
1세대의
##우크
프레임이
스트로마
##경고
15.5
##대법
군인이었
##짧은
30일을
"Com
##축하
에도가와
장군이자
말이기도
1977
반사회적
13위를
##싱어
나누어,
출입문이
지식이나
가나다
보기가
삭제를
결의가
변수와
33만
입사,
충분할
예정에
45개
이토는
시의원
전기용
지리지
두어,
준비로
납치,
무기도
##훅
요크의
수치에
모방해
심장과
##異
##팠
존속한
이상호
교역에
거주를
248
조선물
내리며
오세르
잡지로
##其
기지인
##탠
미국제
##틋
보상의
댄스,
비트와
이치고
복음성
일으
ㅅ
뺑
롄
녕
벰
##ration
조선인민공화국
##안이었다.
##1999년
1880년대에
1854년에
##우선으로
##연구소로
##해안에서
##분에서는
##산으로서
##연구원에
##기구에서
##했다면서
특징이었다.
지지하였고,
##작전으로
##지역에는
1847년에
##기부터는
16세기에는
상원의원을
한나라당을
##문자와
##0.0
##분에게
##인가는
대한제국을
##9.5
##쿠라노
##제어를
##한반도
##제사법
##영역에
##재로서
하드웨어는
21세기의
연산이다.
현상이라고
한국민주당
##이렇게
##’이나
##소스와
##비로운
역사에서는
이름이며,
##대전에
##동부는
대한민국도
##중간에
##평가는
##시로의
수도권에서
##로로서
##영역이
##영상의
##었다”
대신한다.
##규모는
##리카를
왕으로부터
##에다의
형제이다.
##여진의
##연기를
##족이자
##치지만
##해가고
##전자를
##168
##비스와
##해군에
##무라를
##일로의
##일리지
1399년
##일리를
클라이스트
##여래의
##라이야
전국민주
평면에서
사용해도
목적이나
분야에도
물리적,
27일의
페이스를
##사육
유인하여
역사에는
활동이나
##초상
##신약
##성격
기병으로
속으로는
##평안
코트에서
##정밀
##하계
##동래
오이라트
왕으로서
공정으로
막부에서
당나라를
##비해
원산으로
##개체
##유저
##2부
입력과
창원,
집권에
65년
실수에
##닮
묘사로
내용인
번역과
##全
현지인
위상과
못한다
당해서
덧붙인
254
교회사
##木
보안이
화면과
3위는
동원,
3대에
회원과
도중의
고고도
##太
##代
버전,
추정을
넘어진
사도가
265
하이원
제주에
##衆
47,
가시는
인수가
무기고
##根
받기를
무신인
넣어,
투구로
##ロ
SCA
토르가
샥
빻
쟝
##이탈리아의
##문이었다.
##론이었다.
조선총독부에서
데이터베이스와
##명으로부터
우크라이나가
##가능성을
##주한다.
조선총독부와
##신경계의
##"에서도
##100m
##연대에서
완화되었다.
##길이다.
##연기상을
지도자들에게
##어머니가
변호사이다.
##프로듀서
##항구역은
자연계에서
부분으로서
##주일이
##평등의
##전술을
##-36
##코드로
##거대한
정수이다.
##진군의
##8월에
다운로드가
##네이버
##궤도의
후보였다.
##식에도
강점기부터
"Hell
##수원과
##대전의
##지기의
##세이던
##초기에
##금지를
##조항을
불가리아가
##족이었
##주지는
##들어,
##범위는
##보스톡
시작한다고
##자체를
인정한다는
##수소가
##연금을
##대신의
1499년
##소스에
##간이라
##일부터
##단지에
2009.
##9.0
##버러의
##파크를
##높이가
##성사,
등장인물로
##연간에
1447년
스포트라이
##64년
##-2번
##수인이
##드라가
##뮤지션
무장으로,
##가스피
##앨범의
힘이다.
##허용
일본어가
목소리의
계획에는
어린이들
##광역
##각종
야간에는
교사로서
항공사를
우선으로
파일에서
사용한다
중심지에
맞추어서
##크기
지도자와
덴마크로
##운반
여성이었
후원자가
문제로서
창원시청
##이슬
황제이자
44개의
어린이,
##밀양
건물이나
신사에서
전반에는
세우려는
시리아는
청주에서
아스트라
22번째
##서재
게이지는
9시에는
심판에게
조선전기
하우스와
나서기
추구를
벡터가
제자의
출연료
침해에
해결의
##Δ
화성,
지지하
대화로
mm,
8개가
모양도
부서에
막아서
##맑
32만
45,
다이제
매개체
김씨,
대만을
금지가
연주의
제어의
찬성이
강조를
혼인이
승인,
존중을
"이는
남한강
일체가
##ή
##＝
그때,
11위
조카를
내는데
중동에
태국과
##面
상원이
12위
보호는
양도를
버스트
236
신고한
아서의
낌
켁
formula3,
아리스토텔레스가
##ament
##allen
##1997년
##프라스트럭
##사이트에서
##컬럼비아주
##감독이다.
##스카이는
서울특별시는
75,000
##시스템에
##직한다.
##열이라고
##량이며,
##utom
1850년에
1842년에
##ante
##산군에서
##세르비아
마케도니아는
##광역시로
##천이라는
##작이며,
이상이었다.
##플레이로
연기대상에서
##기록으로
##석에서는
##라운드의
요미우리와의
프리스케이팅
##단위가
##쓰기로
##권력이
##인사의
##USA
대부분이었
##메이의
##구성에
##리지의
##선제로
##미하는
##과로서
##대상의
##위치에
##마트,
개신교회의
##표시는
##주기에
##토스테
##향상을
기록으로는
##변수는
##189
##공장은
##르는데
##계에게
##모르는
##대상은
##경상도
불리지만,
포함된다고
##결정의
##기자,
올림픽에는
대학생들의
##페이가
##위안에
##주시를
##29.
##타마치
##우치지
자본주의에
##구성과
##치지는
##인사회
타원형이고
##리티는
되기까지
위에서의
기부하여
유지시켜
##반복
##본질
들어서기
받는데,
##없다
##"A
위원회로
서울시내
##대선
##단편
화성에서
나선은하
내용이었
자식에게
기후에서
콘서트,
스코어를
##왼쪽
국가마다
같이하여
지역이며
##갈릴
##가설
조선인은
기부하는
##매개
28년에
회전시키
19일의
남기고,
24일의
정면에는
##북쪽
##야기
45개의
곡으로는
##둥근
당대에는
공동작업
조선조에
##시픽
유학자를
프라이어
그와는
불가사
측정해
외계의
기원의
식량의
##겉
##팁
사유지
34개
건강의
무력에
60.
226
흑인,
##냘
모터가
미하이
병역의
성우의
시인과
수소화
행사인
가사도
##原
뿌리로
방면과
##諸
방어는
피해의
마주한
중소형
##닦
37개
안동,
뿌리와
아사다
아시나
진격한
경성의
대원이
시계열
##說
##э
공정의
입단에
메시나
수정은
제95
야마사
##苦
주행을
엑스는
FIS
에너
이집
φ
잤
乙
و
##중학교에서
##초등학교에
##1995년
1913년에는
##-2018
##안으로는
서울특별시장
##불가능한
##온이다.
##화하여,
##물리학과
##면서도,
1845년에
##실이라고
##시간에서
##코스에서
홋카이도에서
##손가락을
##문으로서
##나이에서
##보기에는
##보드에서
##서로부터
신학자이다.
##니스에서
##10월에
##토리에서
##예루살렘
##elle
##부상으로
##무관의
##파일이
##런스에
##관리와
##단위를
공산당에서
##무기에
##지하려
##온도가
##출시키
##유전자
##교에는
르네상스는
르네상스를
제도에서는
##프라의
##윈도우
##운영의
##스카르
연기자로서
##모음이
연방의회는
##인인의
##바이가
##생이며
##향하는
명명한다.
##순위에
##행사로
##베이로
##인류의
##오케이
##안이나
##지인을
##116
##원형,
##리안치
##중은행
##돌아왔
##둥이와
##선에도
##랑이나
점령한다.
##UST
##보이가
##아마르
##시아스
1458년
##보기는
사용하기에
##트르는
##대표팀
##비히로
##마트의
##실력을
##코치가
##비트와
##OSS
수사에서
경성으로
##부천
##바빌
형태로는
세대에서
완화하는
인사에서
##이종
##순회
부하였던
##순교
제국의회
끝내고,
아리우스
##예상
##노력
사람이며
##딸을
안동에서
케이스를
##밑에
통화에서
경찰에서
회사다.
동일본의
추가시간
에도시대
##변호
##만남
##조승
복사의
85년
과학사
살인과
침해가
안전,
의학에
유전이
확장의
즉위와
대성공
침투를
그라디
대화,
제정해
유지의
윈도와
##ㅎ
왜곡이
위상에
보장,
국토는
##읜
바위와
평소의
지명,
임명에
재즈와
법정은
도중인
믿고,
흰색이
왕비와
상원을
재정착
##š
사도로
공인을
기대한
357
234
복구할
##빳
외에서
후원에
정수로
규정상
사적을
금강의
코트에
244
말에,
기생을
##勝
보장이
포로의
시상을
허리가
신장과
##ジ
266
무용의
역전을
제2부
왕비에
루트로
알레이
##西
광주지
도전해
예상이
노트의
무인기
소스,
##♪
상호는
잴
쫄
찧
上
둡
고등학교에서는
공부하였으며,
##6,000
##아프리카를
##론에서의
##식이며,
17세기에는
나타내는데,
##재단에서
##사회복지
##본으로는
1846년에
##FIFA
##머리에서
##oche
##검사에서
##문으로,
##노부에게
##축구단의
##이치로가
##-8월에
##최대풍속
##주니어의
제기하면서
##손자가
##고시를
##두산의
##차이로
##하니까
##15.
##바이로
##불가능
##로드는
##아주는
##네스에
##기름을
##화물이
##본이나
과정이라고
##군단에
##주의도
##어에도
##tos
##독일어
##우스로
##맞추어
##쿠스에
##구리아
인물이었던
##엔진은
##만이나
##나이로
##머스와
##끼리가
##문관의
##쓰기가
##일로,
##1위를
##멀리즘
##아오른
1488년
물러나고,
##순서를
##카타는
##보이스
##-48
##세르는
2군에서의
##BBC
##자이는
작가로는
갖는데,
과학자의
##비잔
##뒤인
##싶은
생물체의
개통하여
공무원과
실내에서
##명문
Stop
블랙홀로
의학적인
아버지도
##반지
##후안
성에서는
##용산
시위원회
있는지의
명예로운
##이윤
1월에서
##숙종
##향후
10개를
백제에서
##분출
하우스,
##적대
서북쪽에
이기고,
195년
##인명
군사고문
정지하고
##비즈
레코드,
##관통
병사에게
자리스키
"Let
검사장을
닥터에게
신장에
삼아서
전시는
전시가
편입을
동해를
진동에
메이오
##눅
지내지
허가해
시기상
행성인
조성의
진동은
전형이
노트에
육상,
대로의
98.
공익을
교수직
몸에는
단어나
58년
대대와
가난을
통제는
백성과
서술을
영양을
왼쪽은
여기를
공정은
구리와
가사,
심리가
광주를
센트로
광주목
다수에
호주와
억제를
결의한
2부로
출장이
기동을
기도로
해리포
##入
주지를
보살이
프로그
보수,
루이가
청구의
##先
##信
해리가
햅
밉
훗
쐈
뵙
2000년대에는
##집행위원회
##요시로부터
사실이었다.
##류로부터
##정이었던
##어에서도
##생이라고
24,000
##시아스는
##본부장을
구성원이다.
##제한다.
##일리아스
##부인에게
##크에서는
##린이라는
##작이기도
##선에서의
##노비치는
##니에스타
##inem
##ires
##본으로,
##장이란
##비에도
##5천만
##단위는
보관한다.
##설계를
##형성이
##위성,
##문학적
##먼트,
##BCD
##행성에
##천이나
##레일은
##미에는
##웨어,
##웨어가
##평화를
##일으킬
##다리,
##사유가
##파이는
전쟁에서도
##운드는
##호와는
북쪽에서는
##이후,
##밴드의
##외선에
##화성이
##의정부
전문가로서
##레스크
##여론이
##186
##보고가
신학자이자
##포로스
2018.
##대성이
한국인터넷
##왕조가
##만화가
상황에서의
중학교에서
##각기둥
1429년
##키가와
##아리가
##주기는
##러리스
##인트를
##5.0
##보기에
##주제의
##라도는
텍사스에서
##선발로
##경험이
##유전체
##청구의
##철수의
##밀리가
##산화물
##하위에
##센트럴
##너스티
##시스로
타원형이며
노무현을
문제에도
분자들은
한반도,
##의결
권력에서
개발에서
##탐험
관광산업
노동자들
##객관
영향력과
지적으로
##이광
보병사단
##이정
광역시로
메모리로
맞아들여
사마의의
31년에
일본인에
##임용
##침입
관리에게
##땅을
##무산
##수천
거리에는
줄기에서
영조에게
없다면서
대학원은
여성적인
미국인과
대의원이
##이르
부분이나
지하에는
운전자의
플레이의
달리는데
국무대신
실전에서
케이스가
Dest
공업을
##鮮
진동의
유도,
회전의
의학자
곡이었
도구에
이재학
64년
투구와
인류와
규제의
대신의
해체가
제2군
제85
공기압
교구에
대화재
한계와
66.
수소로
한양을
수정해
이슈타
바위는
여진을
밀리게
생명,
삭제한
유한양
투자금
315
장기가
건조에
라이어
##江
전당,
초대해
고등과
로드의
요르고
우수상
수비율
크리드
떳
뻘
ㅂ
펍
##운동이다.
##부인이다.
##-2008
##-2017
##심에서도
##'으로도
##"The
##점에서의
##않았다.
##음이라고
##분으로,
##중화민국
##세상에서
엘리자베스의
자유주의적인
##오프라인
##오스에서
부산광역시에
##도쿠가와
##레이다.
##유한다.
##관이며,
##크리스토
##격한다.
승강장이며,
##회사로서
##아티스트
##전자기
##제조업
##교사의
##소수를
##속도와
##변수가
##거부를
##대의원
##편이나
##판타지
##시위에
홈페이지는
##페이,
바이러스로
##김씨의
##무사로
회사로부터
##동아리
##소스,
국민의회는
##라크루
11월에서
##-68
##1부터
##의원과
##강화를
##테인의
##들여서
##139
##드로,
##어나오
1348년
##검사와
##신도는
추상대수학
##소설이
##하나를
##요리와
##공신인
##일에도
##보스트
제11호로
1368년
##미드를
##노트로
경기대학교
10월에서
2006.
##군단,
##13일
##트리플
##Hel
##크로드
##가이어
##파이트
##브로스
##증권을
의사이다.
개정에서는
##타리오
##아이템
##마자와
레이다다.
##카이와
##테쓰는
##전례
정의하여
이상이어
국가로,
##중세
단위에서
주니어의
미국인을
##복구
의해서는
주의하여
총리로서
다양성에
대학원의
저지대에
전문가,
선이다.
조선인과
한다면서
오른쪽은
사무실과
##무게
의원이었
##주전
자이다.
의식으로
##슈팅
도쿄도에
18.5
행위로서
밖에서도
아시가라
##운항
그러자,
행사에는
해군에게
##탈락
2학년에
예선에는
목적지를
보아르네
시집으로
에이스가
최종전인
회사로,
##디렉
이스트로
감사가
개체에
단계와
95,
수도와
아스트
총선의
간부의
1호,
선교회
주는데
바가지
화성이
인상은
재단과
구역,
나라이
1부와
가마가
협상과
54개
국도와
복사가
연주된
중추적
법정의
노리스
동년에
포병의
##짤
시로가
포도,
##륌
개국을
326
증기가
전면은
동화에
섬유는
공인한
완성에
시계,
##宮
고리로
동지를
246
번주의
제사의
이오는
대수에
MCA
임기에
##造
##目
노출시
역과의
점프는
축소화
형사가
가사이
권리로
당초,
유키는
##應
아트워
후안은
레이미
장기하
아버
냅
쭈
콸
à
formula116
##대학원으로
##익스피어가
기록되어있다.
##이하였다.
##루트비히
##원에서의
##도에서의
##시키기에
##공이라는
##베리에서
##미사일의
##소스에서
##만이라는
##해지는데
##률이다.
##성인으로
##프로스는
##리지에서
타원형이다.
##현에서는
##-250
##시위가
##어워드
이루는데,
##결합의
##시계는
##로그가
특성이다.
비즈니스를
##대우를
##교사가
##무부,
##현장을
##파일은
##위성에
##환이나
바이러스와
민족의식을
##지하며
민주주의적
##프스타
##는지의
풍부하며,
##대책을
특징이라고
##iag
##의학의
##시스에
##일으켜
대통령과의
##파에는
##가치의
##기는데
##층이나
시인으로서
신인으로서
범주에서,
##드라와
90년대에
##사르는
##드리가
##색이었
##대대에
##학교도
##계로,
##미니아
##생물질
##야구의
##쓰기의
요시마사의
##당선의
##아인은
##바람에
##석이라
##감각을
##말라의
##화에게
##섬유는
##데이트
사건에서는
##포지션
##레인을
1126년
총선에서도
##비스를
##소장이
프로듀서의
##-Ch
##전자전
2900
발전에도
운동이나
동기로는
지지하게
티베트에
##수감
##실전
무관심한
인사이드
시드니에
문학적인
26일의
거두는데
와중에서
##지바
출신이라
민주당,
변형으로
인물이며
11위에
게이스케
1세대와
정해지는
일반도로
##잘못
히데이에
리비아는
작전통제
사격으로
1930
올리는데
공주에서
한국민족
##도요
12위에
작품이자
구원으로
##연쇄
##호소
야기에우
클라이브
빌헬름은
##필라
##서식
하우스로
제1군단
패한다.
발전기의
사이리스
##이벤
제주를
오전,
선의의
##口
극복을
방어,
대우가
복지에
고체로
도시민
발현이
포트워
서기도
2개국
번식이
암호는
보상에
가나,
1일로
존경과
테마에
없다,
민중에
형제에
손상,
극단의
가지나
토지,
마리,
배정을
베타는
##形
오이,
##常
개명을
장식의
##韓
독일제
군주에
##多
1면에
이지만
후원과
당선에
제후가
##夜
아이바
대리를
##섀
걸어가
HTV
레이와
페이트
##修
##≪
카라의
##順
승부로
역과는
##‚
##境
조각기
셍
횔
팠
石
##조선민주주의인민공화국
캘리포니아주에서
##주의적이고
##의회에서는
##-2009
##트리오스는
##의회원으로
##율이다.
##스카이가
##미디어의
##스펙트럼
##력에서는
##동물에서
발견되는데,
##선수들이
##축하면서
##상황에서
##단이며,
##미에서는
##리우스,
##천이라고
세력으로부터
일부분이다.
##라스에서
##시오스는
##대학원과
##어나오는
##크스에서
##천군수로
##ules
##2006
##기부의
##정권과
##정보는
##전화를
##있도록
##파리,
##당해야
##보스와
올라가고,
포함하고,
##토스로
정부에서도
##특별한
##창단의
##리크의
##스로서
기록이며,
##근무를
##자기에
##법에도
##아무리
##명칭이
장면에서는
##바이와
##수소와
연구에서,
##무용의
##유사에
##’이었
조선인들은
##15,
중심으로서
##nen
##프리에
##무사를
##마크로
##위장군
##행이나
##순환을
##행사의
미국인으로
##And
##포트,
##런스,
##제1회
1480년
##사다가
장수이다.
##타이와
##우스크
##동안에
##후지와
##신칸센
##삼고
##유용
작품이며
제주도와
사장이었
같이하는
근대화의
건물이었
쓰지만,
예상과는
생각해야
코드에서
수도권을
별도로,
오페라가
세우고자
##대단
공주에게
기사에는
군주제가
상하이와
외교사절
##투구
곡이기도
##개봉
자유도를
득점에서
영역에는
정도전이
##전개
##재능
통신사의
화가이자
350년
오렌지,
강원도,
경기장,
##양국
특이사항
가수로,
이동시키
주인으로
탈출시키
##들려
##전부
팀에서는
주제가는
##영조
어워드의
최우수상
선발로서
통상반의
표시기는
스테이블
탄소에
하락을
통일,
순서의
연안은
야당을
감사와
백인은
268
혁신과
종이나
편입학
회고에
오라는
다중화
전사는
유전성
유전을
불법적
공기로
전후반
솔로를
주지만
제사가
조명,
고전압
집단,
54년
통제의
파크,
나이스
유입을
##늙
대형을
기상이
대장에
년에는
##溪
소장에
평등은
##겅
##歌
488
##頭
Bec
대처를
##ъ
선종은
로드를
4대가
입단이
한신과
##功
․
（
◦
##아프가니스탄
##여자전문학교
##전문학교에
천문학자이다.
##1945년
##민주당에서
##사람들에게
##test
##공학에서
대한민국에선
##시스트로
대부분이며,
##석이라고
##노선으로
##슨이라는
전통적으로는
##icen
##투스에게
인도네시아가
##대학원에
1795년에
##스에서도
##달린다.
바르셀로나,
우리나라에는
##스코트로
##inen
##aden
##쪽에서는
##모리에게
##연속으로
##ded
##호로서
##원자로
##평면의
##조건의
파일이다.
조정한다.
##도에도
##두어야
##전력이
근무한다.
##행성,
##진이나
##신경을
##내지는
비롯한다.
전쟁이라는
##라노스
##시각각
##의원은
서울시에서
##쓰기에
##발이나
##성이의
##바라와
##적합한
##모음은
부분으로,
##미드가
##대전을
영국에서도
##vet
##의사의
##마리는
##보아는
1421년
##통일에
업데이트로
##."는
이야기로,
##아시안
##공항의
##가까지
##끼리,
##수입은
##부하지
##수사가
1380년
##211
##가수로
##보드로
##사이유
1440년
##장관의
##17.
##OPS
##기록에
##노트는
지지도가
##도착
##한미
전두환을
광역전철
가속도는
전국경제
##종결
##확립
##출범
##각자
가상으로
##항구
공용어가
구분해서
조종사로
신학에서
##이순
전사자를
독일이나
##끝내
특이적인
##통령
지표면에
##식별
제23대
경제사회
생각이나
만들기에
동북쪽에
20.5
##풍부
유학자의
##타원
부문에도
크로스가
마리오는
298
이자의
부호로
필수로
ind
개성,
출력에
의병이
기름은
아라우
으로서
상대에
65.
선고가
하고도
##푀
개시,
작동이
개정해
임신의
간호를
시가를
진공을
다시마
##랠
포크는
이식이
양성,
##典
양성의
알리의
중단이
##ñ
라인,
인수에
라이노
##ュ
소스에
작사에
주가를
##®
브레드
각본의
선발전
이명을
##ح
∈
ل
и
##엔터테인먼트와
##마케도니아의
##령으로부터
##권으로부터
##신하였고,
##인도네시아
##신으로부터
##작품이다.
##2019년
임시정부에서
##19세기
##프레스,
오케스트라는
사실이지만,
##안이라는
##데스에게
##투스와의
##해에서는
##-150
##경기장,
##주시에서
##프랑스,
##사령관의
##신학교에
##베리아는
##공산당과
##돌아가는
##eles
추기경이다.
군인이었다.
##구단으로
##크스와의
##사이드로
##반도에
서울에서는
##윌리엄
##파리가
##성장에
##공장과
하나인데,
현상으로,
##교수의
##집이나
웹사이트가
##일이라
##부로의
##민중의
뜻이었다.
지금까지는
##하에,
##산이며
##재단에
##양성에
##닉스에
전쟁이라고
##형이상
##대기로
##어들의
휴대전화를
##제이며
##가루는
##분화된
구성이다.
##파르게
##이명박
##지마는
변호사이자
##령에도
##정이란
##-4,
##포도주
##재산에
##권과의
##세상에
##비아티
"Best
##지도의
##세이,
##수리를
##257
##오스에
##센트와
##크스로
할아버지를
포인트에서
##176
##일대에
##무슬림
##조로서
##사람들
착수한다.
##전이자
1385년
##-66
##시드는
이야기하며
##기회를
##지진을
##카스터
##국정원
##제기가
##포스와
##179
##회사이
트레이드는
##득점에
1424년
오키나와의
##Des
1995.
##네이드
##사사에
##밴드는
##태종은
##강력
##삭제
수도권에
대수학의
입력으로
##입문
생산하게
발전기가
동경에서
11세에
의미하지
시위에서
##흑인
특징이라
##복제
일본인은
##옥스
연구원은
유대인에
바꾸어서
국방부와
##상징
대중화를
공무원에
10.0
기능이나
##액체
##처형
가정교사
혁명에서
증가시킨
상임대표
집중시켜
211년
##재현
무리에서
##전반
3월에서
사이즈는
47개의
왕이라고
저지대의
##밝은
1964
기사단을
지방의회
크리스타
무선으로
오타카르
##개찰
라이스는
사용해,
노스트라
야구단의
아이돌을
전에서는
출입문은
표기의
68.
가나가
물리,
상대해
역사도
흑인은
아이온
적색,
투어로
문학사
개설을
부서와
주재료
일이며
출시에
트리아
##얽
프리아
생기를
클리포
59년
조상에
노비와
가이던
주인과
제사는
쇼군인
가마는
단지로
제주로
강도로
헤이드
무사를
승인과
공주목
소장과
보물이
호소를
대우는
##于
성인과
##度
##ú
안동의
##手
##處
양산을
무사가
뿌리의
##聞
차트는
무용은
##듄
소화한
레인은
마법과
나가쓰
##議
##了
샅
뵤
formula1인
##중화인민공화국
##엔터테인먼트는
프톨레마이오스가
1904년에는
##세대학교를
##-2005
##프로그램에
##위성이다.
##연대회에서
##당초등학교
##사이드가
##페이지를
##사이기도
##어머니의
서울특별시,
##로에서는
##이는데,
##루스에서
##맨체스터
아이스크림을
##행이라는
##역이라는
##신하면서
##공동체의
##카이도의
##불가리아
##아시아는
##편으로는
##Best
##프로스에
남아있는데,
##리자베타
##폴리오를
##생명은
##분이었
##정지를
##소스핀
##아우구
##통일의
##177
##2번째
70년대에
광주민주화
##하나는
##국회의
##진군에
##위에도
##에이는
공부하면서
수행하는데
##148
속하는데,
감독으로는
##역사는
##승부가
중심이었던
##메인에
##일본은
##-49
끌어들이기
##iog
##ESC
##장관과
##무관이
여성이라는
##합성의
##산화를
##디어는
##아스와
##권이라
##사용이
보여주고,
##드리고
##-59
##자동맹
##로로는
##고백을
##대장과
##데르가
지구에서의
##섬유가
##2학년
##라마치
##위성과
##사우의
##클린이
##스의학
##》이후
##강이나
##예선에
##135
##디스에
##비평가
##진출에
##가지고
##땅에서
##156
##리기는
##머스가
##오카와
##게르는
##rak
야당으로
하와이어
11위로
##가환
분자들의
개성으로
323년
##정착
##배포
소위원회
##왕립
판타지,
사령관과
사이즈가
어린이용
먹는데,
공동체로
국가라고
한자로는
##복잡
갖추고,
인구에서
말이라고
사건이라
감정으로
단어들이
현대화를
주재료로
##현악
잡아내는
26년에
##전염
##서브
일부분은
##없을
29년에
참가해서
480년
교구에서
##존중
나아가야
작품이었
대학원,
그레이하
##발렌
자기자본
6800
##실질
진출시키
페이스트
##도모
Sund
노선에는
곳으로도
프레드리
더이상의
사이다.
##첨가
비행사가
##고통
헤이스케
##작동
##너먼
##결승
에이스를
스마트워
고전의
말로써
하야를
좌파와
259
승부에
개체와
북부가
주류는
22억
수호를
행정권
극단을
넣어야
참가는
7개국
포트에
멈추어
창조에
진단과
초기와
기부에
당대회
90.
고민이
여성적
평가로
맞는지
##士
사기와
제기를
안양의
골드를
측면,
인수로
구리를
이정의
##ゃ
보스가
선제의
메이스
폴리는
미니스
ν
땃
꽹
##정으로부터
##1994년
##보통학교의
1870년대에
##법이었다.
##36년에는
##33년에는
##프로그램의
##량이었다.
##진으로부터
##건물이다.
##식으로,
물리학자이자
##일이며,
일본인들에게
##사람에게
사령관으로서
조직이었다.
##질이라고
서울대학교의
##스트로의
##연구원을
##신하고,
##소에서의
유지하였고,
##스케이트
##자연주의
##않는다.
##무장관은
##만으로,
21,000
항공사이다.
미국인이다.
##직원으로
##브리지에
##에이에서
##aves
##성장의
1446년
일본인으로
도쿄도에서
##음이의
##마리와
표기하며,
기체이다.
##성적을
생기는데,
##365
##만이었
명칭으로는
##라스로
##감정이
##변이나
##보전을
##바라가
##상하이
##소장,
청소년에게
##256
##식물에
##리처럼
##왕국은
##덴마크
##발트는
##하마의
##뉴스가
##청이나
누르가치는
경제정책을
##모드로
##sse
##80년
##인식을
##류로,
##유지에
##에티오
구단이다.
##신도의
##한국은
##가시오
학교에서의
대학원으로
##정원이
1364년
에르네스트
##212
##바라를
##리트로
##우려는
##255
##오렌지
##예술을
##찬성,
##키아가
##뉴스에
##머스를
##피에게
추가시간에
##ONA
##번호,
##역이며
##INA
##교구는
##현대의
##다르는
1회전에서
증가시키고
##입대로
사무관으로
##우크는
텍스트로
##임기
##자세
자연계의
5개월간
원자들이
외부와의
이승만에
정교수로
주지만,
##미주
전시에는
시간이나
교사에게
저항성을
##사헌
##시초
##급진
##창당
192년
가사에서
것보다도
소년에게
전원에게
불안정해
##각본
클래식에
지속하는
맞아들이
1개월간
문화산업
넘어가고
##나아
찾아내고
##대관
##은퇴
기록해,
##또,
가지만,
예수에게
싱글로서
##샘플
5년에는
##항성
뉴스에서
백색으로
1899
5.56
스페이드
보일의
##볐
최대가
아시모
데에만
동해,
게이,
행성,
음성,
우호를
깨달아
두어서
코어가
간에,
논문,
적의를
복사는
침해의
보다가
스타이
한성에
동지가
자문에
46,
폴리포
육상의
일상에
지내야
적색을
이성이
국정의
소스케
전화와
가나는
조치와
출시로
유리에
변수,
소모를
학위가
간부와
도전은
나이인
백제로
6개국
재산,
##퉈
명문의
코트의
왕위가
구리로
##表
고무를
노리코
수원을
무관을
##市
42개
내의원
행사도
232
포도의
##꾹
예선이
##뻤
311
257
교구로
나가라
##淸
##겊
##欲
수정에
통상은
현대는
조작은
데이토
보스로
##좨
최근접
왜냐
µ
쏙
﻿
쇳
五
윅
훠
##방송되었다.
##1984년
##상으로부터
##1992년
1844년에
##들이기도
##5년에는
##에너지가
##사이트를
##신성으로
##력으로서
1849년에
##국가로서
##따른다.
##박스에서
##하고자,
##간이라는
##살이라는
##출장소가
##4년에서
##본으로서
##학자로,
##토스에서
##떨어지는
집중시켰다.
구성원으로서
##하우스를
##랑이다.
##사건에서
##령에서는
##다이에서
##자주연맹
##미디어가
전문가이다.
##경기대회
자유지상주의
##변수로
무대에서는
##일치가
제공하는데
##15일
##소장은
사용하지는
행정구역의
##197
##진화의
##외선이
##웨어로
##오스크
4000년
##구름이
##데이와
##투어는
##시설도
##류와는
##아리,
##자원은
1490년
##당이었
국가공무원
##슬로의
##빌리는
아이디어로
##코스키
1554년
13세기의
##144
##행성과
##주는데
##질량은
##서울의
##8개의
##포트에
##이전에
1277년
##마음이
##사기의
##레스폰
1180년
사용한다면
##137
##끝까지
##부장의
##강도를
##들고,
국왕이었던
##학사,
1448년
##196
##하시오
##직원을
##여동생
##마트가
##126
##-46
##원이란
##메이르
##201
##심사에
##섬유의
##순위는
##장비가
##자라트
##감에게
##찬성이
1130년
베네치아가
##갈색,
##메이어
##무기,
##천군수
요미우리가
##상과의
##차트에
##버스트
##언제나
서비스로서
##라스카
##탄핵
입자들을
출력으로
공원에는
계산하고
게임기로
타원은하
##늘어
감정이나
##8개
때까지만
전후에도
##체류
문자들은
1일에서
건너가,
##박영
블루스를
전사자는
나아가고
단위로서
고대에서
##먼저
이동시킬
포도주와
독자들을
부동산,
##지냈
조달하는
11.0
진동으로
미국에선
##없었
##추상
##본선
능력이나
##다다
동의하여
법원으로
사제품을
부인과의
가수상을
아이유는
조명과
자기에
안보에
규제는
파트의
4대를
유전공
남자에
파크가
철수가
도시마
차단을
지고,
죽이면
공부와
포항공
살인의
현대를
베르고
도전이
종사를
암시를
까지,
투수에
곳에도
한일어
왕자,
찾기도
준공식
만주어
보기를
트리어
고문의
시도의
포위해
삼고자
##め
광산업
박사로
아르네
번역의
소환을
당시와
다이로
해적이
사장교
두루마
아우라
##谷
1인을
비오는
약속의
소비에
오스터
직무대
고조는
이때도
기지,
연방법
부사를
석가의
필름이
반지하
조명은
OSC
보관,
##離
##­
공정에
데이는
미드필
경유로
도모토
보수한
루마
오렌
훑
뵘
솁
땋
□
눅
formula1개의
##지정되었다.
##ection
##있었으나,
1898년에는
##산이었다.
##1998년
##종으로부터
챔피언스리그를
##생물에서
##쿠스에서
##메인으로
일본어에서는
##음악에서
##이로부터
##하우스와
##소장으로
제외하고는,
##주석으로
##테스에게
##학에서도
유대인들에게
러시아인들이
##프라인을
##온이라는
##연합군의
서울특별시청
##속에서는
##역으로는
##아이에서
##올림픽에
##석으로,
##이치에게
##illy
##카스에서
##고속에서
##하나가
##현재의
이하에서는
##Sen
##론에는
##정원을
##성장과
##카라의
##속도의
##이사에
원형이다.
##출장소
##그동안
##시계의
아카데미가
100m,
##만화의
##변이는
조선인에게
회사에서는
외국인들의
1378년
불법이다.
야구에서는
##리기에
민족주의는
##전사의
##원과의
##김영삼
##조리를
##자유를
##〉에도
##아나와
##곡이라
##처리에
##히틀러
##부수는
##모임을
홋카이도를
##680
##리지가
##레스키
##24,
##오키가
##폴리의
##문이라
##력에도
내부에서의
##파크와
##14,
##쿠르의
##구단의
##재산이
##왕에서
구성원에게
##교통과
##112
##사이즈
##25,
##카라고
에르네스토
##21,
1258년
##대주교
시점에서,
마사유키는
##카타의
차원에서의
##베이가
##도와의
수록된다.
##컬러스
##보전은
관심사가
##전직
일본어는
일부분에
사이트,
시기로,
제주도는
190년
자전거의
##포기
통신하는
##밀려
의미하기
타원형,
시인들의
##유효
64개의
1945
##한편
블루스는
##양반
클래식을
##변신
국정원은
##수치
안전성과
##고체
후손에게
무기로서
##안양
공정에서
##맞아
성인들의
제25대
##즉,
3300
215년
나오지만
왕자에게
신하에게
저장소를
##통근
항공사에
미군에서
방식이며
후기에서
##통산
##허리
스위치는
##오래
리처드의
자라고,
오르는데
목조건축
콘서트와
스트라디
만들기를
24번째
##범주
주니어,
음반사인
##상처
음성인식
회색이고
황제로,
필리스의
헤이시의
88개
증명에
정리로
것과도
정지,
제조의
동서울
##や
가려는
보도,
재개봉
코어와
시도,
복제가
양성이
들여서
##떳
견제와
주가지
##탓
인구로
##ē
3일을
확산,
통과는
뜻이며
부모인
최대공
진단에
협력은
에이나
농구와
약화를
입법의
부대변
영주와
포로와
간주한
##씽
신도를
보관이
##쾡
공기,
지방어
포항의
보도록
##ㅈ
##ㅏ
노비의
##쉼
동경을
교사에
31번
처녀를
##폿
미사가
사제,
가마의
태국을
소위가
최고가
무라트
승부는
##ч
아이나
##쿱
메시가
도전과
##み
SCP
크로켓
노스케
잡아들
##野
##第
단백
ㅣ
뼛
formula120
##초등학교에서
##협회에서는
##15년에는
##크로아티아
##유형문화재
1915년에는
챔피언스리그와
##활약했다.
##역이지만,
##회의원으로
##돌이라고도
##시에서도
화학자이다.
##적이기도
##있었지만
##라이스는
서울특별시로
차지하였으며
##치에서는
##-239
##품으로서
##"이고,
##국제도시
러시아인들은
##권으로서
##역까지는
##성사에서
##플로리다
##판에서도
##변호사로
##오페라의
##리오스는
##무원에게
##케이세이
##’에는
##커스에
##수학의
여러가지의
대선에서는
##과에는
##줄기에
##년간에
##원자가
##교로서
##IMS
##런스와
##원이고
##발트의
##선교사
##심이나
이주민들이
이끌어가는
##대학살
처음으로,
##아리와
통일했다.
##케이온
##야스,
##클로드
##수도를
##해도,
##기념물
벗어나고자
##너스에
장면이다.
##레드가
##원정을
##메디아
##가족은
이어지는데
1259년
##르지만
1425년
사람들이나
##자동화
##돌이를
##아파의
##배상의
##조정에
##관이며
홋카이도에
##레인과
##성경에
##정기에
##이사와
##타이에
##위험한
##라도의
##최대의
##조로,
우승한다.
##기지와
##아트릭
1127년
세계에서의
##보이와
##채권의
1185년
##tow
##일대우
경찰이다.
##추격
개발에도
국정원이
이름이며
##작사
가속도가
플라스크
모음으로
##플랫
오페라에
모바일,
##좁은
##웨일
보편성을
##정교
과거에도
##시골
추가로,
##관람
##추모
라디오가
##완벽
475년
"Her
친정으로
넘어서서
##전진
인식으로
방식이나
제일은행
상의하여
##최저
사이드와
지나가게
##의병
Arou
공작위를
##때가
경기부터
선발전을
공인인증
나치를
규정해
앞서의
묘사,
모르기
뉴스로
적도를
초에서
결의로
동부여
처리로
말로도
이하라
초상이
인지를
54,
파크로
높이,
수비는
##찻
할당을
1호로
정해야
집계를
425
"이미
처형이
불리지
폐기를
규제로
1인의
추대한
무산소
중세를
##＜
##外
쇼군을
위로를
신사와
추종을
##씀
승인은
명이며
기자에
21억
##帝
간행을
뒤집을
번식은
영주를
대전형
##衣
방패로
제트는
자리와
이사무
로드에
대로와
개시에
##훗
新
高
쳉
욥
б
文
С
##로스앤젤레스
##시키지만,
활성화되었다.
##》이었다.
##색이었다.
로스앤젤레스를
##세대학교의
##Under
##영역으로,
방정식이라고
##무부장관
대응시킨다.
마이스페이스
##트레이드
##경부터는
##감한다.
##중학교의
##스트레이
##tech
제기하였고,
집단이었다.
##지점에서
18세기부터
##보에서는
그레고리우스
##무장관,
##강이라고
##정이며,
##플라스틱
##둥이자리
##화한다는
##상규명을
##스카이의
##영역으로
##서비스,
##iron
##운동기념
##Summ
##lder
##전기와
지정된다.
##세대와
##카르의
##수학적
##CAM
##지리에
##곳에는
##언어는
대부분에서
줄어들고,
##인가가
일제로부터
##비서로
개념이며,
##루이스
거부하거나
##누르고
서부에서는
##파와는
나오지만,
##바나,
##타임이
##한국어
##전시키
##프리,
대전에서는
##우라의
##부와는
##원정에
##즈키가
되면서부터
제공하고자
##표기는
##베이를
##대성의
멜로드라마
##대법원
##상에도
##카스에
##대기가
##전라도
##32,
##법인인
##건물의
##돌이에
##도호쿠
##전에게
##3위에
##쓰기는
##보이,
##158
##’에게
##자이나
주장이었던
##145
##석기,
##지도서
한국인으로
##보이기
##공학자
##종과의
##러리아
##올리기
##일대의
##모드가
##항공을
##루미나
##구제가
##SSA
##UNA
##사르가
##그리드
##부모은
##군사가
프로듀서와
##로드를
##사무관
미디어로
강원도와
정의하면
한국어가
그것과는
산하기관
##닫힌
알아내고
이지만,
사람이자
연안에는
지중해,
##김규
제2군단
##그럼
알리는데
부인이자
대항해서
##혼인
##섭취
강제이주
##점성
오디오를
혼인으로
회전에서
평소에도
타이지는
근거로,
196년
##주최
##개관
##그것
향상으로
전라도의
조종사를
케이스로
22.5
##이루
회사로서
단어들을
가지지만
공동생활
##남편
환경영향
수록곡이
제31회
##메모
주재로
우주,
소수로
행정상
##짠
지구상
신이나
확산은
공유한
왕이라
시가의
교수도
입법에
사형은
여자인
으로도
백성은
결정체
한성을
시골로
기부로
아벨라
소개가
구리는
김씨로
루트는
서브를
외부를
349
재임명
보지도
##良
ICD
42번
##禮
마리로
##엡
인기의
배정은
심판에
손상에
##쏠
캘리포
295
연령의
3위가
분리에
아스칼
제99
프리에
##實
##ィ
리드가
공부는
보스톤
청동북
처형은
해설이
원소속
##申
인기상
이지혜
MSC
야스트
초대수
잽
쩡
م
⊙
##프로그램에서
##보병사단,
##보병사단이
##inder
##1996년
##30년에는
##보병사단과
##방법이다.
##천이라고도
##무원으로
##란이라는
##체에서도
##ores
##위원소를
##인사이드
##"에서의
##모니아의
##기관이나
##부장관이
##되었다며
##치는데,
##시간이나
헝가리에서는
##집으로,
##머리에는
##동에서는
##고에서는
26,000
##콜롬비아
##책으로,
##형으로는
##중국에서
말레이시아가
##연합군이
##찬성으로
##대법원은
최종전에서는
##무대신이
##트리지를
##-346
##어와의
환경에서의
##연산을
##동이자
##교체가
##259
국내에서의
##전력의
##강도가
##베이징
결정한다는
##강연을
##세운동
##20.
권고한다.
##전기,
##회로에
##또한,
##토리로
##산하기
##류에게
##축구의
미국인들을
##반도와
##성사의
##종이었
##머스에
##리아인
회원이기도
##범위에
##국이며
##극장과
##르기,
##회전을
##수비오
아들이자,
##중앙에
##uet
##기인이
##클라스
##포트가
##구로는
##제사에
##가사유
누르가치의
##군이란
##공군을
##-2.
##면에도
##여왕이
##유신은
##날개의
##118
관통한다.
변수이다.
##신호가
##돌이가
##출력은
##산은행
언론에서도
##시타의
##20일
##다이오
일반대학원
##학교육
카르타고를
##학위와
##이스와
##살아나
##로드가
##시모는
갈색이고,
##현대사
##규정은
##그레스
1496년
부사장으로
1445년
##레인이
##부르고
##고자리
##높이를
##31.
##아이와
##슨과의
##마무라
##목적은
##기하지
##대부는
##7월에
##이가와
##카이에
생물에서
##유발
10대를
대중성을
17.5
3차원의
동해안을
음식이나
나타내려
##원산
원시행성
도중에는
알아들을
##협박
공동체,
금지시켰
특징은,
철학자로
클래식,
상하이는
유지하던
공화당을
##중종
동화되어
960년
사회계약
민주화와
세인트루
민주화에
메인으로
Meth
##때인
제22대
32년에
지역이라
자세에서
이내에서
공부하며
미국에도
크기에서
제도로,
6600
중간에는
대의원의
회원에게
당일에는
##"B
안에서,
33세의
1958
모델이자
##.0
메이스는
탄소로
정원,
기호,
애국가
합성이
유저는
우려는
개조에
보이드
독자는
##끗
사고도
주관의
비례를
##ャ
보기로
수영구
발현은
입력의
소유지
75.
박사후
신성의
고대사
로드는
연령,
서기가
교역은
손해에
선물이
완성이
뉴스위
후임이
소리나
사사건
Set
앞면과
개선의
339
분화한
사기,
보는데
나이오
왕위의
##將
주로서
하지의
##居
금강을
##音
진정을
야간의
유신은
##壽
##號
32세
55,
제자와
마이스
대대,
##쳅
저항성
##動
발전용
가면은
##思
서기와
##‰
345
11인
테오토
트위치
타이라
시로의
무관의
포도로
레이를
방면이
아마이
##몹
이루마
##空
##齋
전당의
다이노
오스위
##짼
아름
문재
⑦
넴
南
햘
formula110
##보통학교에서
##되었다면,
##그라운드의
##13년에는
##1989년
준결승전에서는
##현이었다.
##ector
##25년에는
##데이비드
##클리드의
##출신으로
##브리지는
##당이며,
##과학적인
100여명의
##무장관에
##경기장이
##강이라는
##치로부터
##'이고,
##위에서는
##식에서도
##크로부터
##석이라는
##플러스의
##세자에게
##족이었던
##령이라고
##하기에,
##〉에서도
##수원으로
##갈색이고
##증이라고
오케스트라에
##시리즈는
##프레스를
##amed
##로지에
##표현을
##어떠한
##고도가
##오스만
##왕조는
##증기는
시대에서는
##중심이
##노선에
루마니아가
##영상에
시점에서의
##1세를
##치로,
##받침을
##증기의
##공장에
마찬가지의
유대인으로
리눅스에서
##주제는
##완벽한
##시기,
##합성은
졸업한다.
##17,
##제와는
##사용을
##리카르
##훌륭한
##내용의
##117
##우리와
##총재를
##전두환
메모리에서
##내고자
30분에서
##구에도
12세기의
##언어를
##대사헌
##레오가
##》이라
더해진다.
##자신문
##:1,
여왕이다.
##천이라
##방이라
##드레스
##권과는
##헤드가
##르바는
##일본에
우리나라가
##자키의
##제시의
##후반에
포기하면서
##생이라
##다이묘
##192
##자주의
##서부로
##베리를
##예배를
##관과는
##기지,
##마리에
##질이며
##리트는
##내부의
##재단,
1276년
##우치의
##하에도
##로스테
출전하는데
##창단과
##배치가
##말라는
##군수가
요시마사는
웨이트리스
##-57
##표시의
식물이나
뜻이고,
고조선을
##무릎
##종로
##트윈
유기체가
노동자에
속도에서
정신이상
##건립
전기에는
##삶의
32세의
차이에서
작품에도
##알고
##강점
##그냥
##관해
##숙청
##빈곤
14개월
신학자로
내에서,
##부른
여왕에게
정리에서
경우라도
189년
안토니아
화산으로
증가시켰
##모은
##추정
33명의
##서비
##피부
##맡게
##핵심
출입문의
전당에서
제3세대
공장이나
##입성
조성으로
정도전,
신경계의
국가에게
##평행
10개가
황해도에
학교에는
제2세대
6년에는
제110
차량이나
텍사스에
게임기의
제임스,
연대장은
마운드를
승리에서
전동기는
브리지는
77.
악화와
주류의
이중성
제주,
타원의
말은,
추구해
표기도
8개를
품고,
저지하
히트로
생성은
1집에
동지인
자연계
영원의
총선과
##맬
##젊
모터의
공중을
엘리아
아서가
규정도
간주된
초대륙
##뒬
후기가
살고,
##コ
가스코
법원,
평안을
오카와
다이하
가해져
##쪼
청주목
복지,
말해야
757
대피를
손자는
수원이
중단에
사형,
사과는
##콸
매입을
모르타
예선,
열대와
댄스와
보수에
진보는
넘어,
심리에
88.
투어와
파트는
해에도
손자,
진주에
아스톤
메시의
우수리
가지각
경고가
입대,
루트의
이나오
전향해
트리가
대사도
##땃
##س
피고는
전차량
마라는
##奉
»
껀
山
홰
듄
ف
formula118
formula115
##석이었다.
##국가이다.
##되었다고도
##편이었다.
##하였다"고
##있었는데,
##플레이에서
우크라이나와의
##우리나라
##비상대책
##사장으로
##해상에서
##’으로서
##지하면서
결승전에서도
##정치적인
##'에서의
##원의원을
서울대학교에
##시키지만
27,000
##소에서도
##량으로,
##회장에서
##크리트는
##니아주의
##안이라고
##7년에서
##등에서는
##양이라는
##당시에는
##량이라는
##전용도로
##축구단이
##들어오는
##손자이자
사회적으로는
##세이며,
##리면서,
##-900
월드컵에서의
##상대사가
##hter
##노스트
##제공을
##클라인
지역이었던
##학에는
##기인,
##해제를
##회로,
##손에서
##사전이
##리안이
##변이에
##박스가
##16.
1250년
##창단,
최고위원을
버전으로,
##외선의
##장비의
##목이라
조선에서도
##연주를
##르기는
##작가는
##테스에
자유주의,
##확대를
##470
방법이며,
##명인사
##마치고
##수원,
##방지를
생산하는데
##로와의
##루스로
세르비아가
##그로가
##접하고
인간이라는
##병력은
##보장에
헝가리와의
##가난한
##아가서
##325
의미하지는
##린이나
##수도권
##질로서
하나이고,
월드컵에는
##산에게
해당했다.
이름으로서
##124
##570
##메리의
거주민들은
##구와의
##드로서
1122년
##전과는
##가치는
1360년
미국내에서
##토리와
1370년
##133
##외국민
##베르네
##소장에
##대수는
##실에게
대학교에는
##기원의
##리스코
##구치가
원산이다.
##니어의
##통과는
##수와는
##그런데
당사자에게
##세르타
##오디션
##리아르
연방의회의
##〉은,
유로마이
늘어나서
명으로서
한국정보
##침투
제자로는
과학자는
제조사가
바이오스
##언제
조선호텔
전동기의
철학자가
만화가로
##전북
의미로도
포기하여
10일을
6개국이
한국에선
정부수반
유전체의
작업에는
유적지는
자라는데
10만의
##입장
나가고,
단위로,
##등용
기록에도
정조에게
미치지는
엘리아스
##중요
경상도의
23.5
##후손
축구단을
##주둔
성이라는
1940
9년에는
선수에서
제24대
##알렉
미국인,
식민지,
제임스를
폐지하기
제42회
##닌텐
##두루
에이스의
보일은
아트는
도시조
46개
경비는
단위와
##志
로스가
철수로
일대기
탐사의
##チ
##村
서구와
##美
이전작
7개가
31세
코드,
양산에
영주,
헤라는
주문에
망명,
다이지
##わ
##じ
심사가
아리에
인상,
측정치
태종과
철수,
시위,
범주와
시나고
착수,
뻗어나
군인에
세대,
꼬리로
정면과
손자를
전주는
두루미
##未
텔레비
후임을
재임용
음반도
좌파는
골드,
미니는
대장,
##隨
##玉
맞지만
루이와
출전국
역에도
시로는
시에,
##好
##へ
통제사
아마르
동점인
뎅
쳇
1860년대에
##39년에는
##감독으로서
##프라이즈는
에피소드에서,
##음이라는
소프트웨어나
##미디어를
##선으로는
모델이었다.
##국회에서
##정으로,
##세우스를
##법이며,
##폴리스는
##니스트로
##자들이나
23,000
##권으로,
##맞는다.
##관한다.
##2004
##작가이자
##내린다.
##층이라고
##이시카와
##정원에서
서울특별시를
##역에서의
##행사에서
##oves
##기자리의
##판이라고
##아트리스
##브리스트
##마스,
##학자를
##조사로
##일본어
##주기의
##나중에
##기자가
##사전인
표현하는데
설치하여,
##세로,
##탄소는
##미아는
##번호와
##파리를
포함한다고
##정원,
##cto
##연합군
##138
##쿠라를
##각기동
##실이라
##소스로
##수사업
##레일이
부정부패를
##225
##용어로
형식으로서
##아내려
##제자인
##등이나
가정에서는
1240년
거부하자,
##크로서
60년대에
##적에는
##파일의
##980
##주군을
1442년
##분화가
##사기,
##르바의
##프리미
화산으로,
##초기의
##여성은
##가이는
##성적이
##대비를
##금지의
##학사의
1355년
##공군에
##예선을
##기하라
##시나무
##바위,
성인이다.
##중이라
##리가로
##폭력에
##기사단
##클리가
##페이를
##메모리
##어두고
##조종사
##법과는
##강력한
##사토의
##성리에
##봉사에
##10대
##생명을
카메라에서
##공이라
##김정은
##중계를
에우리스테
##치기,
습격한다.
2군에서는
##육군의
##미가,
##스크림
바위에서
모델로도
##윤치
기간에도
한자리에
##에디
##분광
여자라는
수도권과
경성의학
현상이나
최초로,
풍부하며
##바뀐
다음에,
지대에는
하에서,
##왜곡
##본토
자신이나
케이스는
기대와는
##톨레
구성원에
라틴어가
외국인에
드물고,
협상으로
전쟁이라
나폴리,
창원시가
산화되어
##달성
토마스의
사마의를
선교사와
구원하는
37년에
분기하여
##송시
국제거래
##후궁
의사과학
이중에서
4200
아우스터
885년
확정지은
부대에게
아스트로
삼성에서
수록곡을
곳에서의
웨이하이
싱글로는
레이스가
##이내
라운드의
손자로,
플라이를
4.0.
피에스타
다다이
전시와
받기에
변형의
##´
동작동
북부여
전자로
윤리,
발명에
로스코
내장한
문학자
로스의
중단,
승계를
상영이
속에도
지리에
코스에
임기로
법원과
아이인
66년
드물고
흑인에
에스피
김수로
육성과
간부인
금속에
서로는
살인에
입문을
베이트
##셌
입성을
혼인의
보관한
건의한
피고의
군단,
23~
신사,
연고가
96.
346
영주는
80.
실내에
보조로
신고로
운전사
대우에
242
##乙
트리에
해산에
말이라
2군의
이와이
오리게
끝내지
뿌리,
전화에
보스코
적색의
이사도
파트가
미사토
313
##情
9시간
Sel
카이토
착공을
안타가
##演
달성은
##떤
성과의
1군의
후일의
제트가
##智
##少
##バ
오이시
유리아
‎
럿
꽈
1940년대에는
##세대학교에서
##러스트레이션
프로그램이었다.
유고슬라비아가
##목이었다.
##본인이다.
##스부르크로
##분야에서는
캘리포니아주,
캘리포니아주에
##anth
##플라스의
36,000
##외에서는
##호로부터
##세운동에
##광역시가
##"으로도
##력이라는
고려대학교를
##알루미늄
##스트로가
##었다면,
##림이라는
##신도시의
##신도시는
1799년에
1798년에
##자이지만
##대원으로
##선형으로
##뉴스에서
##영역에서
##어머니는
##레스키는
##니아스는
##합동은행
##로버트
민족주의에
##0.5
##기부에
##입자와
##양식과
##경이었
##265
중심지로,
##형사상
##교수에
##심의회
##부호를
##력에는
##계와는
##릴라의
##비서를
##개정을
##지지도
##바다가
개념이라고
##외선은
##장비는
##시라도
##버전의
대학생들은
##사유의
##카드에
##’이며
뻗어나가는
1428년
##주자는
##216
##조항의
##있다"
##가는데
##박스의
##이후에
##뛰어난
천주교회의
노동자에게
##군대의
##지중해
##포트의
아우구스타
##대성을
##온도를
##시카와
성이었다.
##재정을
##교도로
##들어간
##평등이
##사자가
추기경에게
##특성을
##사이틀
##서울대
기록하는데
유일했다.
##이행을
##전자에
##유적인
##이스를
자유주의는
##성사는
##보지만
##6.0
##산화에
1187년
##'이고
##라트의
##리지에
2013,
##엔진이
##사이가
##마이는
##가나다
##아마도
##채권을
1세로부터
다음으로,
##사다는
##치고유
##OMP
##등에게
##장식은
##빌헬름
##브레드
##코스테
성격이지만
##와이스
지지도는
일본어에
광주전남
개념이나
전동기가
제작사의
모바일을
당시에,
이루는데
지역과의
영화산업
연구원,
시드니,
대한다.
기록이며
공공사업
외국인과
기구로서
설정에서
블루스와
클래식은
##즉시
##의혹
다양성의
떠나라고
##궁극
##선배
##축소
창원시는
후기까지
##미하
19.5
214년
기지로서
부동산업
##가쓰
##강등
제자로서
당시로는
역으로는
천안에서
7년에는
선이라고
##유래
선형으로
##호위
##박헌
지점에는
주문으로
회장이자
공격에도
역으로서
레이스는
친선전을
레이스의
##모바
필리스를
복원에
훼손을
##⅓
위로의
요구의
55만
포도가
위성,
산화를
코스터
재단,
액체,
축하를
항해의
단일의
65,
초에,
호수인
지리를
호주에
성적의
마산,
저장이
264
금지와
경주와
승려는
승인에
아이슬
군이나
왕족을
의사이
유성의
취소가
규제와
분화로
모음과
화산과
##直
복지와
평정을
안전이
유대의
교체는
##永
간부는
판결과
별로,
##流
외부는
일치가
감사로
##ł
청주를
의학교
##펴
주제,
##χ
##孫
밤에도
##魚
임대가
##‎
##兵
부사가
가면,
##仁
##今
제공업
역전의
##河
32번
대리가
단지에
혼자가
이수영
##学
##碑
미드는
크루는
로스,
이수는
##ق
창작동
주인지
추기
쳄
묠
홧
ㅊ
ㅏ
궂
짭
슝
formula113
##오스트레일리아주
##지연의에서는
사우디아라비아가
##미하였다.
##바이러스에
##인들이다.
##광고등학교
##필라델피아
##형으로부터
##ONCER
물리학에서는
##들인데,
물리학에서,
##망이다.
##자격으로
위원회에서는
##레이스는
올라가는데,
##주자로서
##만이라고
조선인들에게
부분이었다.
##2005
##훼손으로
##하시키는
##agen
##커스에서
##베네치아
##마에서는
##스트라는
##어서부터
32,000
##왕후에게
##장으로써
##편으로,
진출시켰다.
##관으로써
##가시나무
##치지만,
##8년에는
게임기이다.
그레고리오는
##백색으로
##아마추어
##공무원은
##아파트는
##제이스의
##케이드는
전주지방법원
##약화되어
대상으로서
음악에서는
##편이를
##회장인
범주에서의
##스파르
##행정부
##33,
##위해서
해외에서의
##테인,
##기체의
드라이브로
분자이다.
경상북도,
측면에서의
##파로는
##기계를
##차이를
##권이었
##창단은
##역시키
##관에도
##시인의
도전한다.
한국인에게
##일본이
##기사의
##175
80년대에
##정기의
##수도의
##인식이
##메르는
##폴리는
유지시키는
##폭력의
##선과는
##왕조를
##그림을
##명과는
##자라도
##2부터
##티아가
##사기는
##중부의
##형이란
##날개가
##음이라
##돌이의
##780
##주자,
##진영을
##조선정
##157
2005.
##너스로
##770
##3개월
##두에는
##사장,
모양이고,
##궤도는
##리기,
##대기는
##교구로
##군사를
만화에서는
1449년
##아세포
##아이로
들어오고,
1330년
##외계층
노르웨이로
##개발한
##밀리는
1298년
##사르의
데이비스,
##시로가
##자이의
계약한다.
##크루트
경계에는
##입력
##향해
##완화
적도에서
##고유
##전라
행정상의
##북미
공화당에
방법은,
성격이라
행성이나
##명백
##아폴
의학에서
적색으로
##5대
##협주
베이스와
안전성에
군주로,
독일제국
독일에는
##그려
환경주의
포함해,
분자에서
시기에서
시인들이
저항성이
외부에는
40년에
이중에는
##"H
십자가와
항구로서
194년
##부착
##석조
하와이를
##김수
##막내
1965
1948
근거로서
제32대
항공사와
기사단에
1966
밀리면서
보내지는
##남양
신인상,
권리로서
사이드의
민중에게
살아가게
##담고
한일은행
##법조
이치로가
양국에서
제2대대
테마주로
니시나
12층
윤리에
형사는
받고도
손상의
동경에
##å
##治
구해서
심사에
합성의
수집에
66,
##㏊
##쑹
자치의
사전이
어드레
완전체
에도를
경성에
스코르
도로도
77년
선구가
고시에
적도에
불안에
78년
매장에
쓰기,
개선은
보르고
42세
421
차트,
전도에
2일을
대원을
오이노
##初
멈추기
천거를
보장은
일정치
가수에
서명에
주간에
22~
##깎
이리나
심장,
군인인
기증을
하인이
##챗
수천의
##用
##꿍
코르네
##路
고가에
용인의
작전인
전진이
세르게
선제가
모리는
유리카
##！
Ω
東
푄
formula121
##동으로부터
##었다”라고
##리아인들은
##16년에는
##과정에서의
##하여진다.
##있었지만,
##1991년
##로스로부터
##-2014
##콘서트를
##국이기도
##10개의
제주도에서는
##서비스가
##위원소의
고려대학교의
##크로스는
##모니아는
##베이스를
##경제적인
##idel
##하이드로
##'로부터
##성으로는
34,000
##보내고,
##리아인의
13세기부터
##화산으로
##야에서는
##명이기도
##공공기관
##서비스는
성적이었다.
##속에서도
##바이다.
##수원에서
##극장으로
##환이며,
##판으로는
##칼리스트
플레이오프가
##타이로
##인간을
11번째로
##밑에서
##660
##북도의
생물이다.
##클라마
##갤럭시
##덕분에
조약에서는
##진군은
##완전성
##력이라
##인사로
진행되고,
##299
클래식으로
버전부터는
##레드를
##구마,
##아테네
빅토리아주
##오늘날
##파이를
##레나,
##명에는
##주석은
##비스타
현대에서는
##문서가
##량이었
성적이다.
##295
##클리와
##당해서
되었다고도
카르타고가
##잡지인
##족이라
몰아내고,
##의사가
##경력이
##시도를
##비스코
1350년
입장에서도
##동성과
풍부하고,
##작이며
동부에서는
##서구의
##라에는
##리어드
지방에서의
##형이자
##프리아
##치에는
차원에서는
##BAC
##오키는
재정지원을
##기원을
##연기의
이에야스에
##대장인
##세상을
지도자로,
##오리와
##주장을
##세이와
##Sec
##시에이
##확인을
##223
구단에서는
아이디어의
##수에도
##미시의
##카미가
##클리에
##rer
##미아노
##모리에
축구단에서
요미우리와
1427년
##마이즈
주전자리를
##남자의
##미시아
플레이에서
##니시는
결과로는
보이스가
변호사법
용어에서
여기에도
방문자가
##번식
기자로서
심사에서
##태국
원자들의
에이전시
##산란
개정에서
총재직을
스파이로
이것보다
##피난
##제8
도시라는
팀으로,
전기에서
##뛰어
25일을
대학에는
발명으로
##발음
제130
신인으로
권력으로
13개월
##김기
##의견
21.5
15개월
일반대학
한성에서
##챌린
교차로를
##제9
이사장과
##도주
##것,
국가에도
지도자에
##구별
##많이
##제수
기다리게
리처드가
집중력을
후보에도
제128
제작사가
##직전
##산하
##돌파
그레이는
대원으로
디스트로
전라도를
동시기에
빌보드의
어드레스
자유형을
고문서는
포르트
아트를
물어야
집계에
단위원
신화로
1일이
초대로
천체와
참조를
사이와
접속의
제자는
대구는
쓰지만
향상은
분해에
그때에
발전도
헤라의
세대와
육성,
사면은
측에는
백인,
개정의
서기에
3일이
성공작
안정이
고전이
42만
실력의
경제주
참모가
활성이
기하기
쇼군에
선호를
단어도
관측의
반사를
금지에
방지,
그들로
56,
탐사가
국도의
대조선
구에는
##林
가이의
소속한
모으며
78.
확산이
양산이
재정부
변신이
포크,
평등이
선종이
지향한
##郡
현대사
25대
##㎾
2번에
##殿
공정이
장로의
##녓
평면과
SMP
수석을
현장은
##慧
##そ
대로에
가와이
벨라가
다리오
사다카
청주한
이세계
이스미
##맴
##己
굉장
安
∙
formula117
formula5,
##물리학자이다.
##인들이었다.
##미사일이다.
##건이었다.
1850년대에
##병이었다.
##신학교에서
##10년에는
##프로스에서
##1990년
##다이아몬
##사령관은
##inde
##산에서는
##〉에서,
##코드에서
##민이라는
##였다고도
##》로부터
##식으로는
##구에서도
##반도에서
버지니아주의
##세우스와
##터로부터
##원에서도
##돌아오는
##작전에서
포함하는데,
##물에서는
##프로스트
##브리어를
##식으로서
##지적으로
중지시켰다.
##마사에게
##기반으로
저지하였다.
##-137
##avel
##imen
##노리에게
##약한다.
##대한다.
##사단에서
##진에서는
##자식과,
##작품에
##소에도
##드르가
있었다고도
입자이다.
제자이다.
##품이었
##288
##탄소,
##용어가
##목표로
##원자의
게임이라는
##서기,
##일이었
##율이나
##축하게
##후보는
##-CD
프로토콜로
##은하와
##블로그
마주한다.
##클리,
##창단을
인간이다.
##이드로
##베리안
##사람과
##사실상
한나라에서
국가이며,
##모드를
##재단과
사이사이에
외부에서는
##보도가
##무관은
##변이로
1220년
영향력에서
##세로서
##현실을
사실이지만
##소와의
##모와의
##머리,
##레드는
##화와의
철학에서는
3세로부터
1268년
##악화로
##차로로
##미가요
##가격을
남편이다.
비교적으로
1232년
가리키는데
의견이다.
##번에게
##쿠스로
##보기의
붙잡았다.
##북부에
##-3번
##지지구
##내리에
##3위를
##알렉산
##반드시
##미니의
##녹색의
##에이라
##성경을
##-44
##식이었
##자기로
발생하는데
##석사,
##모아의
##인치,
##의로서
##화재배
##크기의
##구르는
성균관에서
##기사는
1125년
##브리스
##통제사
##웨이스
##역과는
에드워드와
##헤이의
##있으면
##토리노
##자이트
##8.0
##진에는
##바시아
##자신을
##파르는
##ATV
발매한다고
##보이즈
##수아의
##블루스
##구마에
##패러
차지하던
찾아오고
신이치로
55개의
매개체로
표기하지
##캄보
운동에는
450년
이미지나
##말해
아니면,
살아남게
유전체를
##실력
공간이나
코스에서
##드시
##진학
##기각
##직무
##중시
##친선
##지폐
활성화와
전쟁에는
##마친
부사장을
거리만큼
13위에
군이며,
##김동
##도망
레이저는
유지하였
중반에서
##김용
군인에게
벨라스코
33년에
신이라는
"이명박
##밀집
3400
장소에는
준비해야
유학교육
이종사촌
##장례
후보지로
태국으로
김일성에
##공전
곳으로는
##두려
일로부터
##태어
우주로켓
이수영은
이수영의
##평소
##소모
##이션
저장소에
에이스는
스코어는
미분의
변형에
##띄
분포로
협회로
세종로
입자들
아이어
Lew
이적의
울산을
조상과
친일행
완화된
소화가
##껄
중국도
중지하
열어,
재미가
제정의
법정을
평등에
중부는
44개
유성이
미사의
완화,
집중화
액체에
잠수정
319
소유격
경유한
399
연장,
##內
여왕에
공사도
##傳
유도로
사기의
잘못한
도전,
##샥
378
경유지
하지원
창업을
채권이
와이트
서명은
##依
##秋
##넝
2세이
크루를
전선,
반지는
##寶
후지중
성사의
제트를
인상과
예비로
로드와
시상은
데이나
아동과
고가로
스케이
학사사
34번
유키의
##昌
##曆
마이의
##緣
아즈키
메이로
Ⅲ
룹
太
有
넛
г
젯
ハ
Ｍ
쩌
##대학교에서는
##일으킨다.
1896년에는
중화민국에서는
##클레스에게
##강점기에는
프랑크푸르트로
##전으로부터
##11년에는
##왕이라고도
##지방법원과
##축구단으로
##과대학교는
##왕이었다.
##중시켰다.
##바이러스의
##아파트,
##elly
##공화당의
##-DNA
##인한다고
##천이며,
##'에서,
##자원으로
##이름으로
##법에서도
##레이오스
##크리트가
##기하고,
##주의와는
북아메리카를
##46년에
##축하고,
##대에서도
##미국에서
매사추세츠의
##9000
##감이라는
##령으로,
##-6월에
33,000
##운전으로
##로로부터
##의원의원
##프레스가
안드로이드의
##리라고도
##리스크의
##트레이스
##혁신도시
등장인물로,
##군에서도
##자전에서
보스니아의
##소수에
##아이오
##잡지에
##박스와
##토리,
##원인은
##서구,
한반도에는
문제의식을
조선인들을
##역이라
##않다.
##식과는
##485
기록이기도
##현에는
게임이며,
##질이라
##기인을
주한미군이
##런던의
##전기로
##195
##남부는
##사자는
##만화를
##마법의
돌아오고,
일대에서는
##인이고
##타르크
##선생을
##연이나
##산소를
인정하지만
##원인이
##드라를
##릴라와
##30일
##기계의
##동성은
##일리아
##328
##네가와
##브리의
##서구에
##278
##줄기와
##승리의
비즈니스,
##령이라
##사자를
대장군으로
책임진다.
##14.
##165
##시와는
##321
##단위,
##114
손자였다.
##위성인
##행이라
개명한다.
요시아키는
##재개발
##대리에
##마르트
##베드로
##협상이
##조에도
##교도를
사장이다.
##교도는
주목적으로
##연료로
비즈니스의
##아나키
##반지를
근거리에서
##체에도
1275년
##세대로
##리처드
##6.5
##필리아
##비오의
활동하고,
스카이라인
##이즈가
##후보에
##팩트를
방영된다.
##처리는
##효과의
##스코어
##MAT
##SSM
모델이며,
##세이지
##발사에
##리오카
호주에서는
##디스로
공화당과
##의심
##노태
부분에도
3세기의
이성으로
개성공업
대전까지
오다가,
작업에도
미국인인
##마약
원인이라
재료로는
왕조에게
면에서의
325년
##논란
소속하는
##유언
##주니
대가로서
##서독
전자들은
##발발
31번째
##포유
##이승
사료로서
1학년에
후원자인
나는데,
참전하는
말한다고
하나라의
대만으로
27.5
황해도의
아동에게
##친척
##기숙
프라이는
성인에게
양식이나
칼리지로
수신하는
선이라는
##알바
##구입
이벤트,
발매일은
대장군이
위안으로
디즈니가
##노출
12위로
팀에서의
##"T
##수엘
표시기가
위기,
가이슈
##⅔
간에도
길이나
재배포
훗날,
5일을
사법의
고전기
피해,
혁신은
소화를
278
적합성
발현에
자세의
파트라
회원에
조지를
##쩨
해결과
복구에
임신이
자주,
부장은
베타,
표기와
원내에
사면이
보지만
후원의
##묜
76,
분리와
전부는
맞고,
싫어서
##샅
해상의
흡수가
심사는
##ノ
콜로서
영양의
가면이
제1인
줄기,
불교사
##興
성장기
복음이
추대로
제트의
유적인
관통한
음성과
부천군
8개로
청구는
분화의
재개통
독자로
전면을
호소에
대장인
55개
##걷
멸종의
리가에
기생의
##힛
구의회
316
456
##印
손해는
호주를
고위험
추적,
개인사
오브리
데이에
##ʃ
##ă
##ş
개장을
말해도
순위와
로스와
##土
##ひ
발트라
안장을
요시모
레드와
잠수사
뜀
Б
佛
빡
넨
formula114
##22년에는
##1982년
##보병사단을
##스에드워드
##갈아가면서
##엘리자베스
##-2006
##검찰청에서
##-2007
##군단으로
##철도시설
##고구려의
##아라비아
##-16,
시스템이라고
##10.0
##브라우저
##회에서의
##나가사키
##연관계가
1,000년
##메시지를
##선거대책
##한다면서
##금지원칙
##프레이즈
##이상으로
55,000
##UEFA
##감으로서
교향곡이다.
##경에서는
##목으로,
##페이로스
##체에서의
##법에서의
##라인으로
##문이며,
##파이며,
##1200
##47년에
미국인들에게
##-117
##릭스에서
민주당에서
##반도를
기대한다.
##시스테
##여기서
##크에는
##전선,
##23.
대한제국은
##출력의
할당한다.
##분배를
##122
##표면에
##항공사
##변이의
생산하고,
웹사이트로
보유한다.
##평면에
##완성의
##어나가
##해에도
곳으로부터
국민의회의
##메인과
##의로는
일본인들을
##공포병
##’로,
일이지만,
##승리를
##양식에
페르시아가
즉위한다.
##끼리와
##론과는
1227년
1219년
##주어,
##치아가
##오르의
들어가면,
##일보다
홋카이도와
소화한다.
##포스포
##무조건
생산하며,
##가스로
##테인이
##확장을
##시아닌
20000
##수정을
전하는데,
##동이었
##화산이
##65년
##전도를
##37,
##32.
##산이란
영향이다.
##들어서
대해서도,
기사에서는
##메리가
##전동에
##전성을
##167
##건물은
##프라,
1426년
상원의원에
##포르트
##평등과
##결과,
변호사에게
어린이들과
##지자는
장소에서는
##릭스에
##환은행
##나오지
##자연맹
##테인먼
##보르크
방법으로도
##트랜드
##부르트
극장이다.
##애나는
##바이드
##》과의
##장기간
##크라이
##드라,
##받기로
노선이기도
##인식은
##모니,
##나이즈
##바야마
##위로는
##동원이
##275
##다가와
##작이었
##필드로
##케이가
##비로,
##법학교
##수인은
##발생기
원자에서
1956
##임진
계획이나
바꾸어야
집단지도
1인으로
##당일
추기경,
한자문화
작가로,
표기하여
시카고는
전원으로
##멸망
끝으로,
알리기에
다가가는
선제후의
7월에서
민주화의
고전으로
##날짜
클래식과
공공정책
관리로서
32명의
티베트는
지방에도
시간에만
동북부의
34년에
995년
지역과는
광주지방
지지하였
##흥행
국제사면
잡아들여
대학교육
이사장의
보지만,
##대웅
##디즈
불안으로
에스트라
시인이었
오프로드
밝히는데
##칠레
위에서도
조지아가
클레이는
##뒤를
855년
제116
감독이던
1942
##구출
에버그린
##1부
##느낌
소설도
유인물
정의해
관중에
##ύ
써서,
##곁
##윔
메이가
885
신성장
이토가
참전국
전원과
전원에
찬성,
여론과
Rel
부패로
277
승부의
파리스
대구사
85.
노트는
보도의
거대화
해체의
일정의
분리의
부인에
종이는
실내의
##詩
성씨와
##넵
《신의
입사각
정비해
김해군
신하인
통제로
955
놀라고
##냔
구리의
이사이
75,
##藏
사항의
보수의
심판과
줄기로
이기의
##慶
고정식
33번
뒤로,
알리가
칼리만
오이와
잠시,
재즈는
폐지는
영주인
ACP
리드는
##켠
##令
부호수
다이바
데이르
각기둥
##テ
루이자
마크의
미나카
노트가
다이가
##司
하기와
이수를
댄스는
##品
5대의
AMC
Å
ㅋ
formula122
##엔터테인먼트에서
formula125
##등이었다.
##19년에는
##35년에는
##12년에는
##자리에서는
##대장군으로
민족주의적인
##플라스는
##98년에
##연합군은
12세기부터
##생으로는
##적이지도
##파라고도
##90년대
##색이라고
##화가로서
##동으로서
##선에서도
서울대학교를
##이한다.
##비치에서
##어지는데
##기구로서
##병으로서
##제에서도
##계에서,
##캐나다의
##다이다.
##갈색이며
##화로부터
##원의원이
##오프톨레
노르웨이와의
##님이다.
1356년에
##정리의
변호사로서
##동성에
##빌리타
##조정이
돌아가고,
##동방송
##인식의
##동이며
결혼하여,
##번호의
덧붙인다.
##쓰기와
1100만
##금강경
##석기가
##완전히
Lover
##17일
##정원에
##디아나
##극장에
##됨에도
##로그로
##형성에
##자신은
##행사와
조선에서의
##원시켜
##Med
##인수의
##반도는
##나이세
1189년
##이름이
##잡지를
##중국과
##예산을
내용으로는
러시아인의
##소스토
##크라우
##릴라를
##목이었
부문에서도
포기하기로
##수사로
##로로의
권유한다.
##망이나
##우리,
1265년
##제에도
##성인의
이주한다.
##석이었
##무역에
##높이에
##오키의
##파크가
##의에게
##대비는
##노동의
##치기에
나가마사의
##기부는
##적인지
##말로는
##수동,
##나오가
주한미군의
##무대,
1246년
##세르의
국방부에서
##여성과
결과에서는
##감사에
##대수의
동지중추원
##부사의
##르지는
1375년
##전시켜
##꼬리가
##소화된
1349년
##티에르
##성능을
##1위에
##폴리를
지상에서의
##감사로
##행사,
창당대회를
##다이치
##프로듀
##통제의
##장기병
마사유키가
##친구로
##시드를
##정보도
1199년
##회로가
##유리가
##극단에
##내내는
##손자로
##전투를
##사자기
##미와의
##지인의
남자이다.
사단이다.
##우가의
프리메이라
##승계
전투기인
공기업의
##성벽
330년
단위로는
##컴퓨
정신의학
과학자로
신이라고
운전자는
문제에는
생산하며
표기에서
북부동맹
대신하기
사는데,
위기까지
##깊이
31세의
근대화가
뜻이라고
자신과의
##오랜
모델로는
조선에도
9월에서
추구해야
##김경
Sour
645년
가스파르
일이지만
32번째
##아벨
##유명
인물이자
##몰아
상주에서
23세에
거주지에
기독교회
단어들의
시카고를
##개별
군에서는
육군대학
바꾸어,
재정비를
사이로,
뜻하는데
제120
##부딪
가입자가
##술탄
매니아들
33번째
별로부터
나고야의
흰색이며
20일을
해리에게
시라이시
이유로서
##싶어
보아서는
마리오가
사이드는
##가즈
인권유
선물과
분산은
통계가
65만
현대가
선고유
성이나
액체와
영어나
개국과
설명의
삭제,
포크를
길이라
임명이
자바로
보안은
결정지
저지는
침입은
##♯
편에는
경력,
dem
비교도
1차례
초기는
등용을
거부가
부장에
비상업
유전은
주문은
복지의
상관을
항의한
밝히려
##뺨
342
타임을
왕비,
##麗
눈이나
창간호
신도심
성인에
7개를
한국내
규제,
##ý
##죤
표시에
광산은
##要
13층
95.
NAN
참전,
대한자
불법의
방어로
##眞
754
방위는
작전도
수신이
조치의
수리,
대원의
리드의
전자전
파크와
국가공
상속의
오프라
파이는
광고대
8개국
와카를
납치를
에이번
코스케
항공전
##ц
센트리
고전에
##숄
##御
##먄
##ム
시드의
제1군
제시를
제이드
호주로
최대사
나가치
소스포
##▨
슴
國
ㅎ
χ
뎃
四
꾹
أ
formula4,
formula7,
챔피언스리그에서는
##적이어서,
1980년대를
오케스트라에서
1899년에는
##1980년
##34년에는
##주고속도로
##학교에서는
사령관이었다.
##집단이다.
##기지이다.
##트가르트로
##용으로,
대한제국에서
##하였다며
##관에서도
##점에서도
##48년에
맞이하였고,
이들이었다.
##처음에는
##이치로는
##》으로,
1796년에
##45년에
##중심으로
##사람들을
##랑이라는
##안으로,
##물이었던
##숙한다.
##-9월에
##마리에서
##행위로서
##네스에게
##징역으로
##-199
##형이지만
##트에서의
##다"며,
한국시리즈는
게임이었다.
##오로부터
16강에서는
##공학적
##화산의
##법은,
##량이라
##사인은
길이었다.
실수이다.
##다이와
##하이,
##대중의
##노선과
##'와는
##지식의
##다가는
사령관에게
최고위원회
##코드와
##두로,
중심이며,
##사장은
##년에도
##들여진
##시의회
##판과는
##야구단
##레드의
##판이라
##풍이나
##어두운
##149
동일했다.
##바위가
연구에서도
##147
##있어야
금지하고,
##적의원
##뿌리를
##출신인
1215년
보병사단은
지역으로는
##신도가
##146
##경이며
유적지에서
##장과는
##령에는
사령관직을
##폴리에
공격하여,
##역사에
##Sun
##고가는
##순수한
##받기를
##768
##차이는
##마치의
##주지만
##사토가
명칭으로,
##무실한
##자스의
##진군이
15일에서
전문학교를
##데르의
##268
##태종이
##구와는
그곳에서도
##제사장
##상관에
##동원,
##바시의
##주군은
##동원은
##감에는
##리더십
##직원은
1376년
##히트가
##12일
##하이에
##업적을
##760
##에이리
##제대로
##화학교
당사자들이
Loves
##통화를
폴리에스테
##》와는
##기인과
##5월에
##버트를
참여자들은
##비와의
##파이의
##제사,
의원으로서
##카타가
##제이션
##사고전
##로로,
##문관에
흔들었다.
요미우리를
##라리의
##리타는
현장에서는
##테크는
프로그레스
##WWE
##증권은
##이벤트
##보통과
##웨이즈
##기가야
최근에도
이벤트와
단어로,
대기업을
228년
높이는데
활동에는
게임기를
불리지만
생각해도
윈도우는
아니면서
나머지,
##바닷
영국에는
##기재
주장에는
1세대에
##친일
승인하여
교향곡이
공산당,
현대화된
사마천은
종사자는
폴리스의
시장이었
개선으로
강원도를
직후에도
정치에도
민주화가
유적지를
미사에서
열리는데
시대상을
##대피
인간이나
창원시에
제125
왕비에게
중심지의
활성화,
##없던
많아서,
이듬해의
##초청
시인이며
점에서의
가는데,
##억압
가까이의
찾아가게
##단백
보병으로
미사에는
목소리,
##동행
2세대는
조상에게
##만든
왕으로,
스테이시
팀에게는
##모서
##임상
참모로서
모리아티
조직후원
입력은
비상대
잡아가
암호가
삼성을
아트리
기체,
살인이
##＋
권고한
수리와
강에는
회전과
##쟝
발현의
유전에
손자의
시가는
메리를
면역을
산소에
로마법
합의의
상호의
보관에
##퇘
후보도
보지는
33세
368
사가의
합격을
부인한
미사는
면역이
신도의
청주에
##郎
친정에
사라의
가면의
철수는
일대,
임대해
이남은
복수에
상속에
329
비상임
완성,
국도는
이슬로
합성,
특이적
후계를
공중의
국도로
##괭
접속해
신사로
김용의
초대한
가시를
일치의
사도와
김상용
재즈에
리가를
##굳
주전파
상위로
재건의
다이사
무장과
에이드
유로는
채권은
모리아
와서,
세자는
##庵
여성향
마법은
정지의
감사는
파이온
발사,
포트,
양자리
##吉
##受
##プ
이사카
##ハ
##進
브로스
##極
##ブ
##퀵
야스코
미카는
에이르
##諦
목조지
≥
↔
틔
十
К
##기관이었다.
##드라마이다.
##1993년
1894년에는
##38년에는
##할아버지가
##28년에는
##식으로부터
##하였다면,
##신이라고도
##실이었다.
##라이제이션
16세기에서
국제사회에서
13세기에는
물리학적으로
한국인들에게
##공화당이
성격이었다.
##클레이토
영역이었다.
##주는데,
##사회적인
##anto
##사이드를
##아오르는
##지대에는
역사가이다.
##코스에게
##시에이션
활성화된다.
##판으로서
집안이었다.
##패한다.
##셰비치는
##하에서의
##자유로운
##2500
##중한다.
장군이었다.
##포인트가
##사직에서
##본이며,
##성적이고
##심이다.
##-1호로
##금이라는
##100여
##받지만,
##관에서의
##이에서는
부산광역시와
##라스에게
##당에서도
##사이에는
##-700
##실이라는
위원회로부터
##역이지만
##무실에서
##라크루스
승강장으로,
##stor
##종이기도
1775년에
##코스와의
##국민주의
##산군수로
##일리스트
유적지이다.
##야스에게
##오가이가
방향으로,
##수동에
이론에서의
##공학에
웹사이트와
대학에서의
##기인의
통제한다.
##헤드를
##193
##안이라
차지하여,
##해와는
##26일
##별로,
##KBO
##내리기
##락이나
특이적으로
##선형의
저지대에서
##보내려
##선이란
공공기관이
##이성의
##기사,
##통합의
##249
##235
1211년
##헤이가
##협력에
##가스에
보스니아인
##포로는
이스트리아
##바다는
##문자,
##화와는
##지식이
##이주의
것이어서,
##백색을
제자였다.
##기호는
##말로서
해당한다는
##기부가
##490
##디오스
##여기는
##나이스
늘어나고,
##신학과
빅토리아가
##왕실의
##유사의
##일대를
##무부를
##나라인
관계에서는
##377
##219
##344
##형성의
##공신을
##금속의
##박사는
##상대로
##문관과
장군으로서
##문서로
##토미의
##원에도
##랑이로
##정기가
##무사령
##텍사스
##318
##540
##살이나
##미가와
##길이를
협박한다.
##아스트
##공주,
##치로가
##학사에
근처에서는
##이성질
##루이는
의미에서,
##두에게
##37.
##분해를
##기기가
동시베리아
##사면의
##석사를
아버지와의
##주인수
##시스카
##사사로
##메이가
##무사의
##화장을
##1위로
##광고가
데이비드는
##tte
##나이어
나선은하의
##표시가
##변수에
##발사는
##헤이,
##표기,
##로로가
##생이자
##자이던
##클레인
##절도가
##오라이
돌아가시
##철거
##최소
46개의
음식에서
지표면의
##뜻을
유기체를
구조로서
##참조
요소로는
서울시에
온라인과
내는데,
등이라고
역에서의
##대외
이상이며
##링컨
맞지만,
연대에서
순서에서
아이들도
말한다면
주장이었
##기여
있는지도
사실상,
무기고를
##초등
심장으로
시의회의
원자들은
##깨끗
작곡가와
복무기간
54개의
케이스의
8년에는
##찰스
장치로서
정신분열
##당대
##현역
서북쪽은
##습격
조선인에
위치해,
##하락
합성으로
중국에도
13위로
##전혀
브라이스
상속하는
중국과학
나이트로
23세는
연기하여
운전으로
##무죄
제160
연구원을
출연료를
작사가로
1150
신이치의
##지션
나카자와
공기압축
5.0.
실수와
##맸
입장,
9시,
후원이
서방에
영조와
앞면이
불법이
연결의
Sep
유신이
##둣
항의에
골드러
저서의
점프,
걸어야
이슬라
##雄
조정해
아리오
받아주
부장인
독일도
강제노
계절을
살해에
이에도
[...]
